#version: 0.2 - Trained by `huggingface/tokenizers`
a a
e e
a n
o o
i i
u u
Ġ k
aa n
Ġ d
a r
a t
a m
Ġ h
Ġ i
t i
Ġ b
a b
a l
Ġ g
Ġ j
i r
Ġ f
Ġ t
k k
Ġ m
u m
i n
c h
Ê ¼
d h
Ġ w
Ġ a
Ġd h
s s
Ġ q
Ġ s
ee n
o m
Ġk an
ee ss
r r
t ti
Ġ O
r om
Ġf i
i s
y y
oo t
um m
Ġj ir
n i
ĠO rom
at ti
ii n
u r
aa l
Ġi s
kk a
uu n
d d
Ġ n
y aa
a Ê¼
Ġq ab
Ġi rr
a g
ĠOrom oo
Ġh in
aa f
u n
an ii
Ġa kka
Ġ o
Ġ A
Ġk eess
Ġj e
aa t
â Ģ
aa s
Ġ y
a ch
b b
Ġb ar
umm aa
i l
oo n
uu f
Ġw al
Ġ l
oot a
r a
am m
a h
m m
e r
am a
an n
a d
i yy
Ġ B
Ġt aÊ¼
Ġt o
een y
j j
aa r
Ġje dh
i yaa
ee f
s aa
Ġ M
Ġ c
Ġg ar
at a
Ġ G
at t
o r
s a
Ġis aan
Ġto kk
u l
a yy
Ġkan a
Ġ W
Ġjir u
a f
Ġirr atti
a s
r aa
Ġ D
Ġirr aa
Ġ ar
u f
Ġi tti
Ġis aa
l ee
a q
ii s
i t
Ġw aan
Ġ S
b aa
Ġt ur
Ġ I
an d
Ġ H
an a
Ġ âĢ
o t
eeny a
Ġg u
Ġh o
Ġg o
aa m
s oo
Ġ amm
a kk
Ġkeess atti
w w
Ġw ar
am aa
Ġb iyy
al ee
Ġa dd
ii f
e n
g a
g aa
Ġi l
Ġo f
Ġk un
p h
n a
Ġd ee
o l
Ġ K
ee k
um a
Ġdh aa
un d
B O
i f
am u
o n
u b
i m
t ii
am an
Ġ umm
Ġ 2
i tti
Ġtokk o
g g
Ġn u
er oo
ach uu
am e
Ġh und
Ġar g
Ġ uu
Ġd and
t u
ab a
Ġ T
Ġd ur
Ġkeess a
ayy aan
aa tti
t uu
Ġh ar
Ġt ah
Ġisaan ii
Ġy oo
Ġdh i
Ġ F
Ġjir a
dh a
Ġ Q
at aa
Ġ yaa
u bb
Ġg aaf
eef f
Ġg al
il is
n e
Ġk eenya
d a
am ee
Ġ 1
i ch
Ġdh a
oo l
n ee
Ġje ch
i dh
Ġb eek
al l
ag g
Ġy eroo
Ġm alee
Ġ J
at ee
umm aan
Ġ (
aa ch
Ġb ir
al a
Ġd ab
Ġ ab
t aa
Ġkeess aa
Ġirr a
am uu
k aa
ar aa
at u
Ġqab soo
Ġq o
oo m
at an
a y
f aa
ĠOrom iyaa
Ġgu dd
Ġtur e
Ġuu mm
a kka
ar s
Ġh idh
Ġo l
oon ni
Ġd iin
aa y
Ġd ar
Ġ r
ee g
Ġs een
ilis ummaa
ar r
Ġ U
Ġ x
Ġn am
ayyaan ee
ot a
t t
u dh
Ġm oot
f aan
ĠâĢ ľ
d aa
Ġa kk
âĢ Ŀ
Ġs ab
ann oo
Ġjir an
Ġm ir
a dh
aal aa
e dd
u Ê¼
al aa
at e
Ġn ama
Ġbiyy a
a w
Ġs o
0 1
Ġdee b
m aan
Ġi j
Ġho jj
Ġi n
Ġgar a
in a
Ġh aa
i y
een yaa
Ġbar baa
dh aan
= =
Ġh ir
Ġm ur
ĠA BO
Ġqab u
Ġg ab
t ee
aal a
e ss
Ġ ni
Ġh ub
j ii
Ġgo dh
ee s
Ġumm ata
K an
en n
Ġh um
Ġdh ab
Ġwal iin
Ġd ubb
Ġs ir
Ġi b
Ġh edd
Ġdand aÊ¼
aal l
aa Ê¼
aan n
Ġ N
Ġs h
Ġf udh
ach uun
i dd
at anii
Ġ ra
A A
âĢ ¦
Ġis a
h aa
f ii
Ġ L
i ti
i Ê¼
Ġm ar
is aa
a dd
Ġbar a
Ġdh u
Ġh an
b a
Ġdhaa bb
oot aa
q ab
eess aa
Ġ Y
Ġb oo
oo f
Ġb ah
ee r
an ni
ag aa
Ġy k
Ġl af
an i
aq aa
Ġdee m
ĠA m
Ġb akka
Ġj ab
0 0
Ġg ah
ĠtaÊ¼ uu
an aa
Ġg ad
Ġ ti
Ġadd a
n een
uu l
t e
u s
aa yy
d ee
! !
Ġb ul
Ġf akk
Ġdh uf
Ġj al
ii r
Ġyk n
s iis
Ġk enn
t oo
ch aa
Ġ E
Ġyaa d
s ii
Ġg uu
Ġm ag
ee rr
Ġil aal
a jj
eess a
Ġuumm ata
Ġ aan
Ġo rom
Ġm aal
Ġ eeg
yy aa
r i
Ġk araa
um aa
Ġqab a
aat u
oot ni
k aan
aas a
ph iyaa
Ġra kk
ee ra
Ġ2 01
Ġt aan
rr aa
f in
Ġhar Ê¼
t iin
ar a
Ġb ilisummaa
Ġt aas
q q
Ġdur a
Ġm ana
Ġib s
aan a
Ġamm oo
e d
Ġdh al
Ġ p
Ġd ir
Ġb uÊ¼
Ġk eenyaa
f a
ĠW ayyaanee
mm a
aat iin
Ġ C
r u
aal ee
Ġs ad
Ġ er
Ġb aas
or m
Ġmoot ummaa
Ġk u
Ġkan neen
d ii
Ġs an
Ġ aman
anii f
ĠtaÊ¼ e
Ġamm a
Ġm iti
aba j
O rom
oo r
at i
ach aa
ar raa
ab s
in fin
aat a
Ġa jj
Ġjech uun
bb aa
Ġgar uu
Ġkan aan
s i
Ġ raa
a j
Ġj i
Ġjedh u
ich a
e dh
k a
ee l
k an
ach uuf
Ġhedd uu
Ġho jii
Ġg agg
Ġdhaa b
a ww
ĠU mm
Ġh af
aan ii
is uu
Ġ R
Ġn aann
Ġil maan
Ġdh ag
Ġh im
Ġbar att
t oota
am anii
aat ii
Ġl amm
Ġm ii
ĠOromoo n
Ġbar r
Ġwar ra
ii g
Ġf uf
ag gaa
e s
Ġs iyaa
Ġgudd aa
ach iis
Ġ u
ad aa
Ġab baa
Ġb o
Ġo soo
ĠtaÊ¼ u
Ġk abaj
Ġij aar
m aa
Ġm aqaa
Ġboo da
Ġw aa
aach uu
ch a
ab b
un yaa
Ġmir ga
i d
infin nee
âĢ¦ âĢ¦
Ġs aba
aas aa
Ġw ayyaanee
Ġdar b
ch is
Ġk aÊ¼
Ġm ul
Ġin ni
Ġjir aat
Ġm is
Ġ e
Ġseen aa
aar aa
Ġso ch
Ġkan aa
e f
Ġi tt
Ġhan ga
iyy a
a k
ĠtaÊ¼ ee
Ġqab an
Ġb al
Ġtur an
a c
Ġa faan
Ġof ii
am aan
Ġakka s
D h
n u
t an
ĠB ilisummaa
eess uu
aan aa
s uu
== ==
as h
Ġis in
Ġm oo
Ġt ar
Ġdh ii
am uun
dh aa
Ġh aala
Ġwal itti
Ġk aas
m a
f faa
Ġqo ph
o d
rr a
e l
Ġhum na
Kan aaf
Ġadd aa
Ġnaann oo
o k
u dd
Ġlaf a
ww an
o kk
Ġ al
bb o
ĠD h
Ġgu yyaa
Ġ P
Ġuu m
aaf i
Ġjedh an
oo ti
ĠS h
Ġ 3
Ġc im
u d
Ġumm at
Ġm orm
i x
Ġmag aalaa
Ġorom oo
Ġtaan e
âĢ Ļ
aa b
ĠF infinnee
Ġhojj e
Ġ ee
r ee
Ġdiin a
ch uu
Ġm il
Ġfi l
Ġdhi mma
a x
Ġs ana
Ġ aa
A kka
Ġbarbaa d
n aan
Ġjech uu
Ġakk uma
Ġdir q
Ġh aw
ann ee
ĠA faan
ul l
Ġsiyaa saa
ar kaa
e gg
r ii
Ġs ag
Ġg ur
K un
Ġh or
in aa
s aan
rr atti
Ġraa ww
Ġ ool
K ana
on ni
gg an
ĠâĢ ĵ
ars ii
aa q
i mm
Ġjir uu
Ġyaa da
Ġbir aa
D O
ar g
Ġgar aa
Ġk ee
een s
Ġwar eeg
* *
Ġh amm
Ġf ii
Ġjal qab
ni v
t a
ann e
ar ra
Ġhund a
d uu
ayyaan een
Ġhidh aa
ĠB ar
Ġw aggaa
ĠQ eerr
y oo
Ġjedh anii
an g
Ġgar g
Ġdhi h
Ġsir na
il ee
s is
ir a
Ġje n
ĠW al
n aa
att ii
ĠharÊ¼ a
Ġq oo
Ġj aar
i g
Ġgab r
Ġtar kaan
Ġtaas is
j if
Ġmul Ê¼
r e
Ġtah uu
Ġadd unyaa
aat aa
Ġd uu
o f
Ġjedh amu
is h
Ġji jj
l e
Ġl ol
n oota
Ġf al
2 01
Ġ1 9
ch i
u rr
Ġl ubb
um ur
Ġf edh
ĠUmm ata
Ġamm aa
Ġ eeny
mm oo
Ġrakk oo
Ġil lee
Ġb u
Ġjedh ee
Ġis h
Ġhar ka
Ġsad arkaa
Ġdhu gaa
ĠA r
am ni
h e
âĢ ľ
Ġqo fa
Ġh oo
Ġg aÊ¼
Ġa s
i b
Ġdeeb iÊ¼
O O
Ġitt iin
ag a
ann aa
ee b
Ġqab s
u tti
l aa
l i
ĠI too
E E
ĠA dd
Ġgaaf fii
Ġgad i
ef f
ich aa
Ġl akk
Ġdhu g
Ġg oot
Ġ am
Ġtokk ummaa
Ġk aayy
Ġk oo
Ġmur t
al lee
Ġnam oota
Ġb aq
um sa
Ġo d
Ġmoot ummaan
Ġqab saa
ĠâĢ ĺ
t aan
Ġf ayy
P DO
dee m
Ġ alaa
i a
Ġdab ars
Ġw ajj
Ġtah e
Ġd uÊ¼
ann een
ĠA b
L F
ĠA f
am ne
ĠH ab
l een
it ii
at uu
i k
o p
ĠOromoo f
yy uu
Ġer g
Ġa g
Ġj ala
ĠW BO
yy aan
Ġf in
um as
Ġdab al
Ġq aam
s h
d aan
Ġd adh
ess a
ann a
Ġn a
ar oo
u g
ab aa
Ġq ub
Ġf ur
iy aan
ar uu
Ġq or
Ġhund i
Ġn amaa
arr i
ich i
Ġd an
Ġn yaa
Ê¼ ee
ot aa
Ġaa daa
oot ummaan
l a
s uuf
ee raa
Ġjir aachuu
Ġdh iis
Ġb ilis
aat e
Ġi f
Ġn agaa
Ġbiyy aa
ĠItoo phiyaa
Ġab b
Ġs aa
Ġn ag
I n
Ġc aal
aat ee
Ġlamm ii
Ġb it
Ġy aal
s ee
anii ru
i qq
Ġd al
Ġkan atti
W al
Ġa k
Ġb if
Ġk uf
Ġk aan
ĠdandaÊ¼ u
Ġb aÊ¼
ti n
eess uuf
Ġsoch ii
is a
Ġs aam
Ġer ga
ĠO PDO
aa w
Ġmoo raa
ĠQ ab
Ġdand eeny
b oo
uu dhaan
ti yoo
Ġdiin aa
t ummaa
Ġbul ch
ir r
il a
_ _
Ġdh aam
ĠâĢ Ŀ
Ġd aan
Ġa deem
Ġg ama
ir raa
Ġmir kan
Ġ 4
Ġ ?
eess uun
Ġdhaa ba
Ġgarg aar
ĠG adaa
x an
g oo
Ġkan aaf
iin sa
Ġg egg
Ġbarbaa chis
Ġd uul
idd aa
Ġa f
al ph
Ġkaayy oo
ee q
Ġw aam
Ġk eeny
eess an
at ni
Y eroo
Ġt a
i q
o g
Ġi mmoo
P LF
in aan
Ġdadh ab
ĠY uu
A kk
ĠtaÊ¼ an
in ee
ann oon
Ġb akk
at amaa
Ġn uuf
idd uu
Ġf uul
U mm
Ġm al
Ġx umur
Ġg aar
Ġs un
b ii
ĠM ag
ĠH ar
b oon
o gg
Ġbif a
Ġwajj in
Ġmis eens
Ġh aww
aÊ¼ aa
Ġwar ri
I I
Ġjech a
Ġb ad
. .
Ġnam ni
Ġdar g
Ġjir aach
att oota
Ġk al
att uu
Ġwal ii
eess u
f iin
ĠI tiyoo
ĠQ BO
Ġdhi y
Ġ 5
aa d
Ġtah u
ĠM in
ĠW aaq
Ġakkas umas
Ġbaratt oota
Ġb aaf
Ġs alph
Ġfal m
is uuf
Ġj alaa
Ġbo bb
Ġb aay
aaÊ¼ ee
ĠA d
Ġgaaf a
as haa
ĠQeerr oo
á Ī
Ġhund aa
Ġa j
Ġwar aana
Ġdeeb ii
Ġguu tuu
d ur
t er
Ê¼ aa
ĠO bbo
Ġjijj iir
Ġjir tu
Ġqab na
e m
Ġc aalaa
ot ni
ee y
Ġk am
Ġdh aq
Ġn atti
ĠI n
s uun
m p
d u
ch uun
agg oota
ann u
ĠB iyya
um aan
Ġbir a
Ġgur g
Ġkeess an
Ġdh uun
Ġh ii
Ġeeg al
n ii
eess e
W aan
at ama
ĠG od
Ġbu qq
eess ee
is ee
Ġin jif
t o
Ġ2 00
Ġ X
aall i
am siis
Ġtokk oo
Ġt he
B ar
Ġqab ne
iyy aa
Ġ ul
ii saa
D G
aan ni
ĠA bbaa
Ġg amm
Ġdirq ama
i c
ee t
amee ra
Ġa d
Ġh am
at aan
Ġb uu
G aaf
rr i
uuf i
is u
Ġf ag
ĠOrom ummaa
Ġh al
arr atti
Ġjal atti
aa j
Ġw an
arsii tii
Ġqabs oon
Ġx iqq
is iis
oot ii
ĠA l
oot iin
in g
e tti
Ġqo faa
Ġakk am
O M
Ġgabr ummaa
Ġb an
er s
ĠbuÊ¼ aa
âĢ¦âĢ¦ âĢ¦âĢ¦
aq a
Ġg aa
Ġfayy ad
Ġu tuu
Ġt an
um saa
Ġg um
Ġbarbaa ch
t oonni
Ġk a
Ġwar aanaa
Ġjaar m
Ġj aal
ĠtaÊ¼ eef
c om
Ġdh aan
ĠOrom o
H ar
Ġbir oo
G aruu
ii tti
Ġij ool
ĠJ imm
m oo
u k
Ġlubb uu
Y oo
q ur
Ġgagg eeff
Ġtarkaan fii
in d
Ġm ataa
Ġnu tti
Ġb all
aw aa
ii ra
Ġsab boon
ar ii
==== ====
aas ii
Ġg an
Ġo tuu
af f
ool is
Ġajj ees
eess it
att ee
ĠK an
is uun
Ġ uf
Ġl ama
Ġm add
Ġq al
Ġto l
A N
u kk
u t
ĠT PLF
am uuf
Ġjir ti
ar ee
iy oon
ĠtaÊ¼ a
t ota
Ġho j
Ġh aal
Ġgab aas
o ch
Ġhedd uun
Ġaan goo
il aa
i bb
Ġnu ti
Q ab
Ġq aww
aam aa
Ġqoo da
Ġg and
Ġgo d
un qur
Ġd iig
ĠG al
Ġdur aa
A BO
or k
Ê¼ a
ed er
er oon
ĠF DG
in e
adh aa
Ġjir ra
I N
Ġg add
ĠtaÊ¼ uun
rr ee
an iin
Ġak eek
Ġk en
at amu
dd oo
Ġgal m
f i
k ol
Ġm ees
Ġwal ab
o s
Ġtah ee
Ġc arraa
M ootummaan
Ġ ala
Ġdh um
Ġhir m
!! !!
dh aaf
ess aa
at oota
y ii
Ġku ni
u yyaa
Ġdh eer
Ġm ad
ĠU umm
Ġish ee
Ġw ay
H aa
Ġsag alee
Ġbiyy oota
Ġku t
jj ii
Ġbar n
Ġje tt
ol a
ĠABO n
ii sa
aas h
Ġgudd aan
een aa
Ġr oo
Ġku taa
Orom oon
u q
Ġtaas if
Ġ ani
Ġg am
Ġaman tii
Ġdhal oota
Ġbarbaach isaa
Ġho ggan
aat an
ĠT ig
ĠYuu niv
bb oo
m aata
ĠItiyoo phiyaa
Ġirr ee
Ġ201 4
Ġjir eenya
b aan
Ġm uu
ĠJimm aa
Ġc unqur
ee kk
ĠI l
i j
Ġjir ru
Ġaan aa
at ame
Ġ 0
o ra
ah aa
oot ummaa
Ġf ac
Ġib sa
Ġguu t
ĠT okk
ch uuf
Ġq on
Ġirr aan
U U
at am
k f
ĠdandaÊ¼ a
Ġm aq
Ġjedh e
Ġmorm ii
Ġhor d
oom aa
Ġhaw aasa
Ġyoo m
Ġm ud
aat iif
Ġdh ok
in ni
Ġdandeeny e
an ee
Ġc uf
ti s
Ġfakk aatu
o ph
ĠI s
Ġtur ee
Ġf aa
Ġx iyy
s u
Ġ |
Ġ an
Ġ um
ĠQab soo
yy aana
Ġdh iyaa
an taa
b uu
Ġ 6
Ġd im
Ġd ag
Ġumm ataa
c c
Ġkaas ee
Ġs aanii
aay ee
t h
Ġk iyya
Ġbar noota
T okk
y aan
Ġjedh a
Ġgah aa
ĠA bb
ati on
Ġfi x
Ġgaar ii
Ġmii dh
um atti
Ġl abs
Ġdar an
e g
Ġdiin ni
ĠGod ina
S ab
Ġd iddaa
an itti
Ġu kk
ĠOrom oota
Ġi yy
Ġqab eenya
ĠW all
ars iis
ajj ii
Ġ Z
Ġwar raa
Ġqabsaa w
R OM
Ġl amaan
Ġumm anni
Ġajj eef
Ġis aaf
amm uu
Ġw ayy
Ġ 7
Ġs eera
Ġwal g
Ġdee gg
ĠHab ashaa
Ġ1 2
Ġeeny ummaa
aÊ¼ u
Ġdab r
Ġwal l
Ġhaw aas
Ġt uf
Ġb or
Ġs i
N am
Ġbar siis
Ġqaam a
il l
Ġqab nu
Ġo g
ĠB iyy
aÊ¼ uu
Ġajj ee
eess anii
Ġjedh een
Ġl aaf
Ġgo chaa
Ġmag aal
een sa
Ġdhi mm
Ġc abs
Ġsh akk
il ik
Ġmil k
S A
Ġk ar
ĠD arg
Ġamm as
Ġod oo
att u
Ġsaa x
ĠI b
i kaa
Ġh ayy
q aa
en t
aj eel
Ġt aj
ĠW ayyaaneen
Ġqab atee
Ġdarg agg
at amuu
am een
Ġt ana
ĠAf ri
âĢ Ķ
Ġab dii
Ġwal iig
Ġm ee
ul lee
Ġ201 3
Ġwareeg ama
Ġmaal iif
Ġamm o
Ġakk an
ir aa
t anii
mp aay
oo k
ĠAm boo
ĠW ar
b ee
á ī
ĠMag aalaa
Ġji bb
Ġg idduu
Ġb oon
ab al
Ġt aaÊ¼
Ġadd aan
Ġmir gaa
n is
Ġsab aa
Ġil aall
all i
at uun
Ġarg amu
Ġbarr eeff
Ġdab ar
s anii
Ġcim aa
Ġd ub
Ġy eroon
Ġbiyy attii
e Ê¼
Ġakka sii
Ġfedh ii
Ġmoot umm
s an
Ġo bbo
Akk uma
Ġjedh uun
d i
aa dh
eel l
Ġif atti
o lee
abs oon
b an
en y
is anii
Ġisaan iif
B ara
á ĭ
e y
Ġk ol
aa baa
Ġbeek u
ĠAm aaraa
Ġo too
Ġqo f
Ġbir atti
or g
Ġmur tii
A R
á Ĭ
Ġ1 0
ee tti
Ġl een
Ġjen nee
Ġtokk oon
af faa
Ġ 9
Ġd in
Ġq ind
ĠO ROM
Ġhir iira
aa ww
Ġhund aan
aa rraa
Ġa ch
Ġul f
aat uu
Ġsab aba
irr atti
Ġb aan
Ġw ayyaaneen
is e
Ġ201 5
Ġummat ni
Ġgum aach
om m
aÊ¼ ee
oot aan
Ġdh ala
is an
Ġmir g
Ġtaj aaj
Ġi fa
i bbaa
uu dha
Ġh aaraa
** **
Ġr agaa
Ġhan g
Ġd amm
Ġm ax
chis ee
Ġhord of
Ġhar k
Ġ 8
am oo
Ġy akk
Ġb il
Ġfin iin
o Ê¼
ĠG ab
Ġs eer
Ġmees haa
t uun
Ġjiraat an
Ġilaal cha
eef i
AA N
j edh
s if
ĠB ul
Ġhamm a
u taa
Ġdhii ga
ĠharÊ¼ aa
Ġhan q
Ġ and
ĠS ad
Ġdar ar
Ġso d
/ /
aa rr
S h
Ġgo n
u ni
att e
Ġee gg
Ġb aayy
at ii
ĠHab ash
Ġk on
Ġhar kaa
ul q
ii l
am tee
o ti
Ġijool lee
ĠH o
Ġqaww ee
Ġy akka
Ġgah e
Ġhir iir
Ġfin c
Ġd id
Ġwan ti
Ġmar ii
Ġbar b
D F
s e
il lee
Ġjir aatu
oo lee
Ġarg aman
Ġdubb ii
N amni
Ġwalab ummaa
iif i
Ġdhab uu
Ġd ach
ĠD haa
Ġt urr
iyy uu
ĠQeerr oon
Ġsaax il
Ġ1 5
__ __
Ġdh iif
ĠD r
aq q
I l
ac c
Ġgur m
Ġgurg ur
am toota
or ee
Ġj ajj
Ġdh eeraa
it aa
Ġfur maata
D haa
Ġg oon
uu dh
Ġjedh amee
Ġfi d
Ġto r
am tu
Ġh aas
Ġf ir
Ġwal iif
Ġkeenyaa f
Ġhoo ggan
t ar
I saan
Ġwaam icha
Ġbaay Ê¼ee
Ġdeem aa
Ġt att
M M
Ġag arsiis
Ġk een
Ġgo chuu
Ġmurt eeff
Ġaj aj
e ra
Ġ -
at uuf
Ġdhuf e
ish aan
it a
Ġs uu
M aal
Ġakk anaa
in c
m an
Ġq eerr
Ġsir ni
Ġjab aa
Ġxiyy eeff
H aala
Ġm an
Ġgaaf ii
Ġqab uu
Ġp oolis
Ġdal ag
in u
Ġbal Ê¼
Ġbarbaachis u
Ġgar ee
Ġtah eef
Ġhub achuu
ĠMin ilik
aa ra
Ġlubb uun
? ?
Ã £
Ġf aar
Ġqab eenyaa
H um
Ġk kf
Ġdhaa d
Ġh u
n eef
o w
A dd
aat t
d iin
ĠâĢ Ķ
Ġgal ii
Ġg or
ur a
Ġqabsaa Ê¼
Ġjaarm ay
Ġq ajeel
Ġfil annoo
Ġb ay
Ġa chi
aÊ¼ a
Ġuumm anni
ĠL amm
Ġbarn ootaa
g ar
Ġmar a
u ti
G ab
Ġjiraach uun
ulq ull
i h
K eess
Ġseen aan
is t
rr oo
Ġduul a
Ġqab du
Ġhum naan
Ġ2 0
ĠH aw
Ġqoph ii
Ġhir ee
e w
Ġkun is
Ġm in
Ġukk aam
Ġjech aa
Ġc all
Ġr eeb
abb oon
i z
Ġbeek sis
âĢĶ âĢĶ
Ġmax xan
Ġjajj ab
uu tti
Ġm aatii
ĠJ ir
Ġsh ira
Ġh amaa
Ġdeegg ar
eess i
Ġd egg
Ġw aggoota
Ġjir uuf
ix x
Ġn aan
w aa
p p
s it
at iin
Ġw aayee
umm a
Ġi yyuu
Ġdan taa
aal een
ach iif
Ġtah an
ayy uu
ĠkaÊ¼ e
Ġs ar
A L
o h
Ġfakk aata
Ġtatt aaf
Ġn uu
Ġhum ni
Ġ201 6
achiis uu
Ġw aaÊ¼ee
ok r
ĠAfri kaa
Ġt oof
Ġdhab amsiis
Ġtokk ummaan
j e
Ġt as
ag aan
Ġg ay
sii saa
Ġbarr uu
t iif
l aan
g al
m b
ers itii
A T
Ġk amuu
Ġdhaam sa
Ġij a
Ġdeem u
Ġbal aal
ayy aa
A b
Ġ /
Ġnam oonni
Ġkal eessa
Ġdhuun f
Ġkabaj aa
Ġbarbaad u
Ġis ii
iyoon a
Ġbulch iinsa
oo tti
Ġo n
Ġlaf aa
Ġmii dhaa
Ġd u
Ġwaliig al
Ġh aar
Ġbar ataa
z e
Ġs ammuu
in sa
s iif
Ġt akk
af xan
Ġhii k
K anneen
Ġsir rii
all att
U umm
uu mm
Ġkee y
. âĢĿ
Ġsab ab
Ġ aar
Ġjiru tti
Ġarg achuu
W ar
W arri
j ir
Ġtarkaan f
a ph
Ġwarraa q
ĠM ootummaa
Ġdhi bb
Ġhum n
S ir
Ġh aga
Ġb alaa
Ġj aall
Ġof iin
Ġdarb e
Ġdaan gaa
Ġbaratt ootni
eess atti
bb ol
Ġhoo gg
Ġar r
Ġdhag ah
at amee
Ġq ulqull
Ġjir aa
Ġy oon
aach aa
or uu
a saa
ang al
ĠG aaf
ar an
: -
Ġ19 9
A B
t s
Ġq ar
Ġn aaf
aas ee
ĠD ir
O N
Ġgar ag
Ġar maan
ch aan
ĠA w
Ġfuul a
Ġdamm aq
am eef
Ġm ala
enn aa
at att
l lee
Ġk aroo
th i
uu s
umm aaf
o rom
Ġw ol
Ġturr e
Ġe jj
aach uun
x ii
Ġm ak
A mma
Ġlakk oof
Ġt um
od e
ĠAdd a
Ġti k
eet tii
aat anii
an is
c e
Ġbad ii
ann aan
Ġnag aan
Ġh ab
Ġisaan i
Ġtaan ee
Ġinjif annoo
aa k
oom a
ĠAm eer
201 4
Ġh aalli
Ġp aar
Ġisin iif
Har Ê¼a
Ġ V
Ġb eekk
it oot
Ġqab aachuu
Ġc ode
Ġol itti
ĠI to
Ġhidh aatti
s o
ĠM ar
u niv
aa ti
Ġdhuun faa
Ġmalee s
e t
Ġgu yy
Ġ1 1
ee dd
Ġm anneen
Ġuumm ataa
Ġisaa tti
abb ii
Ġb abal
Ġd og
Ġb eel
H o
Ġbiyy atti
atan i
Ġsh an
Q absoon
Ġmii d
i jj
t onni
Ġt uq
it tii
a ss
ĠI rree
Ġgad ii
aann oo
Ġtur te
Ġd ug
Ġa ww
ah ii
, âĢĿ
Ġd ii
ĠA n
Ġdhi b
w aan
aÊ¼ e
Ġmil kaa
Ġ2 5
Ġl am
E r
A M
ool essa
Ġbah aa
Ġ )
ĠI tti
Ġgagg eessaa
ix aa
G al
ze x
Ġee bb
e b
ĠS om
Ġorom iyaa
Ġhaf e
o b
Ġk ak
Ġk ab
Ġdhu kk
Ġdub ar
n uu
ag dee
Ġso ss
Ġilaal chisee
at in
oot aaf
att oonni
Ġwar r
t ootni
ar kaan
aam saa
ĠBar ataa
Ġm u
aas uu
ĠOROM OO
Ġgah ee
Ġy o
un yaan
D iin
M ee
Ġb as
Ġmiseens ota
ĠUumm ata
ĠM is
A mm
at een
Ġdaan dii
S H
Ġakkas uma
Ġmaq aan
m ii
Ġf uudh
e Ê¼ee
Ġjir anii
Ġhoj iin
thi op
Y aa
aas aan
Ġdab re
t een
ach iisaa
ir ee
Ġi m
Ġa yyaana
Ġdh agg
ĠOromoo tti
R akk
Ġish ii
am te
eeny e
Ġh aq
ĠtaÊ¼ anii
G ama
ĠO l
aal ii
Ġc al
Ġq ot
Ġtah uun
Ġhidh annoo
Ġra s
Ġgoot ota
In jif
i mma
Ġk uma
am ii
Ġar gaa
iir oo
Ġdabal atee
In ni
Ġsag antaa
eeny i
ĠH ay
Ġhum noota
Ġgand a
Ġe g
ah a
Ġta ph
e k
Ġdhag eess
Ġgurg udd
i daa
Ġkun oo
Ġdur ee
Ġal atti
Ġk um
I tti
Ġt umsa
Ġdal d
ĠB ahaa
Ġtokko tti
Ġuumm atni
00 0
b la
ĠkaÊ¼ ee
Ġgar b
Ġhund uu
Ġsir r
Ġadeem sa
Ġg uf
ĠAdd unyaa
Ġbo q
Ġakeek a
u gaa
Ġi ddoo
Ġm eeq
Ġbal Ê¼aa
och ii
oo raa
aÊ¼ an
Ġdh angal
eeny aan
ĠB ir
ĠM ootummaan
af a
Ġnu rraa
Ġkenn uu
~ ~
ĠB oor
Ġfudh achuu
E gaa
Ġh aqa
ww aa
) ,
ag ga
Ġsiyaa sa
Ġbalaal eff
Ġdhaabb achuu
ĠF eder
s isaa
Ġduu b
Ġd oor
Ġdubb atan
aas uun
Ġhin qab
Ġab d
Ġbarbaa da
Ġgargaar sa
t ootaa
Ê¼ aan
Ġjir tan
Ġbah ee
Ġf eder
Ġeeg alee
Ġdhu k
Ġmis eensa
k ii
uu ra
Ġd edd
Ġs eeraa
ĠA anaa
Ġal agaa
Ġt akka
Ġdir ree
A ni
oom f
Ġmurt eessaa
ĠAb d
Ġgod ina
Ġbiyy ummaa
Ġhub achiis
Ġhin d
Ġ oof
Ġkol on
f akk
ach a
b ar
arr een
Ġo b
Ġl aal
Ġyaa dd
Ġsan yii
Ġdarb ee
Ġyoo kaan
Ġsh or
Ġbarbaad an
b ul
Ġa yyaan
Ġhund aaf
Ġkon kol
Ġwar aan
ĠA kka
ĠG uu
S eenaa
Ġgab aab
Ġjedh aman
Ġdhuf u
Ġ1 8
Ġm ars
Ġh atatt
Ġhaa ra
idd aan
een c
ĠO bboo
ĠG u
ĠK ibbaa
Ġjir r
iy oo
Ġm ogg
Ġo bbol
ach iisa
Ġb ishaan
ĠG ar
Ġcunqur f
Ġdegg er
ĠD C
Ġbeek amu
y a
Ġeeny u
Ġ ang
Ġwal t
ĠM as
ol lee
Ġt ti
Ġk iyy
ir ri
Ġt arr
Ġmur na
Ġjiraat e
ĠIto phiyaa
Ġof irraa
Ġw agg
Orom o
d an
e dha
Ġi faa
Ġo r
ur aa
Ġduu ba
ĠYuuniv arsiitii
Ġl ab
Ġ1 6
z ii
ĠG oot
Ġbarbaachis a
b o
Ġgodh an
ĠG uyyaa
Ġarg am
Ġhojj achuu
Ġmag aala
ĠA s
idd a
!! !
K araa
g udd
Ġf ash
Ġk om
ad aan
ĠS ab
Ġbah e
Ġr uk
Ġdhii bbaa
Ġm ata
Ġqab anii
k oo
Ġt aate
Ġguu tummaa
add aa
Ġf ar
Ġkal eessaa
q a
ĠdandaÊ¼ an
Ġm itii
Ġs anaa
Ġdhaq qab
g ala
n am
ĠâĢ ¦
Ġgal ch
Ġummat oota
ĠTokk ummaa
Kanaaf uu
Ġbaay Ê¼
Ġm aall
il een
Ġb uuf
Ġgodh e
Ġabb aan
f achuu
Orom oo
oo b
Qab soo
W ayyaaneen
Ġk all
H und
aa jj
Ġh ag
ĠOrom oot
Ġakkam itti
Ġdog ogg
ix a
ee d
uu r
Ġso daa
EE N
Ġdhukk ub
Ġs im
Ġh adh
Ġbah an
Ġc in
Akka s
2 00
j iin
urr ee
aa dd
aan dh
att an
Ġfuf ee
atanii f
ĠdeebiÊ¼ ee
Ġcaal aatti
Ġtoof taa
in ii
Ġmar iÊ¼
Ġhaf ee
eess aan
Ġgodh aa
Ġadd atti
Ġsab oota
Ġdhuf ee
Ġ2 1
Ġtah a
us l
Ġarg amsiis
U MM
Ġis aas
it u
Ġdhab uun
al oo
Ġ1 4
I b
an ga
ĠH um
Ġkaroo ra
at aman
it t
ĠJ aal
d aal
f f
Ġm idh
Ġbaas uu
Ġdhug oom
ĠG udd
or aa
Ġgu b
iÊ¼ a
ĠAr sii
Ġd i
G uyyaa
ĠG amm
idd u
ĠO r
ĠtaÊ¼ aa
Ġamm aatti
Ġgarg ar
o c
om aa
ĠS ir
Ġhub achuun
P R
Ġhund ee
Ġdubb atu
Ġdur ii
Ġol ola
t tii
uu g
Ġb aatii
Ġg adh
Ġdh iig
Ġdheer aaf
Ġbarb ad
Ġbabal Ê¼
ĠAmeer ikaa
Ġj eeq
dh an
Ġw anni
Ġirr att
il b
ni b
Ġfuul dur
Ġdhaabb ilee
Ġseer aan
d e
yy ii
ĠI rraa
ma il
itoot essa
G ar
aam a
Ġuf f
A faan
Ġk adh
aat aan
ed ia
Ġbar umsaa
Ġdand ay
Ġabb ootii
iin x
ĠS abboon
Kun is
A D
Ġ !
Ġof itti
Ġbit taa
aar m
Ġgodh u
Ġqab ee
il li
Ã ©
ĠOrom iyaan
Ġtokk oom
Y AA
aa h
is ti
Ġbah uu
Ġgegg eeff
ĠB ilis
Ġboo d
T I
Ġsad ii
Ġq aan
Ġs ilaa
ĠE r
Ġb in
Ġjir re
A SH
Ġdhi ph
Ġwall aal
Ġil ma
Ġdab ree
Ġm as
ĠH in
Ġhedd u
ĠIl maan
ĠB oruu
Ġbir aatiin
Ġqal bii
Ġn afxan
Ġl aata
Ġdhagg eeff
ar aan
A bb
ĠO b
Ġwaa jj
am nee
Ġf aall
Ġkana s
Ġaf ur
q aba
Ġ1 3
Ġrakk oon
IN G
Ġr if
adh u
Ġho gg
oo s
Ġt eenya
Ġtas g
ii d
ĠO n
Il maan
Ġdh aal
ma yaa
A m
Ġbir aan
Ġbul aa
B iyy
t tu
Ġf arra
Ġbaas uuf
arg ee
I S
agg ar
201 6
Ġbilis a
Ġ ati
Ġdhaa baa
m i
âĢ¦âĢ¦âĢ¦âĢ¦ âĢ¦âĢ¦âĢ¦âĢ¦
Ġajjee chaa
L amm
Ġ :
Ġq uu
Ġdhaabb atu
Ġhaa dha
mpaay era
g aaf
Ġsoch iin
Ġgal a
R R
ĠM ir
siis uu
Ġtaan aan
Ġlol a
p s
Ġbeek amaa
Ġuumm at
Ġdand eenya
Ġhidh aman
id aan
â ĸ
Ġdeem uu
ĠGab r
Ġk ess
Ġjedh ame
Ġho l
ub ee
ar saa
Ġdiin aaf
ĠdandaÊ¼ ama
l m
Ġmorm it
is aan
il leen
Ġirraa tti
ĠAb dii
PR DF
C H
ĠOromoo ti
Ġk aaf
Ġm anaa
Ġkan uma
B iyya
Ġgo chuun
ĠOrom ootiin
Ġqor annoo
Ġw ayyaan
ĠK eessatti
M ur
Ġ2 4
Ġmirg i
e h
g ee
Ġdh ork
Ġarg ama
Ġarg ame
Ġjijj ir
Ġm allatt
Ġt oo
ĠG ur
ĠE thiop
Ġis aatiin
Ġduub atti
O A
Ġi r
Ġar iÊ¼
T ON
aan ne
Ġn an
Ġqabsoo f
achiis uuf
201 3
Ġbilis oom
H ir
I j
Ġk aaÊ¼
Ġjedh ama
aandh ala
H aalli
O bbo
Ġgaaf fiin
it y
Ġarg atan
Ġhojje t
Ġqal b
it ee
âĢ¦ .
Ġs ii
Ġisaa ti
ĠSad aasa
Ġgah uuf
Q eerr
Ġhaf an
ĠWall aggaa
X G
ĠM P
Ġbeek uu
Ġsab ni
Ġfudh atee
ibb a
Ġtuf f
ww w
Ġdur aan
ĠE bla
Ġfuf a
ax aba
H aal
Ġk af
Ġh aqaa
ag alee
af uu
ĠdandaÊ¼ amu
Ġguu r
M N
s isuu
oon ii
Ġf aay
ĠD H
am b
Ġg ool
Ġwal qab
Ġqab uun
âĢ İ
it e
Ġee ga
Ġod eeff
Ġway ita
is tee
Umm anni
B arr
k ana
Ġdh aaf
âĢ ¬
Ġol ii
w al
Ġd org
Ġw eer
âĸ ¶
ĠK utaa
Ġdedd eeb
Ġl ag
Ġgo daan
Ġkeessatti s
ĠN am
ĠSh aggar
Ġj idduu
ch iis
w a
mb ed
# âĢİ
Ġam ana
Ġq aq
ĠH idh
Ġgo ww
Ġmar ti
Orom iyaa
Ġkar oor
m ee
aal lee
Ġof iif
eenyaa f
Ġgad aa
Ġ3 0
N uti
Ġkan arratti
Ġjir uun
Ġ2 3
Sab ab
Ġqab aa
Ġkeeny aan
Ġeegal e
S ad
Ġgo chuuf
ph iyaan
Ġgudd ina
a sa
Ġqab atanii
Ġbeek ne
Ġtaasis e
eess oo
aas ni
Ġx in
Ġg oo
ING TON
n oo
Ġol laa
Ġs anii
ASH INGTON
ĠOromoo s
Ġdur sa
Ġdhag ay
at eef
Ġdand ah
Ġdim ook
Ġaww aal
Ġwal q
Ġdand eettii
ĠY univ
Ġw aar
Ġdh oo
is i
Ġn aq
ayy oo
Ġqub ee
d uun
r an
Ġg id
aÊ¼ anii
ĠSh awaa
nib arsiitii
A r
b eek
aaf ii
Ġitti n
Ġf edha
Ġtaas isuu
Ġdh am
it aab
Ġmul dh
r ot
ĠN ag
Ġag arsii
Ġham ilee
t okk
um an
ĠL eenc
Ġgaggeeff amaa
Ġbarreeff ama
Ġm ot
Ġdhuf an
Ġlammii lee
iin a
Ġd agaa
Ġbeek a
arraa q
Ġijaar uu
Ġhaw aasaa
Ġqub a
Tokk ummaa
aas e
ĠOromoon ni
Ġgu rra
Ġgo cha
Ġadd aatti
Ġij aarr
ĠduÊ¼ a
ir ra
ĠH und
Ġgab aabaa
g aÊ¼
Ġjett ee
c aa
n iin
am in
ir aasii
ĠF inc
Ġr ama
ABO n
K aayy
Ġti lm
Ġwaa daa
Ġdarb an
F infinnee
ĠG um
Ġbeek an
ĠC aamsaa
Ġqo faan
? âĢĿ
am iin
Ġq eÊ¼ee
is oo
aat tii
Ġdubb achuu
Ġgidduu tti
aÊ¼ uun
e c
======== ========
axaba jjii
Ġk iyyaa
Ġwar aanni
ĠAm aar
Ġgah uu
Ġxumur a
Ġfash al
aa mm
Ġwaan uma
Ġgaraa gar
Ġtur anii
Ġilaal u
maa mm
ĠHar argee
H aat
I R
v er
ĠG ull
h im
er ee
Ġbaas ee
Ġaman taa
Ġc ab
ĠS eenaa
Ġ19 7
i baa
x ee
Ġdarg aggoota
t r
á Į
ĠD aan
Ġmil iyoona
D H
p it
v e
Ġdhab ee
Ġf eÊ¼
Ġt h
ĠH ir
Ġgodh uu
Ġgal gala
ars h
201 5
Ġmadd a
ĠAm ajjii
aan is
Ġd af
Ġbaratt oonni
Ġl all
Ġso baa
och iin
M is
Ġc inaa
Ġbir m
Ġdhal ate
Ġbar at
ĠF infin
Ġseen a
Ġbah anii
Ġog gaa
on d
ool lee
Ġfal maa
ar m
Ġx ur
Ġlaaf f
al een
Ġm ij
ĠM ur
Ġc ich
Ġdeem an
Ġdhimm i
Ġbar umsa
il ii
ĠM ana
Ġtokk ollee
Ġfudh ate
Ġyaa m
Ġ1 7
Ġol iif
! âĢĿ
N ama
l aamaa
y i
dh u
Ġkenn an
Ġum rii
G od
Ġt u
Ġ( âĢľ
arr aan
Ġsan atti
Ġakkam iin
W ASHINGTON
Ġ eer
Ġ2 2
an q
arr ee
Ġroo rroo
um tuu
Ġtokk oof
Ġol aanaa
Ġhojje chuu
x annoo
Ġj aarraa
att ootni
Ġx iinx
Ġgon f
Ġhu jii
Ġmiid iyaa
s atti
x oo
at amaan
ul b
usl im
Ġdab b
kk aa
ĠB ara
Ġdar araa
Ġbar oota
Ġol ol
Ġhojj achaa
D ubb
Ġt un
ĠY eroo
rot es
ess uu
Ġeeg amu
Ġdin q
Ġk aff
Ġkan an
Ġilaal uu
k un
Ġ oo
Ġakk ana
Ġmaal tu
Ġjalqab aa
Ġbar achuu
udh an
Ġwalg ahii
Ġjir eenyaa
Ġsag an
Ġdhiis anii
Ġcunqur saa
K uni
Ġulf aataa
Ġhir aar
Ġt iin
ĠI j
Ġfudh atan
Ġlamm affaa
Ġdim okr
Ġbaayy ee
z idaan
Ġb aad
Ġp ol
Ġshor ork
f ame
h t
ĠD im
n g
ª #âĢİ
ĠO duu
aq aan
Ġjalqab e
Ġham b
A s
Ġl iq
Ġjedh uu
af aa
iy a
ĠHaw aasa
Ġdh umaa
Ġjir aniif
achuu dhaan
oof tuu
Haal uma
Ġgal ma
ĠN aannoo
Ġ umur
Ġgar iin
Ġeeg ama
Ġibs uu
Ġgod in
Ġjiru s
Ġqeerr oo
f amee
Ġd em
Ġj ara
aat uun
ĠK on
G u
Ġdur atti
Ġgal aaf
Ġbaas aa
ĠO MN
Ġfayy aa
Ġhind and
Ġerg am
____ ____
, ,
1 9
T PLF
Ġamm allee
Ġgab aa
Ġdeem a
Dh al
Ġd ukk
Ġg oota
Ġwal aba
aann u
Ġgan ama
I L
Ġbar aan
adh e
Ġ at
Ġqab xii
Ġgab b
ĠE PRDF
Umm ata
M ag
l amm
oo yy
Ġqab nee
Ġy aroo
Ġdhaabb atan
ĠAm er
Ġkeeny atti
ĠYuu nibarsiitii
uu niv
Ġf iig
Ġwal oo
ĠtaÊ¼ een
Ġc aala
T he
y ee
Ġm araa
Ġgal maan
Ġgab aasa
siis uuf
Ġkenn aa
Ġrakk isaa
Dh ugaa
K K
ĠW ayyaan
Ġdu wwaa
Ġc aasaa
Ġh iyy
Ê¼ n
Ġarg atu
add a
achiis u
Ġdandeeny u
Ġb adh
Ġn aa
Ġol aan
Ġgah u
ĠIn g
uu m
Ġk aay
Ġsir b
I sa
Ġb ur
Ġdh uma
Ġo duu
ayy a
Gaaf fii
s inee
dh uma
ĠJ aarraa
Ġlaf ee
Ġdhag aÊ¼
Ġg alee
Ġbaratt ootaa
ĠYuuniv ersitii
UMM AA
T A
Ġgu rr
Ġarg uu
oom ish
Ġmal u
âĢ ĵ
ĠS aba
ĠUmm at
isiis u
ĠOn kol
Ġq un
Ġfudh atu
Ġyaal ii
Ġhaww ii
Ġnaan na
ar d
Dh ug
Ġfag oo
Ġhaal aan
l an
Ġq eeq
Ġumm ati
ĠF XG
Ġjaar mayaa
ĠGull allee
ĠharÊ¼ as
Ġhal kan
Ġgon k
Ġsirrii tti
a yaa
ĠT V
Ġhojj atan
Ġhoogg ana
Ġk b
ab uu
i ss
Ġg atii
Ġkan arraa
Ġhin jir
on naa
atee ra
ees h
Ġjen ne
Ġkb ps
a dha
Ġn uun
Ġbeek umsa
Ġkenn u
: //
F akk
t y
Ġisaan itti
Ġuumm atoota
Ġdhaabb achuun
Ġs umm
ĠM udd
ol l
Ġu t
ĠmulÊ¼ atu
Umm atni
aal iyaa
aayy uu
Ġwareeg aman
Ġtajaaj il
Er ga
Ġdh un
Ġkeess aatti
Ġ2 6
ull uu
ĠOromoot iif
oot umm
ic c
g mail
ĠT uul
Ġx ax
Ġlol aa
Ġwal fakk
aniif i
Ġg eess
ĠB itootessa
all aa
E e
Ġb aat
is iisaa
ĠG am
D arg
aan gudd
Ġb el
Ġdab alee
Ġgamm achuu
ijj iir
g araa
Ġto Ê¼
Ab dii
M aqaa
Ġw o
ĠM acc
alee l
Ġyaad u
Ġool u
S an
h ar
r oo
am s
ĠH ag
Ġhir Ê¼
ĠN ama
Ġdeem uun
ĠG o
atanii ru
Ġs aÊ¼aa
Ġgu yyaan
âĢ ĺ
Ġgoot ummaa
Ġdal agaa
Ġdach ee
itaa ba
Maal iif
ĠLamm ii
Ġk oph
Ġqab siis
ĠH aa
eeff achuu
Ġt arsii
ĠY aa
Ġjedhamu tti
Ġdhaad annoo
G ara
Ġadd unyaan
Ġkaas uun
Ġgaa zex
Ġroo rr
Ġj ee
ĠM all
it uu
dh ab
oot tan
ĠS iyaa
Ġshakk ii
Ġkam iin
r o
Ġnam aaf
Ġjab aatee
is iif
ĠA kk
Ġtaas isaa
ĠB aqq
Ġseen e
Ġpoolis ii
f uf
ti chi
udh aan
Ġakk aataa
Ġqon daal
iin si
ach u
ĠL ixaa
Ġjal qaba
Ġfuf u
Ġdabr an
Ġb e
Ġwajj iin
uu tu
Ġk ij
ĠM o
Ġnam ootni
aaw aa
ĠDarg ii
Ġq in
ul ul
Ġtur ani
all e
Ġhaa rom
ĠN aq
) .
ĠB iyyaa
Ġqoo d
Ġaddunyaa tti
ĠGabr ummaa
Ġqaq qab
ĠI rr
Ġgodh ee
mp ay
Ġqon naan
T arkaan
p iyaa
amm ad
Ġseen an
Ġkenn ame
ĠBar attoota
Ġdhiis ee
Ġjett e
t otni
Ġkeess um
Hum ni
f atee
al ii
Ġdhaabb atee
Ġang oo
Ġh as
Ġm aaf
Ġibs an
ĠP oolis
W arra
Ġgaaf atama
Ġjalqab ee
i dha
Ġ "
Ġk oree
Ġf ala
Ġgaaf ata
Ġer gaa
Ġtajaaj ila
Ġlab sii
t on
Ġis anii
Ġhund atti
Ġhaf u
Ġl amaa
Ġdiin aan
Ġab aar
Ġdhug aan
Ġfinc ila
J ir
yy oo
ĠAf rii
H anga
ool l
Ġcaal u
Tokk ummaan
**** ****
Ġbeek aa
Ġmud ate
Ġdh ah
Ġgaaf atu
Ġgal atti
Ġraa w
Ġgabr oomf
Ġsod aach
rotes ts
B C
as ii
Ġdhab e
Ġjijjiir ama
Ġ v
e v
Ġarg amuu
Ġmur aasa
Ġdubb iin
Ġsoch oÊ¼
Ġadeem sif
1 0
Ã ¼
Ġsalph aa
ĠA adaa
amm aak
it iin
Ġdur see
Ġibs anii
Ġmii l
k anii
o tti
um aaf
ĠQ oph
Ġseen ee
ĠU m
ĠAw ur
Ġdagaa g
Ġt aatee
ĠD ab
enn oo
q ii
Ġs iif
Ġar ii
ĠR oo
Ġlakk aaw
Ġmeeq a
g aan
adh ee
Ġgab aaf
ĠAm an
Nam oonni
Ġi d
ĠM u
Ġfudh achuun
Ġjen naan
ĠM aal
Ġgar aan
ĠG ad
ĠK ad
Ġnu rratti
Ġti kaa
W an
ĠM oh
ĠDhaa bb
âĢĶâĢĶ âĢĶâĢĶ
ĠDir ree
Ġqot ee
Ġhin t
ĠI rratti
ĠT as
Ġbah uun
Ġfuf e
Ġhojje chaa
Ġyoom iyyuu
k iin
Ġf aana
Ġm oor
ĠOromoo rratti
Ġfudh atama
Ġqoph aaÊ¼
ĠOPDO n
ĠB eek
Ġgaaf achuu
Ġfuf uu
aan i
Ġd add
ĠA yyaana
saa tti
amanii ru
Ġbas aas
Ġgonk umaa
oo d
eess inee
ĠB aar
Ġdeeb iin
Ġi maamm
Ġs ak
eerr i
Ġbakk aan
Injif annoo
f amu
ww aan
Ġbaas e
ĠAd aamaa
Ġqaww een
Diin ni
Ġ ennaa
ĠD iddaa
Ġkun neen
Ġbul chaa
Ġdhuf uu
Ġmaal i
Ġbaas anii
abb iin
ang udd
ĠDarg agg
ĠIb saa
Ġdarar amaa
Ġb ubb
ĠW arraaq
ĠWBO n
Ġbakk ee
ulb aana
ee kka
ĠOromiyaa tti
Ġmuu mm
ur ee
Ġjedh amuun
Ġgo l
Ġmees h
Ġbil ch
Ġf een
Ġhin taan
il e
ĠS BO
Ġso b
Ġgodh ame
Ġyaad atama
Ġgam taan
Dhaa b
J e
am aal
ĠAdd aa
B akka
Ġi ss
Ġirratti s
ĠJ al
Ġjechuu dha
Ġam baa
!!!! !!!!
Ġbarbaachisaa dha
O PDO
Ġ áĬ
aman i
oom ina
Ġyaad annoo
Amm as
d een
Ġisaanii tti
Ġbaas uun
Ġijool leen
Ġhaar aan
Ġdug uug
O n
Ġq us
Ib sa
Ġtilm aam
H aw
g gaa
ee ti
eeff achuun
Ġab j
AA L
Ġbah a
ax x
Ġken ne
am aniif
Ġjir tuu
ĠB aalee
ala yaa
Ġdhabamsiis uuf
ab ummaa
al uu
Ġjechuu dhaan
ĠgaÊ¼ aa
t or
Ġyaa daa
Ġbah u
Ġrakk ina
Wal umaa
Ġkall attii
ĠtaÊ¼ uuf
Ġkaayy oon
ee tt
ĠD ar
orm ii
Ġsar b
Ġwarr een
f amaa
v es
Ġm anni
Ġjir aan
ĠA B
aas an
n an
Ġi jj
att anii
ĠQ ubee
iy aalee
Ġd aaww
Ġdir iir
Ġbil b
k n
Ã ¸
Ġirr ati
kaa k
Ġeebb if
Ġk aa
amm a
it an
Ġkonkol aataa
ĠEthiop ia
il iz
Ġyaa ddoo
Ġgal an
Ġbarbaa dd
Ġfakk eenya
ĠC h
Ġbaas u
ĠIrree chaa
k eek
Ġk ooti
Ġj ilb
Ġfi duu
Ġl aga
Ġjedh amtu
ĠD ii
ĠharÊ¼ aatti
Ġhab ash
S AA
ĠA h
Ġarg achuuf
Ġnafxan y
u dha
Ġyaa Ê¼
Ġnam ummaa
eerr a
Ġdhaab uu
Ġgarb ummaa
Ġruk ut
Ġf un
Ġguu tu
Ġ =
Ġq illeen
idd utti
Ġtakk aa
orom oo
ir oo
Ġhar iiroo
i an
Ġs afuu
Ġkeess aan
aw a
le m
Ġkum aat
Ġ eessa
ame tti
Ġhund umaa
ĠT oo
Ġjen na
ĠE e
Ġilaal uun
Ġkuf f
Ġdin agdee
O f
um si
Ġhund eeff
Ġakk aan
ĠdeebiÊ¼ anii
ĠduÊ¼ aa
A n
q uu
Ġtarkaan fiin
in uu
Ġjedh amuu
Ġgal uu
Ġnam atti
ĠgaÊ¼ ee
nam tii
Ġk itaab
Ġtokkoo tti
Ġbar ee
Ġl aat
ĠM ul
Ġdeem ee
Ġwaajj ira
U T
h o
dh ee
Ġmur tee
Ġhor ii
Y Y
f atan
v o
ay a
Ġhub annoo
Ġbah uuf
too ti
Ġal aatti
ĠbalÊ¼ inaan
ĠAfrii kaa
ti tti
Ġb aatee
Ġg af
dh e
tt p
Ġdhab b
al aan
Ġkeess att
Ġbar siisaa
Ġisaan iin
ĠB aq
ay ee
Ġ200 8
ĠGoot ota
ĠOrom ummaan
Ġgar een
ĠJ aar
Ġib saa
Ġmidh aan
ĠB ur
Ġgaaf atam
ĠdandaÊ¼ uu
ac uu
Ġbilis ummaan
Ġgegg eess
q ee
Ġ2 7
Ġlaf ti
A l
il aanii
ĠD uul
ĠF I
ĠF uf
Ġajaj a
Ġguf uu
Ġtah anii
Ġkenn uuf
Ġrakkoo lee
Ġb een
Ġbar atoota
Ġhim an
ĠkaÊ¼ uun
Ġwalt ajjii
1 1
T aph
Ġc acc
Ġfaall aa
Ġbiyy i
ĠJ edh
s aaf
Ġf ul
ĠB akka
Ġfuf uun
Gaaf a
Ġwaliigal tee
Ġpaar tii
at oomaa
Ġdh o
Ġtah in
Ġtaasis an
Ġleen jii
Ġkeen na
ti cha
Ġq arsh
Ġy ennaa
Ġwal d
aay uu
S ochiin
Ġj iÊ¼a
Ġf or
Ġf ira
ĠO na
Ġdeeb if
Ġjen nu
Ġalaa baa
Ġtarsii moo
S ana
Ġd aaÊ¼
Ġj arri
Ġf aash
ga w
Ġdhibb a
akk aa
en er
Ġjijj ii
ĠdeebiÊ¼ uu
arii tii
ĠIb sa
Sir ni
ĠS ud
Ġil moo
Ġgodh anii
ĠtaÊ¼ in
ĠG ud
ĠK ir
Ġlol toota
ĠB aha
Ġdhuf uun
ub ar
Ġjedhan itti
Ġi mpaay
Ġmar aan
Dhaa bb
Y aad
Ġqab amanii
Ġfudh atanii
Ġ201 2
Ġnyaa ta
Ġway ta
s uma
oo ni
Ġh eera
ab ii
ĠS an
Ġ19 6
g an
Gab aasa
aan ee
Ġbar aar
ĠF il
Ġyeroo tti
Ġab ba
Ġkabaj a
ĠTig raa
uumm aa
Ġqin daa
k ee
Ġh aleel
eess ii
iin saa
Ġje ttu
aach a
W BO
Ġh eg
Ġq aanii
sii sa
Ġkabaj amuu
ĠAr tis
Ġdeeggar sa
Ġ199 1
Ġrama d
Ġg umaa
Ġto f
ĠbaÊ¼ uu
Ġdeddeeb iÊ¼
e p
Ġkan aatti
Ġgo sa
Ġjab eessee
Ġkenn uun
Orom iyaan
Ġam ala
Ġbaq attoota
ĠWar aana
a z
ĠW axabajjii
Ġtur eef
Ġijaar sa
Ġhatatt amaan
Ġguutummaa tti
Ġfedh e
Ġdhiyaa te
Ġgarag araa
M in
ĠW aan
Ġak eekka
Ġagarsii sa
o q
aÊ¼ ii
ĠS ochii
Ġuum ame
m ent
Ġk ur
ol aa
Ġgal aa
Ġdiin ummaa
Ġumur ii
I YAA
i w
Ġb eey
ĠâĢľ )
ĠWal daa
Ġbuqq if
Ġmilkaa Ê¼
Ġmars ariitii
J arri
Ġs amm
Ġl ameen
Ġmaal ii
Ġcunqurf amoo
G o
Ġd amee
ĠA laa
ĠbuÊ¼ uu
kan aaf
EE S
een aan
ĠK abaj
Ġfii x
Ġgaggeeff amu
Ġodeeff annoo
Ġdeeb isuu
es h
imm aan
Ġtaasis u
Ġbaq att
Ġkeeny as
Ġdhiif ama
ĠFinc ila
D r
Ġk ibbaa
Ġn aanni
ĠF aran
~~ ~~
ĠBoor anaa
God ina
Ġm at
ch ee
Ġ1 00
ĠJ aw
Ġhedd umm
ĠWaaq ayy
Ġsabboon ummaa
Mis eens
Ġjir aata
Ġjiran itti
Ġmur annoo
Ġbaas an
Ġfeder aalaa
G oot
Ġ áĪ
Ġf ees
Ġw or
or een
id e
ĠP aar
Ġhojje tan
Ġwarraaq saa
uu ti
Ġwal irraa
ad ii
all oo
Ġdan saa
Ġad ab
Ġmootumm oota
Ġqeerr oon
W aaq
c a
Ġdhuf anii
Ġ19 8
Ġdhiis uu
Ġjaall an
ĠSir na
Abb aan
D ur
om a
Ġqab ate
Ġkeess umaa
Ġtokk on
Ġadd aatiin
achiis uun
H oo
M ir
Ġdha w
Ġwaa q
Ġnyaa taa
an e
Ġis aatiif
Ġdhaab ni
ĠMir ga
er e
achiis e
Ġxiqq aa
Ġjaal ala
ĠTig ir
H idh
Ġqab di
ĠS abaa
ĠQ absoon
ool een
oof ne
ĠbuÊ¼ aan
ĠAr ab
Ġ4 0
Ġol l
Ġtaasis a
ation al
Ġk ees
Ġs add
Ġarg anne
ĠT aadd
Ġgal u
Ġgaraa garaa
op p
ĠTuul amaa
Ġdh an
ĠL aga
Ġyaad an
Ġaan g
Ġhojii rra
ĠWaaq eff
Ġlakkoof sa
Darg agg
B eek
ar y
Ġj ar
ch u
yy u
Ġqab eessa
ĠB arr
ubb uu
Ġibs uun
abb i
f ama
al oota
Ġt iif
Ġy omm
ĠB irr
ĠM uslim
Ġgo dha
Ġwar aab
Ġ2 8
Ġx ix
Ġgodh amu
Sir na
U R
us h
Ġhal kanii
Ġmallatt oo
Ġkaf al
Ġk at
aal e
Ġhojj atu
ĠFinfinnee tti
Ġhirm aat
X urree
j aj
ĠOrom ia
aal aan
Ġboo r
ill aasee
m ur
o ur
Ġb aate
Ġis iin
ĠD ubb
ĠUmm ataa
Ġdabars ee
Ġtuf fii
Ġilaall e
t uuf
ir u
oon f
Ġadd eessa
ĠF ayy
Ġtaasis uun
Ġaj aaÊ¼
eessit oota
ĠGum ii
Ġhintaan e
S ochii
u tu
Ã ¡
ii tii
Ġqab atamaa
ĠA mm
Ġuu maa
aay in
Ġsalph ina
Akkas umas
Ġgadh iis
Ġgoww oom
ht m
Ġm udd
ĠI saa
Ġkolon eeff
ĠBaqq alaa
ĠNaq amtee
ee m
Ġk essa
aaf aan
Ġmur ni
Ġjab eeff
Ġerg amtoota
ool essaa
Ġqaam ni
isiis uu
Ġajjees uu
Ġdogogg ora
Ġ oomish
Ġk ara
Ġhojj ataa
Ġgodh amaa
Ġb itti
Ġarg ate
Ġdhaabb achuuf
Ġkaff al
s t
ĠM ooraa
Ġbeek ama
Ġhawaas ummaa
Ġkess atti
A keek
eeny ee
Ġhum naa
Ġarr abs
aan nee
ann eef
aar ii
Ġdhi bee
Ġeg eree
Ġ áĭ
Ġgar ii
amu tti
Ġmii dhaan
Ġmis ooma
Ġkaas uu
Ġxiqq oo
Ġgadd a
Ġjaarmay oota
3 0
J aarm
W aggaa
Ġg anna
Ġy aalaa
mm uu
att ooti
ol ii
Ġlammii wwan
Ġyo ur
p l
Ġkeess attuu
ol on
Ġgaaf atan
Ġhir ii
Ġgurm uu
Ġejj ennoo
ĠMis eens
Ġboq onnaa
ĠLeenc oo
ĠAwur oo
Ġh acuu
Ġhund aaÊ¼
Ġsir naan
Ġfudh atame
Ġibs aniiru
Ġal ag
Ġummat ootaa
Ġbarbaad e
Ġon nee
Ġhatatt amaa
ir e
Ġa sii
Ġn aga
Ġy uuniv
Ġ2 9
Ġdhag ees
Ġkaas e
i ba
ach isi
ĠâĢľ ,
Ġsh am
Ġmis oom
Ġkuf aatii
Ġ200 7
x aa
is tii
Ġbar atan
Ġdhi yoo
Ġseen uun
Ġboo j
Ġhaf uu
Ġhaf ne
ĠkaÊ¼ uu
Qab saa
áĬ ķ
r iin
oot u
ĠB ish
Ġar aaraa
on t
Ġmar saa
Ġuum uu
ĠmulÊ¼ ata
Ġas itti
Ġsabboon tota
Ġboon saa
Oromo P
F il
Ġqab aachuun
Ġar aar
Ġgad itti
Ġmis oomaa
Ġraaww achaa
ibb ee
Ġhawaas ni
Ġdargagg oo
ĠAh m
h uu
s in
Ġd ig
Ġg eenye
Ġdh eeb
Ġn amuu
amm ed
Ġseen uu
Ġp as
Ġajjee saa
Ġras aasa
Taph achisi
m aat
Ġwal umaa
ĠM aqaa
Ġc eÊ¼
Ġdhaabb atanii
Ġfakk aat
Ġbo b
Ġmagaal ota
S un
Ġwar aqaa
ĠY aad
Ġijaar ame
Ġqabsaaw ota
Ġilaall u
aaf aa
jj ee
ĠK oree
Ġdhab am
ĠL ixa
Ġdhuf aa
ĠUmm ati
Ġlamm ummaa
ĠItiyoo piyaa
Ġog ummaa
Ġakkan atti
htm l
Ġqab uuf
ĠW ayy
ĠS agalee
ĠI mpaayera
Ġjiraach aa
Ġwarraaq sa
Ġdabb all
J aal
Ġg eedd
Ġwaan an
add e
el l
Ġmuu xannoo
1 2
= >
ti chaa
Ġf ee
Dh imma
ĠBul ch
Ġq orm
aam icha
Ġgal iin
Ġu gg
Ġgan amaa
dd aa
Ġjiraat aa
Ġdhimm oota
Ġmaall aqa
l and
Ġg ul
Ġl ukk
Ġhub atee
Ġdeem e
Uumm anni
it oota
Ġdiin atti
Ġr eeff
Ġhir maan
Ġdhaabb ata
O R
oo da
Ġb un
Ġf infinnee
ĠO DF
ann ii
ĠM al
âĢĿ ,
ĠbuÊ¼ ura
Ġjalqab an
Ġajjeef aman
aan fa
Ġj um
Ġj aÊ¼
Ġq an
ur uu
Ġl ixaa
ama daa
ĠM an
ĠC al
Lamm ii
Ġweer ar
Ġ oolee
ah uun
Ġjab eessuu
us tr
Ġyaad uu
Ġta sa
Ġobbo lee
War eeg
Ġliq im
B B
H ab
M ana
t otaa
Ġl eell
ah u
Ġx ii
oof i
S ag
i v
Ġt aaÊ¼ee
Ġo bboo
ĠgaÊ¼ uu
ĠFeder aalaa
Ġbel ow
aafaan oromoo
A deem
á į
Ġd iddaan
Ġf ay
iin aa
Ġc li
Ġhidh uu
op y
Ġkam iyyuu
aff ee
ĠOnkol oolessa
een iyaa
aam sa
Ġso ba
Ġdeeb isee
Ġij aan
Ġbakk oota
Ġhark atti
Ġkeey satti
Ġqarsh ii
OromoP rotests
am tuu
Ġm angudd
Ġn uf
Ġqab n
Ġbeek uun
Ġ3 2
Ġdabars anii
II N
Ġkut annoo
Gal atoomaa
S abboon
Ġt ams
Ġs itti
Ġdhal ootaa
Ġafaan ii
Ġhal agaa
ers ity
Ġdoor sis
Wan ti
an een
Ġb y
ss a
Ġy er
ad oo
Ġhidh amanii
arr e
aall an
Ġ5 0
Hum na
f atanii
Ġf ooyy
Ê¼ aanaa
Ġnu rra
ĠF ulbaana
Ġ201 7
cc aa
Ġgumaach a
ĠV OA
vo aafaanoromoo
aas i
Ġjiran is
Ġra ww
aayy oo
Ġgagg eessan
Ġmul l
Ġgaa gaÊ¼
A d
Ġ z
am itti
Ġh omaa
yy a
Ġjab eessuun
Ġdir m
ĠSh eek
B ul
Ġk itaaba
Ġb ash
Ġfi du
ĠF al
ool leen
Ġsab abaa
ĠE ng
Ġdabars uu
Bar ataa
Ġq uuf
aar sa
Ġmur taa
Ġdhaabb ate
achiis ee
Ġdhii b
op i
jedh ee
F BC
Ġs ee
rr e
aas iin
ĠD eeb
gaa zii
ĠK ibba
ĠbuÊ¼ ur
Ġlall ab
Ġcli p
Ġm adaa
Ġy aala
Ġhub atamuu
âĢ¦ ..
te d
ĠAl ii
A bbaa
j aa
Ġ *
an uu
Ġb adaa
Ġs in
dd ee
att iin
aam u
Ġbiyy aatti
Ġsh ir
Ġtaasis uuf
Ġgamm ad
ĠIl aal
bo ard
Ġnaanna wa
Ġf af
Ġisaan is
ĠW o
Ġaan u
Ġkam ii
ĠAmer ikaa
Y eroon
is ii
aas u
ĠS oom
Ġgaaf ate
ĠU niv
ĠC opy
War aanni
Fakk eenyaaf
D uul
É ¨
Ġm aangudd
ich aaf
Ġbir aatti
ars itii
Ġtar ii
Ġhojje taa
Ġraaww ate
ĠduÊ¼ e
Ġqon naa
Ġdimokr aasii
5 5
t ummaan
Ġm ammaak
Ġkaas anii
og gaa
ĠMag arsaa
Ġmuu d
Rakk oo
y uu
al ia
arr an
siis ee
Ġkabaj aan
Ġjiraat tonni
ĠX aal
AN N
ĠqabsaaÊ¼ ota
pp aa
E mbed
Ġh e
Ġg ee
oon nii
ann uu
Ġc opi
ĠT or
Ġgal at
ĠJ arm
sii tii
Ġibs ame
Ġe mbed
Ġbor u
Ġqof aaf
Ġpas te
Ġclip board
Ġcopi ed
M ar
amm oo
Ġamm aan
ess u
ĠN u
Ġkanaan is
Nam oota
ĠMacc aa
iyy ee
Ġdhi haa
Ġdubb if
aaÊ¼ aa
Ġjedhu tti
Tokk o
Rakk oon
F inc
q u
Ġd ull
Ġg amaa
uun is
aar ee
Ġsab aatti
Ġorom oon
ĠGamm adaa
A G
K utaa
O soo
Ġg ita
om ish
Ġleen j
ĠGur aandhala
ĠMall as
h in
o rri
Ġ #
Ġh eer
Ġt ii
Ġhub atanii
Ġadeem sis
iq aa
Ġmilk ii
1 3
Ġi cc
Ġwal daa
Ġdiin agdee
Ġdeeb isuuf
Ġhojj achuun
imm an
Ġmirkan eessa
Ġtor ban
Ġmin istee
D ir
Ġ ch
ii b
ur e
Ġc icc
ĠR aad
Ġhim aa
Ġfedh an
Ġguut uun
omm ii
D D
ti f
Ġq aroo
ĠA yyaan
ĠH ayy
on g
Ġarg amuun
Ġbir o
Ġbir oon
Ġr o
Ġbal b
Ġ3 1
Ġraaww atamaa
s aanii
Ġa kaak
Ġy e
Ġgar gaa
Ġgudd if
Ġdhab an
Ġgah an
Ġdhal atee
ĠAd oolessa
Ġken nee
Ġmad aal
ĠIng iliz
ĠTigraa y
t iis
Ġgar tuu
ĠI t
ĠI RR
ay aan
Ġsab lamm
ĠdandaÊ¼ e
Ġsan aan
ĠkaÊ¼ anii
Ġfayyad amuu
ĠGaaf fii
Ġhab ashaa
a ud
uuf ii
Ġwal ga
af ti
akk i
Ġhund umtuu
eny a
pit aala
t uma
Ġi mm
Ġm oÊ¼
ĠD aaw
ĠS H
Ġakkam ii
Ġroo b
Qeerr oo
Ġimaamm ata
1 5
ĠS al
Ġtokko ffaa
Ġseen anii
ĠY un
ĠWaaq a
Ġad unyaa
os t
ĠTig ree
ĠSiyaa saa
h ub
n n
oo g
tti s
ĠM il
or e
ĠW arra
Ġarr ab
Ġwalq ixx
t amaa
uu saa
Ġs aaq
Ġgal f
Ġr aga
Ġdeeb isanii
Ġhub achiisa
Ġsh irri
Ġmar aaf
Ġijaar uun
LF O
Ġyookaan is
Ġsumm ii
ĠHag ayya
ĠJaw aar
N u
ĠW aggaa
siis uun
Ġummat aaf
Umm ati
gal atti
m ar
aat awaa
Ġgu yyuu
Ġbarr eessuu
ing ton
Ġgurgudd aa
Kaayy oon
Ġarg e
ok ir
Ġdhih oo
In nis
Ġlammii leen
ĠbaÊ¼ ee
Gaaf fiin
Ġball eessuu
ĠBiyy oota
Ġmogg aaf
Ġdhukkub a
Ġxix iqq
x x
Ġa si
ss aa
mm aa
jj e
Ġjedh ani
aam ee
im aa
aay itaa
Ġal agaan
Ġraaww ataa
Ġjaarm iyaa
Ġras aasaan
Ġfaay idaa
att aa
Ġnag eenyaa
Ġgegg eessaa
i haa
t tuu
at amuun
Ġq ull
Ġqab aatu
Ġfakk aataa
Ġibs u
Ġ12 8
Ġdabar saa
E eny
is iisa
ĠU SA
Yaa da
Ġbubb ul
ch e
Ġl akka
Ġc iis
eeff ame
ĠJ un
ĠU N
Ġyaad uun
Ġguu tt
Ġilaal chis
Ġp ool
Ġraa b
Ġkabaj amaa
Ġuum e
ĠgaÊ¼ u
Ġg iddu
bb aan
ann o
Ġsab ummaa
aayy aa
Ġlamm iin
Ġhojje tt
sh ee
ĠtaaÊ¼ anii
Ġgurgudd oo
Q BO
t eef
aa kk
Ġb ish
Ġj all
Ġt aat
Ġm o
Ġarg ee
Ġmorm iin
Ġmil iyoon
ĠSom aalee
Sabab ni
c i
m aal
Ġd ah
Ġj iÊ¼
Ġs aan
een na
yy an
il uu
Ġhar c
ĠQ or
Ġgaaf anna
Ġhub atan
Ġeegal an
Ġwayy a
Ġnuu ti
Ġqulqull uu
Qeerr oon
n oonni
Ġk ora
ti lee
Ġisaan iis
ol een
Ġe gaa
** *
ĠWal abummaa
Ġquu q
g uu
een si
ĠB AR
Ġtokk icha
Ġisaanii tiin
ĠJ aarm
Ġmar ar
Ġaa d
ĠgaÊ¼ uuf
Ġdhiig ni
Ġgaraagar ummaa
Dhug aan
Ġqab ani
on n
Ġkenn amu
ĠkaÊ¼ u
Ġgabr oonf
Ġqaam aa
Ġdald al
G adaan
u qq
at oo
Ġbar baan
Ġbar siif
ĠB ak
ĠS id
Ġhan dh
Ġbit aa
Ġach ii
Ġhang am
ĠMudd ee
D aan
oo ra
ab ee
Ġgaaf atamaa
Ġtaasif ame
?? ??
g ahii
mm ad
ĠM aa
ĠM ootumm
Ġc ir
ww anii
Ġr ag
aall e
Ġaman u
Ġmoo Ê¼
Ġwalqab atee
D eeb
b er
g aruu
Ġb att
is toota
Ġqab dan
ĠS ag
Ġgal e
Ġti kf
Ġsaam aa
Ġshakk iin
j oo
s on
Ġh a
Ġkeess anii
att ootaa
ĠK eeniyaa
Ġgal ata
Ġgal chuu
ool aa
Ġibs uuf
Ġaman uu
Ġgagg eess
ĠQab saa
Ġwayy anee
Ġach itti
Injif annoon
Ġhinjir u
H ayy
t ama
Ġdh araa
Ġdh oor
ĠA t
im a
Ġkuf ee
boo k
Ġdimook iraasii
Ġyomm uu
A ch
y eroo
Ġt aatu
oot atti
amm i
ĠM ee
ĠM uk
and a
ĠâĢ ª#âĢİ
ĠJ ira
ĠY oo
Ġful dur
A yyaan
n ni
s oon
aar iyaa
Ġqo qq
iy oota
ess uuf
Ġibs ee
Ġbo so
Ġraaww atame
Ġlakk aaÊ¼
Ġgam taa
Ġkar aan
Ġil aalaa
ĠK aabaa
Ġfudh anne
Ġhojje tu
Ġken na
Ġwalg ah
Ġdald alaa
Ġxin n
As irratti
B uÊ¼
aan uu
ti on
in oota
Ġdhaa mm
Ġarg achuun
Ġgal anii
Ġgal aana
Ġsab aaf
Ġbobb aaf
Sab aba
achiif na
Ġh ttp
aam p
Ġx alayaa
Ġdubb achuun
Ġbaratt ooti
Ġkabaj amu
Ġdid e
O l
s een
at amne
Ġhin dh
Ġbar ate
as ee
l u
Ġh eedd
Ġb eell
Ġg oof
ĠA ustr
Ġsab ootaa
Ġhir k
Ġdhal ootaan
ter n
Ġdiig uu
Uumm atni
Ġruk u
U N
g am
o faa
Â ·
in eer
Ġqab amee
Ġhin beek
Ġjech oota
Ġgodh uun
Ġway ii
Ġsabab ni
Hab ash
ii qaa
in i
Ġkeess ati
ĠG urr
Ġfudh ateen
Ġsaam icha
Ġ200 5
ĠHo jii
ĠGu jii
M ootummaa
s l
s p
am oon
Ġdh agaa
Ġs ib
Ġqab achuu
ĠA yy
aas tar
ot aan
ĠT af
Ġsan y
Dh imm
ĠSh anee
Ġkaan iin
Ġball eessuuf
Ġhirm aach
áī µ
Ġkamiin uu
ĠKad ir
opp aa
ti raa
Ġg ooti
ĠG ir
Ġool le
Ġish een
Ġbakk i
Ġmal bul
Ġulf ina
ĠFeder aal
ĠMoh ammed
aa zex
um ti
ĠB al
Ġyeroo f
ĠJ ab
Ġhidh amaa
Ġol Ê¼aanaa
Ġnam oomaa
Ġlaf arraa
OO TA
Ġbarsiis uu
O duu
Ġb iq
Ġq ol
yy ee
Ġqab aachaa
ĠQ aall
Ġr agg
Ġjedhanii ru
Ġcabs ee
Gu yyaan
ĠDuul aa
ĠM ah
aay een
add i
ĠbuÊ¼ ee
ĠduÊ¼ aan
Ġerg ama
Ġgoon e
A f
w ay
Ġ ur
Ġmar iin
Ġisin itti
Ġduu kaa
Ġdabars ina
Ġdhiif nee
Ġtattaaf fii
Ġkeey sa
Ġ un
Ġb aasa
ĠO g
ĠM attuu
Ġbeek amuu
AA F
Ġdhuf a
Ġorom o
Ġsan itti
ĠdeebiÊ¼ u
Ġgamm oo
Ġbaan e
Ġman c
Ġdhabamsiis uu
ĠMas ter
b iyy
oo y
at amanii
Ġwal irratti
Ġbeek ameera
Ġdabar f
Ġhark i
Ġdubar toota
Ġjedh aa
amu s
Ġdur aanii
Ġgab aasaa
Ġib idda
Ġajjees ee
Ġwalg aÊ¼ii
F DG
t um
ĠA an
ĠK un
aatti s
Ġraa d
Ġdhaab uun
Ġbilis ummaaf
Ġtof taa
ĠCal anq
i p
Ġ ana
Ġh amaan
umm an
Ġbar atee
Ġhum an
Ġjab inaan
umur a
Ġak eekk
Ġgid ir
Ġmot ummaa
A man
Ġkan atu
il aan
Ġl aam
ĠS o
and ii
Ġdeeb inee
Ġij aa
Ġjab ina
Ġgagg eessuu
Dh um
âĢĻ âĢĻ
Ġjirr uu
Ġdorg om
ĠToo p
Ġboso na
s iin
Ġk ir
am oota
ot ii
Ġcim aan
ĠmulÊ¼ ataa
Ġ200 9
ĠGuu tuu
ĠSud aan
B ilisummaa
z daan
Ġk aabaa
Ġa dee
Ġs t
ĠS uu
ĠS ulul
en nee
eeff atee
Ġbeek anii
Ġgudd oo
Ġmilkaa w
Tarkaan fii
ph iy
Ġhidh ata
ĠP r
Ġbu q
.. ..
ĠJir u
Ġraaw Ê¼
Ġq aalii
ĠS um
Ġab diin
aall ii
Ġibs e
Ġraa j
Ġakkas itti
Ġcim suu
Ġgoot otni
Ġgay e
Ġgid iraa
Ġq u
ĠA jaj
ĠG an
Ġil mi
ĠC amadaa
Ġdhaab ota
Ġdhug uma
Keess umaa
Ġhogg ana
G ur
O d
b uÊ¼
aa bb
Ġs u
Ġs aÊ¼a
Ġwal Ê¼aan
Ġdand am
Ġqabsoo tti
Ġdubb atanii
Ġaman tiin
Ġdarb anii
Ġfil maata
Ġfayyad amuun
Ġbar aa
ĠH os
aann aan
Ġool uu
AM A
Kaayy oo
Ġbaad iyyaa
l aam
r aan
Ġy ammuu
Ġar ga
Ġin ves
Ġhojii tti
Ġyaal uun
Ġgabaas ni
Ġhirm aatan
ĠHo ggan
ĠHum na
Ġut ub
p r
Ġm ataan
âĢ ª#âĢİ
uf aa
ĠH aala
Ġgal uun
tt iin
Ġdubb ate
Ġibs i
Ġaman an
Ġqabs aÊ¼
Har Ê¼
ĠTokk ummaan
ĠAbb aan
Ġbor uu
Ġquu b
d and
Ġt anaa
dh ibbee
oot an
Ġqab aat
ann eessaa
ĠB ah
Ġar k
Ġtur uu
Ġaa daan
Ġdadhab e
Akk an
Ġarii Ê¼
t oon
ii k
Ġi ti
Ġw aal
Ġc eh
ĠQ AB
oom saa
Ġsad een
Ġdadhab uu
Add a
Ġcal aqq
200 5
0 2
E R
K abaj
ee lee
am neef
Ġm iÊ¼
oon aa
Ġhidh amuu
Ġol Ê¼aan
dee l
siis u
Ġee gaa
Ġduu dhaa
Ġbaan ee
je chuun
Ġqalb iin
ĠAB UT
g i
Ġk il
ĠD ur
Ġgaaf achuun
Ġduu baan
ĠHabash ootaa
U M
ĠT ulluu
Ġgal tee
Ġdhaab uuf
Ġqoph eessuu
Ġod uun
Ġnag eenya
Ho ggan
K aroo
M anni
h idh
aan d
Ġis aatii
aas anii
ĠD iin
ĠS ii
Ġarg an
ĠU LFO
ac e
sis uuf
ĠmulÊ¼ ate
ĠDhaa b
Ho jii
Ġqun n
Ġgeedd ar
al eessa
in saa
ĠW ash
ne s
Ġmii la
Ġdhii gaa
ĠWall agga
Ġhinqab u
ĠJarm anii
S BO
T V
g u
o Ê¼aa
at noo
ir uu
Ġq aqq
as p
ĠâĢ ¢
Ġdeeb is
aall aa
Ġfudh achuuf
Ġisin ii
ĠDh imma
ĠHabash oota
Ġfid e
Ġhol ola
Ġdhoo ww
O b
Ġq axx
eess ina
aaf is
ich aan
ĠN or
Ġdhal atan
fa c
OO N
Ġbay ee
Ġqar oom
Ġguyy oota
I too
q ol
ch isaa
Ġwal aloo
if ne
Ġarg amee
Ġeeg uu
Ġhedduu tu
Dh uma
Ġcim ee
ĠAd aam
Gaaf ii
Ġqof ti
f faan
x uu
Ġk aasaa
Ġj ag
Ġy univ
Ġarg atee
ĠQ il
eeff achuuf
Ġmar ee
Ġp r
Orom edia
Ġijaar amee
ĠkaÊ¼ an
Ġraaww atan
Ġdaan g
Ġdhaq ee
Keess attuu
Ġfees isa
0 3
S eenaan
ar sa
Ġjedh amanii
Ġc arraan
and aa
Ġgaggeeff ame
Ġtol f
Ġtajaaj ilaa
Ġlam atti
Ġbirm ad
Ġdinq isiif
Ġdem okr
Ġdansaa dha
Ġimm o
A adaa
S EEN
Ġk udhan
Ġs aree
Ġr ee
Ġin t
Ġbul chuu
Ġsag al
Ġhoggan oota
ĠWo yyaan
ĠG im
eeff atan
Ġfalm ii
ĠFinfin ne
O bboo
Ġk aar
Ġk as
Ġk ey
Ġs oor
Ġhin b
aas uuf
ĠB IL
ĠH IN
Ġgo s
ĠU r
ees uu
ĠL ataa
ĠY aman
Ġdhih eenya
Ġbaq ataa
ĠIs laamaa
Ġhayy uu
aadh im
Ġkeessum aayuu
ĠAustr alia
f amanii
Ġm aatiin
Ġhund een
ĠT umsaa
ĠR akk
ĠgaÊ¼ e
Ġjiraach uuf
Ġad am
sit ee
ĠajaaÊ¼ ib
aariyaa m
k r
aa g
Ġqab duu
Ġdur as
Ġmur tiin
ĠdandaÊ¼ amne
AA T
Ġmar atti
Ġgagg eessa
Ġsiyaa s
Ġuum ata
Ġdabars uun
ew s
Ġqorm aata
B aq
J ijjiir
aaf uu
Ġjedh uuf
tt ee
Ġdhab anii
Ġhim aniiru
UU N
Ġfinc il
Ġim immaan
Ġob sa
Ġbood as
Ġtasg abbii
Ġgargaa ra
t aar
dh ii
oot aatti
ĠK abb
ub a
âĢ¦ âĢĿ
Ġyaad ni
Ġbarr eess
Ġdi dee
Ġbin eens
Ġd idd
Ġb ab
een saa
ĠO F
Ġgu bbaa
Ġfakk eenyaa
ĠUmm anni
Ġe mpay
dur ee
Ġbuu suu
Ġhaal uma
Sab ni
ĠGar baa
ĠBish ooftuu
0 5
b ir
Ġk h
Ġd all
ar e
ar aal
af faan
Ġfuul l
Ġhii kk
ĠTig r
Ġkaroor f
B ilis
Q oph
W anni
Ġ us
Ġtur uun
Ġkun niin
Ġr agaan
Ġool e
Ġsaam uu
dur a
Ġqabsaaw aa
Ġwaraan aan
ĠHidh aa
Ġlaam sh
ĠWash ington
al u
bb a
ĠD em
ol og
OM N
Ġgalm eess
Ġgoon a
ĠTaadd asaa
ĠtaÊ¼ us
or d
ĠD ura
Ġtur eera
ol li
Ġdhi bbaa
ich uu
Ġdeem anii
us ti
Ġijaar amuu
Ġabb ootiin
Ġejj annoo
Ġhinqab ne
Ġkat ab
g o
Ġk ubb
Ġs ukk
Ġjir eenyi
ad a
Ġdhal ooti
Ġgaa dd
ĠBilis ummaan
eesh inii
ĠPoolis ii
ĠBaar oo
ĠWaaqayy o
Ġnaga yaa
ĠRaad iyoo
ĠToop phiyaa
ĠD uu
ĠK anneen
Ġyoo k
Ġmir k
Ġra f
Ġbul toota
Ġfuf an
Ġsag aleen
Kun oo
Ġtaasis ee
Ġdhug umatti
b iin
i ph
ii tiin
ar k
Ġb aatu
Ġqab atamaan
ĠA DO
ĠT s
ĠJ e
Ġgodh atee
Ġfil annoon
Ġgand aa
Ġgalm ee
ĠUumm atni
Ġirraan f
Ġbalb ala
Ġb adhaa
Ġm all
Ġq ixx
Ġkan niin
yy i
Ġqab annee
ĠM ormii
ĠI xoo
Ġp re
ĠP ilaanii
Ġuum amaa
Ġool chuuf
Ġtol u
Ġdargagg oonni
Diin a
Ġdegger sa
G uu
r uu
Ġd ad
Ġg eessu
Ġdh ara
Ġs aÊ¼
eess ummaa
ĠM el
ĠD in
ot to
Ġof i
Ġhar ra
Ġgaaf f
Ġool an
Ġhamm eenya
Ġbobb aasuun
Ġnafxan yaa
: :
Ġt ay
Ġw agga
Ġis an
Ġc it
Ġdur aatti
Ġdubb achuuf
ĠC aalaa
aww ee
Ġbarbaad uu
ĠGod inaa
Ġdabar sa
ĠGaaf a
Ġdhugoom suuf
Mur ni
Ġkij ibaa
ĠAman tii
A F
Ġf uu
ĠH oo
eeff ama
Ġbeek ame
Ġorom oof
Ġdan q
Ġinjif annoon
O KK
f al
m oon
aan deel
Ġf okk
Ġl oon
Ġadd addaa
ĠQ an
Ġhaa dh
urr i
ĠGal aan
Ġyoom uu
Ġagarsiis u
ĠAbd ul
Ġsagan t
our ce
W all
l ii
y e
ee gg
Ġf o
Ġq ey
umm aatiin
ĠM aq
ĠG ul
ĠW aajj
Ġar maa
Ġho ggaa
Ġgo lee
Ġgo chaan
Ġdur sanii
ĠDh ih
Ġkaan ee
Ġbad e
Ġmagaal attii
Ġdargagg ootni
Ġhanq ina
ĠGam taa
m uu
Ġk o
ah uu
ĠB adh
Ġho s
ĠOromiyaa f
Ġbul u
Ġkenn anii
Ġkaas an
Ġkeen n
Ġsuu k
Ġtoo Ê¼
Ġdandah u
t taa
Ġbar ataan
er aa
Ġtur tee
ĠH aay
Ġdiin ota
Ġhaa ti
Ġhim e
el lee
ĠDh ug
ĠWal isoo
Ġmal e
Ġgabaas e
Ġhaas of
Ġcall aa
Ġlakkoof si
I T
S agalee
U L
Ġ !!!!
Ġb ool
Ġb ic
Ġb aadh
Ġw ix
rr aan
Ġfi dee
Ġbar ri
Ġitti sa
ĠK eenya
ĠE le
Ġilaal ee
ka k
Ġfedh u
áĪ Ń
Ġxiqq aate
Ġmilk eessuuf
Ġmu ka
Ġfaf fac
1 8
H BO
b arr
Ġ áī
Ġb add
ĠA gaazii
Ġwal lee
ah an
af i
im oo
Ġdand eessu
Ġdeeb ine
ĠHo rroo
tar nee
Uumm ata
Ġdaf ee
Ġbash ann
0 8
Ġ !!!
al d
Ġdh alli
Ġs aff
ĠB iti
ĠI sa
on qol
ĠQ C
Ġsh anee
Ġdhal oonni
Ġnaann olee
Ġbarr eessaa
Ġguddaa dha
Ġfedh iin
ĠAf ran
Ġyaal iin
moo kr
Ġukk am
Ġfiniin aa
Ġobbol aa
f amuu
Ġh all
in si
in nii
ĠM adda
ww ii
en ce
Ġgaaf as
Ġhidh am
ĠdandaÊ¼ ame
==== ==
Ġkaas u
Ġyaal an
Ġmiseens onni
Ġhoogg anni
Haat aÊ¼u
Ġsamm uun
i o
Ġt aajj
Ġa yy
Ġkan aas
aat tuu
ĠH a
us een
Ġajjee chaan
jedh anii
AT A
Ġh aam
Ġa dii
Ġis uma
ĠD amm
ĠH aww
Ġgo ch
en d
Ġgudd isuu
ĠN afxan
Ġjab eessuuf
Ġmorm uu
ĠZ K
Ġfuudh ee
Ġwagg aalee
Ġqull aa
ĠBIL IS
ĠIxoo phiyaa
E N
c al
ab baa
Ġm asa
ĠG aanfa
ĠW AL
ĠD i
Ġamm aas
Ġilaal lee
Ġmaal if
Ã£ n
Ġgarag ar
Ġkoph aa
k utaa
w e
w ar
uu sh
Ġk aab
Ġh aat
Ġwal i
as aan
AA M
Ġjab inaa
ĠDh ihaa
________ ________
o na
al e
dd e
en yaa
ĠK ana
siis e
Ġhedduu tti
Ġijaar uuf
Ġdabars an
Ġhaas aw
Ġguyy a
Ġdhib dee
ĠBoruu tiin
Ġbooj iÊ¼
F IN
L afa
Ġ [
Ġb aatan
Ġm aa
ĠO daa
ĠM oo
as an
Ġamm atti
ĠK om
ĠK eessaa
Ġdar baa
ĠN amni
Dh ii
Ġgadd aa
Ġhayy oota
Gab r
Gar een
ĠBirr uu
j i
aa ba
Ġqab achuun
Ġar tis
ot ee
ĠAm aara
Ġyaad aan
ĠDh ugaa
Ġduul li
Ġmadd een
Ġajjeef amaa
Ġpoolis oota
Mag aalaa
h an
Ġi dd
dh uu
Ġkan n
aat tu
im ii
ĠJ IR
oom ee
ĠâĢľ âĢ¦
Ġmil iq
ĠBar attootni
Ġfix aa
Ġagarsiis uu
Ġdhib u
Ġdhageess isaa
aamm anaa
M as
e ni
j ab
Ê¼ e
Ġs af
Ġqab atan
Ġqab aatan
Ġqab neef
Ġwal itt
ubb uun
eeff ate
Ġij oo
Ġhojj annu
ĠN i
ĠbuÊ¼ a
Ġsad affaa
Ġdhok ataa
aarr aan
zidaan tii
Ġdukk ana
Ġro ga
A yyaana
B itootessa
h a
Ġh om
Ġt uul
um attuu
om oo
ĠO f
Ġn annoo
ag e
ĠM ot
ĠK ut
aay it
Ġdabars e
to ti
Ġuf ii
Ġdach ii
Ġmurteeff annaa
Ġkiyy aatti
Ġdhaqqab e
B aar
Ġ !!
ir ii
ĠO soo
eef ii
ess e
Ġilaal amuu
Ġaan ee
Ġ201 0
Ġdarb uu
ok iraasii
ĠWal iin
ĠdeebiÊ¼ an
Ġqabs iif
Ġta saa
Ġdhiy eess
Ġdubar tii
ĠQoph ii
Ġabj uu
Ġmalbul chaa
f achuuf
Ġk iti
Ġd aq
Ġm uf
Ġw anneen
ĠG ond
ot iin
Ġdand eess
Ġdab alaa
Ġdubb isuu
Ġdhaabb ileen
oor oo
Ġduul aa
Ġxumur aa
Ġhumn oonni
Sad aasa
ĠAkk uma
ĠTas faa
n ootaa
Ġf uun
Ġar aara
Ġbiyy ota
Ġkun uun
aay e
ĠU s
Ġhim ame
Ġdhii raa
Ġcuf a
Ġqab eenyi
eeny u
ĠS abb
Ġso baan
Ġsir naa
aaÊ¼ uu
aann ii
Ġdhaabb at
Ġsan iin
Ġaman tee
oor aan
Ġsoch oo
Ġlol tuu
ĠbaÊ¼ anii
Ġken ni
Ġsoss oÊ¼
Ġwayyaan eef
f aman
ii dhaa
Ġi lee
Ġf arr
oot iif
Ġkeess umm
Ġl aall
iis uu
arr ii
ĠU um
Ġnam ootaa
Ġsir ba
ĠR aayyaa
Ġcim s
Ġbaq atanii
Ġeegal ame
0 9
H ub
ch an
Ġw abii
aam uu
akk ii
Ġjiran i
Ġgah a
Ġgah uun
Ġjal aan
qq ee
Ġbu t
ib uu
Ġag ars
Hund a
Ġdhiig aan
Ġyaam icha
Ġguutu tti
ineer ing
h um
o wwan
q aan
Ġy ar
ĠG ara
ul aa
ĠD ubar
ĠN uti
Ġdhaabb anne
iir oon
Ġmul q
ĠbaÊ¼ aa
Ġgargaar u
ic e
ĠbaayÊ¼ een
ĠOr oppaa
Ġoo faa
Ġheg aree
Ġmarar f
Ġg iddutti
Ġm aadh
yy iin
ĠM uumm
ĠW alaa
Ġhar dha
Ġgaaf achaa
Ġhidh amee
Ġdeeb isaa
ĠC affee
Ġsad i
Ġdarb aniif
ĠAr abaa
Ġdabal ataa
Ġbakk atti
Ġdhok saa
Ġmoor aan
Ġwal akkaa
Ġitti suu
ph aa
eeff atanii
Ġhidh aan
Ġbo son
Ġal aan
sis ee
OO M
ĠIn jif
Ġmadd i
Ġdhok saan
ĠWar eeg
Il aal
ĠGudd inaa
ĠJal duu
J edh
Ġh aasaa
Ġf onqol
Ġq uun
umm aafi
Ġqab nuu
Ġo so
ĠG oo
ĠS aa
ĠI mpaay
ĠJ an
Ġture tti
Ġdubb ata
Ġmii ra
Ġcaal atti
isiis e
ĠWall oo
Ġbuuf ata
Ġmas ter
Ġkumaat amaan
I rree
e op
p or
Ġf aran
Ġc on
Ġc omm
Ġgar aatti
it tiin
ot aaf
iy aanii
Ġbul ee
iir tuu
Ġrakk o
ĠkaÊ¼ aa
Ġas iin
Ġban e
Ġdhuk aasa
Ġdogogg or
Ġargamsiis uu
Ġbarat ootni
I F
h ee
k ar
m alee
aa rri
Ġd or
Ġj arreen
Ġj iddutti
Ġs ud
ur ii
ĠD aw
ĠD ass
Ġwaan ti
ĠS t
ĠK eenyaa
adh een
ess i
Ġjab aachaa
Ġfuf aa
ĠduÊ¼ ee
ĠMag aala
Ġwalab oom
Ġiyy a
Ġwaliig alaa
ĠDhaa baa
Ġfar dii
Ġagarsii saa
Ġ all
Ġ eny
Ġs iy
Ġn y
ĠH useen
Ġr aaf
iy aaleen
Ġhub at
Ġfakk aatee
Ġlamm ataa
Ġdarb u
ĠWar aanaa
Ġhang af
Ġbarruu lee
Ġdhukkub s
ĠAwuroo ppaa
Ġbish aanii
Ġbatt al
C aamsaa
k aar
m ataa
t ani
w oo
Ê¼ uu
Ġkeess aas
ĠB aan
atu s
Ġijaar amu
Ġofii tti
Ġbarsiis ota
Add i
Ġlakkaaw aman
ĠMuk taar
D ab
M addi
Ġt ak
aÊ¼ in
aam ni
Ġil aala
ich atti
Ġseen u
Ġhub achiisuu
ĠN aay
ĠUmm atni
Ġqaban iin
Ġkaas uuf
ĠduÊ¼ uu
eessit oonni
Ġlam aaf
aayin sii
A nis
Ġg aach
Ġirr aas
Ġhin f
Ġwal b
ĠtaÊ¼ eera
Ġdur ummaan
Ġbeek am
Kan aan
Ġsh anii
Ġbaq atan
ĠGab aasa
Ġgarag al
Ġdhaggeeff adhaa
Ġqilleen sa
M ootumm
g ur
uu gg
Ġb aar
att a
ul Ê¼
Ġitti suuf
Ġbul aan
Ġbal aan
OO T
ĠbaÊ¼ uuf
Ġcabs uu
Ġjeeq umsa
Haat aÊ¼uu
ener aal
m en
o jii
Ġd aba
Ġm id
Ġq aaww
ĠB il
ĠM orm
ĠG eed
ĠD ach
Ġar ra
Ġwar ee
eeff aman
Ġgodh uuf
Ġdhaabb annee
ĠR ashaa
Ġhim uu
Ġjiraat anii
Ġhii ka
Ġgum aachuu
ĠbalÊ¼ aan
Ġtarr ee
U O
s umas
ah e
Ġamm ayyaa
Ġdur famu
Ġisaanii ti
Ġbeek sif
Ġjiraat uu
Ġfalm achuu
Ġball eessaa
Ġdaran uu
Ġtor baan
Ġman atti
Ġgeggeeff amaa
Ġgodin aalee
Ġqey ee
F F
K aan
L eenc
g ul
i ew
Ġh idha
Ġa gg
ĠtaÊ¼ aniif
Ġgaaf iin
Ġfudh achaa
haa mmad
achuuf i
Ġijaar anii
Ġitt uma
Ġdan uu
ĠHar ar
ĠOROM IYAA
Ġbeel a
ĠEr it
ĠDim ook
Ġqaxx aam
ĠBiti maa
A Ê¼
Ġt eessoo
Ġwal dh
Ġtokk ot
Ġmag alaa
Ġcim inaan
Ġnyaa tu
Ġgamm achuun
Ġilaall atu
Ġuff ata
Ġmormit ootaa
ĠYuniv arsiitii
ĠWarraaq saa
Ġhaleel laa
Ġfiix aan
Ġfakkeenyaa tti
W ay
g e
Ġakk aa
ĠL ib
Ġku dha
Ġsalph aatti
Ġ0 2
Ġkab achiisuuf
ĠHay ilee
ĠNam oota
Ġxiinx al
Ġbiq il
b ara
s haa
Ġh idda
Ġm ijj
een a
ĠA jj
Ġtur een
ĠK araa
if amaa
Ġhub annee
Ġboo daa
Ġorom ummaa
ĠdeebiÊ¼ uun
ĠTokk o
Ġsii daa
ĠDaan dii
Ġgabroomf ataa
m u
Ġi faan
in na
ĠA k
ĠA ad
amaa yaa
ool ii
Ġbeek amee
Ġhojj atamu
Ġin ter
Ġuum uuf
Ġool chuu
Ġmirkan eessuuf
Ġaf an
Ġmiseens ummaa
ĠMin isti
Ġguutuu tti
Ġ200 0
Ġfag eenyaan
aqa saa
Ġxiyy eef
Ġfiniin saa
Ġfir ii
Ġobbol eessa
Ġfuuldur atti
Biyy i
EES S
Dhum arratti
C R
k eess
Ġk uun
Ġk or
Ġk udh
Ġh udh
Ġbar achuun
ĠB uÊ¼
ĠG adaan
Ġitti fuf
if a
Ġgaaf at
Ġdab aree
Ġol k
Ġhir iyaa
Kan as
ri kaa
Ġgargaar uu
Ġfac c
Ġmirg oota
sit e
Ġmiid iyaalee
ĠDaaw ud
ii m
Ġb ayy
Ġg ayaa
Ġf oon
uuf is
Ġjedh amne
ĠK uush
Ġhund aaw
Ġbeek amne
maan ni
ĠN a
Ġdhuf te
Ġilaal an
Ġkeenyaa tti
Ġe ga
ĠDh ii
Ġjiruu dha
ĠOromoof i
Bar attootni
eessit uu
Ġdabr anii
Ġdii mookr
Ġhacuu ccaa
maat ni
ĠYaad annoo
2 2
o phiyaa
q al
s ina
Ġf alli
Ġf udha
ĠO d
ĠO sl
Ġwal oon
Ġc ees
Ġummat aan
Ġbakk aa
ĠMin istee
ĠDarg aggoota
Add unyaa
Ġboq ot
Ġhadh aawaa
Ġhindand eenye
Ġsham arran
Ġquub saa
E bla
T oof
m in
Ġjir ree
aal iin
aat oo
ĠK AN
Ġgaaf atamaan
eeff amee
ool le
ĠU K
tt e
Ġhub adhaa
Ġgodh amee
Ġdhab amuu
Ġsh aff
dee b
Ġilaal amu
Ġgagg eessuun
Ġkabaj ame
Ġbal al
arsii saa
Ġlaaf ina
ĠDhaa ba
Ġfid uuf
Add atti
Ġaar saa
Ġkolon ii
ĠMudd e
ĠWaaqeff annaa
Ġhandh uura
olog y
Ġ Â·
Ġh ax
Ġjir raa
ĠA ww
Ġbar anaa
iyaa tti
it anii
Ġarg anii
Ġdand aha
Ġso daan
Kan uma
Ġfudh ataa
ĠbuÊ¼ e
ĠduÊ¼ an
Ġgaar iin
ĠGod in
Ġbuu teen
Ġhooggan oota
Ġgor sa
Ġjaarmay a
ĠHaw aasaa
Ġmurteessaa dha
Hir iira
ĠAhm ad
t oom
w ee
ii lee
Ġk aadhim
Ġd achaa
Ġg ag
Ġs iin
ĠA ni
ach oo
ĠD iina
ĠS ar
Ġbeek nu
Ġmur annoon
ĠN agaa
Ġfakk aatan
Ġilaal chi
Ġdhaab ichaa
Ġjiraat ee
Ġwareeg amanii
Ġdhih eessuu
Ġkeeny arratti
Ġgaar iitti
ĠMag aal
ĠHar Ê¼a
Ġbuqq isuu
eessit e
Ġmilk iin
Ġtor b
Ġhoogg anaa
Ho jiin
Ġim al
Ġbood atti
Ġhogg anaa
Ġjidduu tti
Ġakeekka ch
ĠAlaa baa
Dhimm i
B ooda
b it
g ii
Ġ !!!!!!!!
an aan
Ġf otto
Ġjir aanne
ad dhaa
ĠB add
af ee
ĠS oor
ol is
ool a
Ġr arr
ĠL eell
eel een
Ġdhaab u
Ġyaal e
ĠbaÊ¼ uun
Ġdadhab an
Ġgabaas i
Sad arkaa
Ġyuuniv ersitii
Ayyaan ni
ĠRashaa d
U m
an c
Ġb uun
Ġs al
Ġs uni
eess ine
if nee
Ġab oruu
Ġin nis
Ġhub ate
Ġuum uun
EE RR
Ġnyaa t
Ġmirkan eessuu
Ġmiseens otni
Ġbad uu
Sh eek
Ġtik suu
Ġfuuldur a
Ġdimook r
ĠDeeb ii
ĠSid aamaa
ĠWalaa buu
0 7
F al
M udd
h oo
s aafi
t ara
baa tti
Ġbiyy attiin
tu tti
ĠT arkaan
Ġhojj atanii
Ġdubb is
Ġjab aan
Ġfiniin suu
Ġkeey saa
ĠIrree cha
Ġwaajj ir
Ġáĭ ¨
jjee chaa
H in
Ġ edd
at aaf
Ġg aman
aal uu
Ġhin g
ĠG eet
or ii
Ġgu bb
Ġbeek nee
Ġgudd icha
ĠUmm atoota
Ġmorm an
201 2
Ġmadd e
Dubb iin
Ġfeen e
Adeem sa
HarÊ¼ as
ĠNor way
Ġmirk anaa
J aar
k ur
q ama
Ġ eess
Ġt eek
Ġm alaa
Ġs eerri
Ġkan arra
Ġqab attee
Ġqab aanne
Ġamm aaf
ĠK aayyoo
gg anni
ĠT add
Ġsab ichaa
ess an
AA R
ĠharÊ¼ allee
Ġijaar aa
Ġuum ee
Ġee boo
Ġsaam ichaa
Ġdhaam si
Ġ200 6
ĠAl amuu
Ġdiig uuf
ĠSad arkaa
Ġsuu raa
Tarkaan fiin
Ġdho ww
D abal
V ia
f atu
p d
q uun
Ġg ib
Ġt eess
Ġw ac
Ġirr attii
ah ee
ĠW arri
Ġil aa
Ġsab b
aayy ee
201 7
Ġas irratti
Ġbakk uma
Ġhaww iin
eet taa
ĠIl uu
Ġmurteeff achuu
Ġtasg abb
Ġqondaal ota
ĠDii maa
Ġcacc abs
Bul ch
J al
h uun
Ġ :-
ĠB o
Ġdhaa dh
Ġtah uuf
Ġyoo mmuu
Ġgal chuun
ĠE er
Orom oonni
Ġlamm i
Ġqaam aan
Ġdhiis ii
Ġnuti s
Ġgadd isiisu
ĠUumm ataa
Ġfir oottan
ĠdeddeebiÊ¼ ee
I Y
n ummaa
n ama
ĠA adde
Ġwal dhaan
ĠM ok
Ġarg atanii
ĠT ol
eeff amuu
Ġdhab ne
Ġlaf arra
Ġ201 1
Ġhim uun
Ġijaar aman
Ġjedhan iin
sis a
sis uun
ĠWaaq aa
ĠtaaÊ¼ aa
Ġdii maa
0 4
H al
L A
Ġk essaa
Ġg atee
Ġm aayy
Ġq ac
Ġqab aman
âĢ ¢
Ġtokk om
ich oo
aw u
Ġhub atu
ĠL afa
Ġgad adoo
ĠbuÊ¼ uura
Ġjiraat tota
ĠP lan
Ġummat ootni
Ġhojje chuun
Ġkuf an
Ġaf f
Ġul aa
Ġmilk oofne
OPDO n
ĠCalanq oo
ĠSulul taa
Ġmasa k
H CR
Ġqab d
Ġkeess as
er siitii
Ġarg amanii
ĠT ur
Ġhar ma
ĠJ abuu
Ġhub achiifna
AA B
ĠL ii
imm uu
Ġyaal u
Ġadeem si
Ġdhiy eesse
Ġsabboon aa
Ġken yaa
Ġhiriir uun
Ġon n
ĠSom aaliyaa
ĠGamm achuu
ĠBILIS UMMAA
I tiyoo
O F
m aataa
n yaa
ir o
uun yaa
aat iis
er ation
Ġisaanii tiif
Ġx uu
Ġni dand
aann is
Ġjab eessinee
ĠbuÊ¼ uur
Ġbobb aÊ¼an
Ġdheer eff
Ġqof aatu
ĠHum ni
ĠMur tii
Ġgammoo jjii
k i
een ne
is tuu
yaa d
ĠM ed
raa him
aach oo
Ġhub atamu
Ġfudh annee
te ra
Ġnaann oon
Ġwareeg amni
ĠAdd i
Ġdhaam suuf
Ġhord ofaa
Ġeebb a
Ġir buu
ĠHund ee
Ġgabaaf ame
Ġilaalchis uun
Ġadee maa
E S
q oo
an tii
Ġk ibba
Ġt ars
ĠO gaa
Ġbar uum
ĠB akk
Ġgo la
Ġhar r
Ġgudd inaa
Ġjiran iin
Ġtaan eef
Ġsad an
Ġkabaj uu
Ġqoph aaw
Ġeeny uu
ĠbaÊ¼ an
Ġdhiy eessuu
Ġjijjiir uu
Bar attoota
ĠAl amaa
ut tu
Ġan aaf
Ġhark if
allatt iin
Ġaar ii
Am ajjii
Ġuummat aaf
Ġreeff a
ĠErit re
N aannoo
Q or
q un
Ġ 01
Ġf iraa
Ġt el
Ġhin m
Ġo gg
uf i
ĠI d
ĠK amaal
Ġumm attoota
Ġhidh atee
Ġgad iitti
Ġbul uu
ĠSh an
Ġdhih aate
Ġ0 5
Ġdid uu
Ġtor bee
Ġajaj aa
Ġbeeksis ee
Ġqar oomina
Ġlakkoof saan
ĠMu h
Mir ga
Ġugg ur
ee x
am n
Ġh un
Ġm ilis
Ġm edia
Ġqab ban
Ġc ina
Ġdand eetti
Ġhar ree
oom bii
atan iin
uul een
ĠbuÊ¼ u
Ġbarr eessan
Ġijaar ee
Ġe gal
Ġqoo qa
ĠmulÊ¼ isa
Ġgoot ummaan
ĠWaaq ni
ĠIn j
Ġball eessa
Ġsabboon totni
Ġajjees uun
Ġwayy aa
ĠLamm aa
Ij oolleen
2 0
W aggoota
w uu
Ġb aga
Ġj iddu
Ġm e
Ġn aamu
ĠD amb
ĠI S
Ġtokko s
ĠF in
Ġfakk aatuun
ĠE b
eerr aa
achiis an
ĠmulÊ¼ achaa
Ġdhiyaa tan
Ġseer atti
Dhaa ba
Ġsuu ta
Ġsirni chaa
ĠDir ri
Ġor maa
Ġmormit uu
ooll oo
ĠDargagg oo
Ġnaanni chaa
Ġbic uu
M aqaan
W aamicha
u gg
aa yaa
ee tii
um aas
Ġs on
ag al
ĠB er
ĠW aa
Ġirraa ti
Ġgu dee
ol iin
achuu tti
Ġgudd ate
Ġhojj atamaa
ess ee
Ġdhaabb atuu
Ġgah een
Ġsiyaa saan
Ġmorm a
Ġjaal alaa
Ġleen jif
Ġhaas awa
Ġjaarmay ootni
ĠGud uruu
ĠTigir aay
Ġhirmaan naa
W O
W aayee
a p
l amaa
at n
Ġm it
en ne
Ġdee gar
Ġbeek tu
Ġbeek umsaa
Ġgudd a
Ġaman ee
Dh iig
Ġummat atti
Ġjalqab ame
ĠdeebiÊ¼ e
Ġdadhab ee
ĠUniv ersity
F O
o ni
t al
Ġd un
Ġm umm
Ġfi da
ĠA mma
aar saa
or kaa
Ġisaa rraa
ĠI saan
Ġtah aa
aay inaa
idd i
iti n
Ġbarr eesse
el a
Ġdhiis uun
Ġdadhab uun
ĠHar amaayaa
áĪ į
Ġeegal uun
Ġan is
Ġkab achiif
tokk o
ĠFinfin neen
ĠFaran saa
ĠBulch iinsa
T ig
Ġm iin
ch anii
Ê¼ u
Ġw iirtuu
aÊ¼ uuf
ĠtaÊ¼ iin
ĠK ora
Ġbeek uuf
Ġuumm ati
Ġhidh atti
Ġdeeb isuun
ĠE eny
Ġaan tummaa
suu dhaan
Ġfil atan
Ġmud atu
Ġajjeef ame
Ġjibb a
Ġsod aat
Ġbeekamaa dha
Ġmormit oota
Ġbaat us
ĠWayy anee
j uu
l ummaa
t ajjii
Ġt eenyaa
Ġa kak
ach un
ata s
Ġwaan ta
Ġhidh ame
Ġmoot ii
Ġdeeb isu
Ġsh oora
Ġgabr oom
Ġbaq atee
Ġmirkan eess
Ġul fin
Ġkut aalee
Ġum riin
Ġ7 0
Ġqajeel fama
Ġyoon aa
Ġsirr itti
âĢ¦âĢ¦âĢ¦âĢ¦âĢ¦âĢ¦âĢ¦âĢ¦ âĢ¦âĢ¦âĢ¦âĢ¦
ĠFil annoo
A CH
H aww
M adda
g in
h u
t aniif
Ġk ajeel
Ġi mpaayera
Ġf rom
ĠM aandeel
ĠH u
Ġjech uuf
Ġdhab nee
ĠY oh
Orom ummaa
arg aarsa
Ġgabaas aan
Ġcabs anii
Isaan is
Keess attu
Ġhundaaf uu
Ġdorg ommii
ĠKon yaa
Ġid il
1 4
H ag
I sin
r ont
am nu
Ê¼ s
Ġdh iir
Ġirr an
Ġl ix
Ġto le
Ġar ih
ĠS aam
Ġhir ri
us t
ĠE j
Ġilaal anii
es t
Ġu niv
Ġkuf e
Ġfalm an
======== ======
Ġbay e
Ġkaroo rri
Ġwarr en
Ġabd achiisaa
200 7
Ġth at
Ġhiyy ummaa
Ġwalfakk aataa
Ġjilb een
ĠBaq attoota
Ġfarr ummaa
1 7
m e
u c
Ġk alee
Ġt aa
Ġm aqa
Ġs en
ĠB e
ĠB or
ĠM ii
Ġgar u
tu baa
Ġibs utti
eel a
Ġsoch oÊ¼aa
Ġ0 9
Ġach uma
Ab d
Ġfuudh anii
Ġjijjii rr
ĠgaagaÊ¼ ama
ĠEng ineering
Ġlakka Ê¼
Ġdaq iiqaa
eop le
1 6
M orm
N EE
d om
d en
f ee
m ir
Ġd uun
Ġm oraa
Ġs iq
atti s
iin saan
ĠK oon
Ġarg isiis
Ġmaal oo
Ġibs ameera
Ġcarraa q
Ġsak att
Ġfuull eff
H amma
T arii
Y uuniv
e chaa
l l
Ġh ed
Ġm amii
ch if
iin aan
ĠA F
Ġbar atu
ad ee
ĠM aastar
ĠD amee
Ġitti saa
Ġol i
ĠN e
maa ti
ang oo
Ġlakk aaww
Ġmirkan eessu
Bar attoonni
Gaaf iin
Qab xii
cc uu
Ġayyaan ni
Dubb ii
Ġheddumm inaan
Jaarm ay
ĠjiÊ¼ oota
Bilis ummaan
Ġbadhaa dh
G araa
M iid
W ayyaanee
c t
f achuun
l y
n ool
Ġd eb
Ġb aa
om aasii
Ġqab aniif
anii s
er land
ĠD uÊ¼
ĠS il
ĠK ur
ĠK eessa
ĠF ir
ĠL e
ĠE eg
Ġaman anii
Ġfuf uuf
ig h
Ġod eessi
Ġfur uuf
Ġsalph inaa
eessit ee
Ġhoggan ummaa
Ġqabsaaw otaa
aadh ii
Ġbaan u
ĠBul ee
ĠHay il
Ġmuumm ee
EERR OO
A YY
I D
g en
i on
Ġ omish
an taan
Ġk aanii
Ġd e
is in
Ġje tti
aas een
Ġbar atanii
Ġl aachuu
Ġc ubbuu
ĠS aud
Ġwar sh
ĠK am
ess uun
idd ug
Ġafaan iin
Ġkee tii
ĠBar noota
Ġish iin
Ġlakk oob
Ġkoo tti
Ġbulch u
Ġadeem sisaa
Ġgaa bb
ĠAbb aay
Ġqabxii lee
Ġicc itii
tern ational
SEEN AA
ĠEle moo
I K
N I
U B
U BB
aa rree
ti ch
aal essaa
raa Ê¼
adh ii
Ġfudh atamee
qab atee
Ġuum ama
Ġdirq ii
EE K
Ġaf eer
Ġjett anii
Ġtaasif amaa
Ġmuu z
Ġeegg achuu
Ġsoss o
Dhal oota
Ġgurr aacha
Ġfun aan
P aar
Ġ +
oo jii
uu dhaaf
ann is
en tuu
ĠK ibb
on nii
Ġhidh amtoota
Ġso da
Ġguu tee
Ġrakk isa
Ġdhal atanii
Ġdhaab ee
ĠkaÊ¼ een
Ġuum amu
Ġcim sinee
Ġqabsaa y
Ġbuu suuf
Ġcuf ti
ĠIs tee
Ġkar aatti
Ġsoss ob
Ġayyaan eff
Ġgadh iif
================ ================
ĠdaaÊ¼ imman
L afti
O too
j ennee
ti ra
Ġis atti
Ġbar achaa
edd uun
Ġgodh achuun
Ġdhab dee
iÊ¼ ee
Ġdeem sa
Ġp ilaanii
ĠbuÊ¼ an
Ġbarr eef
ĠgaÊ¼ ii
Ġag ar
ĠbaÊ¼ e
Ġlabs iin
ĠZ oonii
ĠBiyy oolessaa
Ġdarar ama
iil oo
Ġxiyyeeff ate
aph aloo
Ġsoss oo
Ġxin x
W aa
w u
y iin
Ġ en
ee yyii
Ġg eesse
Ġs ass
Ġjir aannu
Ġbar ii
ĠS haa
Ġarg amne
Ġdur een
Ġbeek ee
Ġdubb achaa
Ġhedd um
ĠL akk
Ġlubb u
Ġdhug aatii
tin uu
Akk uman
Ġajjees an
Ġakeek ni
Ġqar q
Ġlam aanii
Ġbaad iyaa
ĠWayyaan eef
ĠKabb adaa
0 6
G udd
p t
ar tii
um saan
Ġn uma
ĠM ang
ĠG anda
ĠH oraa
if toota
ĠJ ijjiir
Ġr eef
Ġdeeb iy
Ġhojj achuuf
Ġlaf een
Ġhim a
ĠP l
ĠItiyoo phiyaan
Ġ15 0
Ġreeb icha
Ġcal qab
Ġmeeq atu
4 7
J J
K on
b ummaa
t aalee
Ġf ak
Ġw eell
oon a
Ġwal al
Ġgo gaa
Ġadd add
Ġhund um
Ġx um
Ġyaad atamu
ajj iin
abs h
Ġgagg eef
Ġhim annaa
Ġdhih eess
ĠdeebiÊ¼ uuf
Ġmiseens otaa
Ġgabaas ee
Ġdhiyaa tee
Ġfinc illi
Ġir b
Ġsagan taan
Wareeg ama
ĠIngiliz ii
D uu
M ooraa
Ġd o
Ġm annaa
Ġdh aba
dd a
Ġqab naa
Ġirr ummaa
ĠM idaa
ĠG in
Ġar e
it h
ĠS w
ĠH aroo
aam b
Ġarg u
Ġyoo kiin
ĠJ imma
tt an
Ġsir n
Ġboo ddee
Ġsad arkaan
Ġdhaab icha
Dh aamsa
ooti chi
Ġjijjiir amaa
Ġbuqq isee
Ġfix uu
Ġfid uun
achiif tuu
Ġadeemsif amaa
~~~~ ~~~~
ĠMal kaa
ĠTs ah
W aaÊ¼ee
c y
oot nii
Ġbar uu
on daal
Ġhidh uun
Ġhaa dhaa
ĠdandaÊ¼ ee
Ġsh awaa
Ġbul an
Kanaaf is
ĠdeebiÊ¼ a
Ġcaal aan
ĠMin is
Ġgaarii dha
Ġukkaam suuf
Ġolaan oo
Ġfiix a
olon eel
ĠMiseens ota
ĠUN HCR
ĠGim bii
ĠJan araal
Ġsud uu
Ġwaree ga
G och
M ormii
n uuf
am uufi
in eef
Ġs am
Ġs om
Ġs iÊ¼
iin ii
ĠB irraa
aar uu
Ġtur aniif
Ġho n
ĠK aaba
if faa
ne t
ĠN yaa
Ġsh iraa
Ġaan see
Ġsan aaf
Ġraaww achuu
ĠAf ir
Ġbit uu
Ġyaal uu
II F
Ġdhaq anii
ut h
Ġgod inaa
Ġdarar aan
je k
Ġ199 2
Ġmaall aqaa
ff aatti
Ġcich oom
J arreen
L ol
S ilaa
W axabajjii
an s
Ġk uuf
Ġk ibb
am aaf
Ġh i
Ġm uslim
Ê¼ een
umm ii
af aan
akk uma
Ġseen ne
Ġdhab u
Ġguu raa
Ġji g
Ġhedduu dha
Ġdhaab atu
ĠX umura
Ġ20 01
Ġbeeksis e
Ġbeekk amu
ĠSabboon ummaa
ĠHaa dha
âĢĶâĢĶâĢĶâĢĶ âĢĶâĢĶâĢĶâĢĶ
Dhaab ni
Fil annoo
Ġdabball oota
ĠGeed oo
ĠJabuu tii
D ura
w an
Ġb anaa
Ġg eessuu
aas ter
Ġl ixa
if aman
Ġdeem uuf
ĠR aas
es e
Ġdhii saa
ĠSh aash
Ġcim see
Ġhor achuu
Ġmiseens oota
Ġbuu s
Ġdhimm aa
Sh irri
orom ia
Ġtik suuf
Ġbeekk amaa
Ġdhun faa
Ġkamii yyuu
Finc illi
Ġbirmad ummaa
D M
Ġk ayyoo
kk aan
Ġw aaÊ¼
Ġo ww
Ġwal akk
mm ar
on naan
ĠWayyaanee tiin
ĠtaÊ¼e s
Ġqoph iin
Ġhojje tanii
Ġlol li
Akk amitti
Ġbaaf achuu
Ġjaal atam
Ġtaasif amu
ĠWar q
jedh u
Ġeegg atu
ĠMar araa
Gar iin
Ġkaaf nee
Ġgol gaa
Ġimpaay er
Ġxii qii
Duul a
Ġkas aaraa
. )
B oor
g ir
s ab
Â ´
Ġb addaa
Ġf a
Ġkeess aniif
ayy ab
ĠF aa
Ġgal le
Ġx ayy
Ġfudh atamu
add ee
Ġkenn amee
Ġp ost
ĠWayyaanee tti
Ġbaas ii
Ġku tee
Ġji bbaa
iig al
Ġwaa kk
Ġtar tii
ĠP re
Ġkeeny atu
áĪ µ
áĪ Ī
ĠIn d
Ġguut uuf
Ġhayy ama
Ġbeeksis eera
Ġyoon a
Ġmu caa
Ġdoor sisaa
Ġmaall aq
Ġdanday u
ĠSabboon tota
Ġdukk an
Ġmeesh aalee
ĠAhm ed
S o
Ġ att
an y
Ġd agg
umm atti
aat ni
ach i
Ġbar ana
ĠM uu
Ġc aqasaa
ĠD aar
ĠI yy
if achuu
ub e
Ġtah een
Ġgaaf fi
Ġsir raa
Ġra kka
aww an
Ġ3 5
Ġfii l
Ġdabal ata
Ġduul uu
ĠWaaq ayyoo
Ġul ee
Ġqofaa dha
Ġgaa ra
Ġdid uun
ameef ii
Ġhubachiis uun
ĠKad iir
Ġdheeb uu
Ġbob aÊ¼aa
asp ora
B arri
F ur
F infin
T or
c k
f an
m anaa
an u
Ġk allattiin
Ġd oo
Ġm udh
ĠM arii
ĠG S
uf a
Ġgo saa
Ġamm ayy
Ġhund inuu
ĠT he
Ġr e
ĠU MM
udh aa
Ġmur n
Ġti ka
Ġijaar an
Ġbal dh
ĠItoo phiyaan
ĠHar om
Ġjijjiir amni
Ġham baa
Ġfayyad amaa
ĠWar aanni
agga saa
Ġhaara ya
Ġeenyu tu
bo ur
Ġhol ol
Ġjum laan
Ġwalqixx ummaa
ĠGir maa
K araan
Ġ een
Ġd allaa
Ġh oon
Ġh adhaa
Ġqab e
Ġqab aata
ĠA L
ĠA y
aar aan
ĠU kk
Ġsh ar
Ġti n
Ġgagg eessu
Ġool anii
Ġjaar s
Ġwan ta
Ġdig d
S aba
k eessaa
Ġ 000
Ġk of
Ġi yyaa
ab e
Ġf aal
ch isuu
Ġqab ame
Ġgar ummaa
Ġtur u
aam aan
aman is
ĠF ed
atan is
arr oo
Ġsir baa
Ġhedd uuf
ĠbuÊ¼ uun
Ġdhaab achuu
ĠR abbi
Ġdhag eettii
Ġdirq amaan
Ġool ch
Ġwareeg amaa
Ġgarg aaraa
sis u
Ġlakk of
Ġnyaa tee
Umm at
Ġlamaan uu
ĠHaw aas
Ġinjifannoo lee
Ġpaar laamaa
Ġkij ib
ĠTas f
Ġgoof t
phiy ummaa
A ti
Y aroo
c ii
h und
l am
z iin
Ġ eessaa
Ġd am
ar t
Ġj arm
Ġbar dhibbee
Ġwal abaa
ra y
iyy aaf
jj iin
ĠM alee
ĠM iÊ¼
Ġc aq
as e
ĠS im
ich aatti
Ġab aab
aw oo
Ġdeeb i
Ġin v
Ġjab eessanii
abs iin
Ġmii laa
Ġkabaj amee
Ġraaww atu
Ġraaww atamu
Ġtaasis anii
Ġham tuu
Ġgaa g
Ġuf i
Ġdhum an
Ġqon d
Ġcabs uuf
Ġgumaach aa
Ġ8 0
Ġcall isanii
Akkas uma
Ġwaar ee
Ġbitti nn
ĠGurr aandhala
G AA
L ola
i kaan
y kn
Ġh iis
Ġi t
Ġb ol
Ġb abb
Ê¼ an
bb ee
Ġl al
Ġl oog
Ġgar aaf
ĠD ok
ĠH am
ĠK enn
Ġarg annee
ĠE jj
Ġeeg ee
Ġibs anitti
Ġp l
Ġdarb uun
el e
ooti n
Ġgoot otaa
Ġod eessa
ĠbaÊ¼ u
tin g
Ġgum ii
Ġgor saa
Ġmin ilik
ĠSom al
Ġfuuldur aatti
ĠXaal iyaanii
Ġwalga yii
ĠHos pitaala
Ġkubb aa
ĠTarkaan fii
ĠAlamaa yyoo
bour ne
2 5
d ar
Ã º
Ġk aaÊ¼ee
ab aab
Ġw aayeen
Ġhin h
un is
Ġjedh ameera
ĠG ootummaa
it oonni
Ġamm ayyuu
Ġwar rii
ĠK EEN
ĠT HBO
maan aa
Ġfakk aate
siis an
Ġp ro
eel lee
Ġdhii bbaan
Ġtokkummaa dhaan
Ġhii kkaa
Ġbuu suun
Ġhoj i
Ġsirni cha
War aana
Ġgabaab duu
ĠYun aay
ĠSag antaa
ĠQaall ittii
T TI
f ill
o v
an gaa
Ġnu g
ĠT OKK
Ġdhi q
ĠJ amaal
aw aan
Ġhub ann
sis e
Ġerg an
Ġdhiy eessuun
Ġbaaf nee
Ġyakk aa
ĠqabsaaÊ¼ otaa
ĠAmeer ik
ĠMas rii
ĠWarraaq sa
Ġnafxany oota
Ġhirii rri
w ii
Ġh eeraa
Ġs oo
is taan
oot aafi
Ġqab eenyaan
ĠB aatii
ĠM anneen
ĠM eettaa
ĠG abaa
Ġtur aniiru
ĠK af
Ġarg in
Ġgudd atee
Ġgudd isuuf
Ġdubb annu
Ġmaal ummaa
Ġraa yyaa
maa k
Ġdargagg oon
Ġqawwee tiin
Gab aab
Ġwaliigal teen
Ġarr aba
Ġargamsiis uuf
Ġbarbaan na
Ġsib ii
ace book
3 6
B alaa
O ROM
p oor
Ġi gg
ti man
Ġf und
Ġf aatti
um s
Ġkeess i
iyaa sp
ĠG agg
ĠG aazex
ĠK arra
Ġhar mee
Ġgal g
Ġhidh anii
Ġhidh attoota
aann aa
ĠE l
Orom ia
Ġaa dde
ĠWal daan
ĠgaÊ¼ a
ĠâĢĺ âĢĻ
ĠIn ni
Ġajjees e
Sh ira
Ġshan an
Ġdald ala
ĠGu yyaan
ĠHir iira
Ġolol aa
Ġqilleen saa
ĠWoyyaan ee
ĠWaajj ira
ĠMuh ammad
atas kaan
W arreen
f ataa
w arra
am ti
Ġg eey
Ġs amii
umm aas
aÊ¼ aan
ĠB oon
ĠB itoot
ĠG oota
Ġar raa
ĠH asan
Ġbiyy oolessaa
Ġgudd ichi
Ġol la
ĠL ol
Ġdhuf uuf
Ġmorm uun
Ġdhiy eessu
em ber
Ġajjees u
Ġ0 3
ĠAbb ootii
Ġlabs ame
ĠDarg iin
Ġhordof an
Ġdhuunf aatti
thiop ia
Ġdi pl
Ġergam tuu
Ġroorr oon
Ġbaree daa
Ġsadd eet
ĠMel bourne
E PRDF
S illaasee
f ate
k enn
Ġ ;
Ġd ib
Ġh aan
Ġt uu
ch ii
Ġw h
Ġjir achuu
ĠM us
Ġc ee
ĠG aara
Ġar iif
Ġisaa rratti
aam ii
if achuun
on ti
Ġhund ii
Ġdand eessan
Ġgal lee
Ġgal aatti
Ġbeek sisuu
Ġnam ii
Ġhojj ate
Ġhub atamaa
Ġgodh ate
Ġmar tinuu
Ġdhag eenye
Ġkabaj amoo
ĠP ol
Ġqub atan
Ġkuf a
Ġxumur ame
ĠWaaq oo
ĠUumm anni
Ġqabsoof na
On kol
Ġobbolee yyan
ĠIRR AA
Ġqaqq aalii
ĠLii ban
U tuu
g ah
am toonni
Ġt al
Ġto la
ĠD am
Ġar j
ĠF udh
ĠQ ind
Ġgaaf atanii
Ġbeek na
Ġkenn amuu
Ġhaf a
Ġwareeg ame
Ġmirkan eesse
Ġ5 00
Ġ0 6
Ġdhiyaa tu
ĠIb raahim
ĠHabash oonni
Ġgoon u
Ġxiyyeeff annoo
Gab aasaa
Ġbeel aan
ĠOnkol ol
Ġakeekka chiis
Ġkees atti
ĠMok onn
M arii
M aarree
P oolis
m ata
r een
x iin
Ġk oon
at ch
aal atti
Ġn un
ann us
ĠW AR
ĠH ora
Ġgo rr
ool aara
Ġhub anne
Ġgodh amuu
eer oo
iir ee
Ġhim u
Ġ3 00
Ġbarbaad anii
Ġ4 00
Ġmal an
Ġaj andaa
Ġfac aaf
Ġdag achuu
ation s
Ġwayy aneen
Ġmax x
Ġkeen naa
Ġumur iin
Ġgooti cha
biyy ummaa
A mmoo
B AA
D ar
g ama
aan na
Ġb us
Ġdh eekk
Ġjir uufi
ĠB oo
Ġhar a
Ġbeek in
Ġhidh amuun
Ġfakk eenyaaf
Ġeeg u
Ġeeg uun
Ġp iree
Ġbarr uun
Ġqabs icha
Ġkal eess
Ġdargagg ootaa
eell oo
Ġdalag an
ĠSab ni
Ã© n
Ġbilb ila
Ġfaash istii
FIN NEE
L EE
b e
j aaj
u z
Ġf unyaan
aÊ¼ ama
Ġo ri
ĠtaÊ¼ aan
ĠtaÊ¼ ullee
iif uu
ĠK ol
Ġdand eett
Ġbeek aman
Ġmur aas
Ġhub atuu
enn aan
aann an
Ġqoph eessuun
ax aa
Ġfur g
Ġdaan diin
Ġgaar itti
Ġdhiy eenya
Ġhal ag
ĠIs laam
Ġdabr uu
Nam ootni
Ġdach aan
Ġdii gaa
Ġrif aas
gaaf fii
zidaan tiin
Ġsirb oota
Ġxax aa
ĠDhaabb ata
ĠAdaam aatti
Ġbool la
Ġfotto q
d ir
h ttp
j ee
m iin
Ġk oreen
am ummaa
Ġj ann
Ġj alee
Ġf aan
Ġqab eeny
Ġqab iyyee
ĠJ eneraal
ĠN amaa
Ġfudh ata
ĠL ond
Ġhan b
oof nee
Orom ummaan
eel laa
Ġgagg eessuuf
ĠR abbii
Ġdhuun faan
Ġhii kka
Ġbuqq isuun
ĠJimm aatti
Ġcarraa qq
uq aa
UU F
Ġqind oom
// //
Ġtor ba
Ġhiik aman
Ġmu c
Ġkum oota
Ġqaan f
Ġtoo ra
Ġolaan tummaa
Ġbun a
ĠMaa mmoo
ĠMah ammad
ĠDhih a
Ġbattal umatti
> >
D iddaan
f uu
k aatti
u w
Ġ %
at ne
am annee
Ġi raa
Ġb ek
Ġa duu
is eera
as uu
iis aan
ĠT ash
Ġgaaf ataa
Ġhidh ate
Ġibs amee
Ġhojii lee
Ġraaww atee
Wal itti
Ġmirkan eeff
Ġwalii tti
Ġfalm uu
Ġ200 4
Ġgand oota
Ġguut ame
Ġbaayy een
aatt onni
Ġlaaff isuu
ĠbuÊ¼uu raa
iv il
Duul li
Ġtokkot u
ĠEritre a
E G
k e
Ġj aj
Ġm uk
in ar
Ġw as
Ġjedh eef
ĠM and
ĠG oob
Ġgu d
Ġr iph
Ġdeeb ina
eer iyaa
ĠAm bo
Ġjab aachuu
ĠR agg
Ġqub suma
Ġgargaar si
Ġdhiy eessan
Ġbobb aÊ¼e
Ġgadd isiisaa
ĠAmboo tti
Ġyakk i
Ġukkaam saa
Ġbeel aa
ĠEthiop ian
Ar tis
Ġpool isaa
ĠSaud i
UBB II
3 7
A Q
am na
Ġg aad
Ġt aayitaa
ch aaf
Ġq ur
Ġo na
ĠI f
Ġarg uun
Ġgal chuuf
atu tti
oom suu
Ġhidh ee
aay ii
Ġbarbaa cha
Ġilaal chaa
Ġkeenyaa s
Ġhim ee
Ġqoph eesse
Ġhojje chuuf
Ġdhih eessuun
Ġdabars uuf
Ġbulch iinsi
Ġmiidh ag
Ġleen c
Ġhordof uu
Ġdid an
Ġsuu kan
Ġfaar uu
Ġmars aalee
Ġwagg aan
Ġgurr aach
******** ********
ĠAjaj i
ĠDass aal
G adaa
N ag
s ine
Ġk arra
Ġb aatanii
Ġj aarr
Ġq ixa
ĠA D
ĠG ee
Ġdand a
ĠT umsa
Ġhar q
aach uuf
Ġhir een
Ġhub atamee
Ġgodh atanii
Ġgabr ummaan
ĠAd am
Ġbuu see
Ġfayyad amu
Haa ti
Ġjett an
ĠIs raaÊ¼
Ġdim okir
ĠBul chaa
ĠBir rii
Ġhag am
Ġhiraar saa
Ġtaat eef
barr uu
2 6
G um
G aazex
K aleessa
d ent
s ama
ar at
kk oo
Ġqab aatanii
un aa
ĠA N
ĠB y
Ġjedh us
ĠH aam
Ġarg ine
ĠQ aama
Ġgal uuf
oom uu
adh uu
Ġdubb atee
Ġkenn aniin
Ġwayyaanee tiin
Ġuum amee
Ġgaaffii lee
Ġgargaar saa
Ġkanaaf is
og ogg
áĪ Ŀ
Ġbuqq isuuf
ĠtaaÊ¼ uu
Ġhooggan amu
Ġwol itti
ĠBoor ana
Ġor m
ĠNag aasaa
Ġth is
Ġkitaab ota
Hoo ggan
ĠPr of
Ġsiy asaa
F XG
H ogg
m oota
o un
at inaa
Ġt uttu
Ġdh eera
Ġs akk
is haa
ĠA M
ĠH anga
ol le
ub een
aw uu
Ġij ibb
ees e
Ġp lan
Ġmoo ra
Ġdhii ra
ĠDh al
Ġqoo dd
Ġdhug aaf
Ġnag aatiin
Ġbulch iinsaa
Ġfayyad aman
Ġjajjab oo
Ġyo kaan
Ġdoor sif
Ġgalch e
ilb ata
Ġbarat ootaa
Ġye mmuu
ĠKut taa
Ġgaach ana
ĠOsl o
f amuun
j ak
k al
p ph
w arri
Ġg ootaa
Ġt uÊ¼
Ġs il
ĠOrom ootaa
Ġn af
Ġhin tu
Ġto laa
Ġc aas
ĠG aadd
ĠK or
BO J
da y
all ii
all een
Ġin tarnee
Ġmur noota
ĠtaÊ¼uu s
âĢ¦âĢ¦ .
ĠAr s
Ġqabsaa Ê¼aa
Ġqaam ota
Ġwalab ummaan
ĠtaaÊ¼ u
org ommii
Ġbarb aannu
Ġqajeel aa
Ġbin eensa
ĠOb see
ĠBur aayyuu
Goot otni
Akeek ni
ĠTaf arraa
Qoph ii
ĠNafxan y
ĠEer tiraa
Ġfiil mii
H im
Q M
a jii
d ubb
f achaa
Ġg ot
Ġdh ad
ag deen
ĠOromoo tin
aat tee
er man
ĠB een
ĠH ogg
ĠâĢ Ļ
en e
Ġil kaan
ĠT el
Ġhar dh
Ġnam ooti
ees haa
Ġaan suun
Ġdirq amaa
Ġgoot an
Ġag arre
Ġdabal uun
Ġqor annoon
Ġkuf aa
Ġkuf anii
Bar attooti
Ġgaggeeff ama
áĭ į
uudh an
Ġmin isti
Ġjirr uuf
Ġjirr eef
Ġcin iin
ĠSir ni
oll oo
ĠtoÊ¼ annaa
Haw aasni
Walumaa galatti
Ġshir oota
ĠsaÊ¼ aatii
ĠDamb i
fill oo
, âĢĻ
E D
J aarraa
Y A
b i
c innii
j ira
am tootaa
Ġg eessan
ir oos
rr ii
Ġis aatu
Ġqab da
ĠB ooraa
ĠH ayyuu
Ġgu gg
ĠK um
eeff annoo
Ġnam aan
aaÊ¼ u
Ġbul tii
Ġaan uuf
Ġbarbaad amu
ĠBar attooti
ĠmulÊ¼ achuu
Ġdabal uu
Ġbulch insa
Bar noota
Ġlaaf aa
Ġlab sa
Ġgool aa
Ġweer ara
ĠqophaaÊ¼ e
ĠGud ar
Ġxixiqq oo
Ġgaadd isa
ĠSaa ddoo
Ġqarq ara
ĠLond on
S ource
Ġ anaa
uu raa
at aatti
ti c
Ġq ill
Ġs iÊ¼a
ĠOromoo rraa
ĠA g
Ġl aaq
aar oo
Ġar dii
baa y
ĠI L
Ġho Ê¼aa
Ġgal aan
Ġture s
tt a
Ġakk uman
Ġhub atuun
Kan atti
Ġyaad e
ĠC omm
Ġdhaab an
Ġee yy
ĠAdd is
ĠGal chuu
Ġhirm aachuu
Ġhoggan sa
Ġmud atee
Ġan gaw
Ġmagaal aalee
Ġguyy aatti
ĠAn g
Ġyaadd essaa
Ġkonkol aataan
Ġtokkoom uu
Ġgeggeeff ame
Ġwaar d
Ġdadd af
ĠJaar soo
Sag antaa
Ġyer o
Karoo rri
Jijjiir ama
Ġson aan
Goch aan
G an
h aan
uu b
am un
ab sii
Ġf anni
Ġm ore
Ġq oof
Ġq iyyaaf
Ġfi cc
ĠA soo
Ġwal in
or n
en na
Ġnu tu
ĠF i
Ġgaaf atamuu
eeff annaa
ĠJ ar
Ġbir aas
Ġdab arre
âĢĿ )
Ġhub atame
ĠgaÊ¼ an
Ġqub atee
áĪ Ľ
Ġban ame
Ġban amee
Ġtan ee
Ġjaarmay aan
uti on
je chuu
Ġgay ee
Ġdimook ir
áĮ į
Haw aasa
ĠTor on
Deeb iin
ĠLeell isaa
ĠTadd asaa
Ġulaa gaa
O DF
S ii
W agg
e ch
Ġk umaan
al aal
Ġt eenyee
Ġs aayinsii
Ġqab sa
Ġqab aate
ĠA li
Ġkeess attii
ĠM aar
ĠG araa
ĠG ib
ayy o
ĠI m
ĠI rra
ĠH aaraa
ĠK Y
if ame
ub li
ĠF acebook
Ġyeroo dhaa
Ġgudd aatu
Ġx ala
iy oonni
Ġp eople
Ġnaann aa
Ġlamm aff
Ġafaan faa
Ġhaal an
ĠGal ma
Ġakeek aa
Ġdhum aatii
Ġ0 4
Ġmootumm a
Ġfiniin suun
Ġukkaam s
ĠHay ila
Ġfar da
Hund i
Ġcin ne
ĠMir gaa
Barr uu
Dhal ooti
Ġiss aa
ĠyaaÊ¼ ii
Ġgaafatam ummaa
Hoo gganni
Ġragg aas
F edh
H R
N aann
Ġk orm
Ġk aamp
in n
in saan
Ġw aaraa
Ġfi xan
aal ummaa
Ġn ot
Ġbar an
Ġwal hub
ĠB os
jj i
ĠM az
ĠG ooroo
Ġgo chi
Ġgal maa
Ġjiran uu
ĠN adhii
Ġdhaabb ataa
ĠbuÊ¼ oota
Ġjiraat tan
ĠmulÊ¼ atan
Ġbaaf atee
isiis uuf
Ġhoggan toota
ĠIs aanii
Ġhayy oonni
Ġhordof uun
Ġfaar saa
Ġaar tii
Ġkall acha
Biyy oota
Ġlukk eelee
ĠBak ar
ĠAyy aanaa
Ġmaayy ii
D iddaa
I m
O L
R A
am t
ss e
Ġq ara
eess inu
Ġfi daa
ĠOrom ootii
ĠB arsiis
ĠS illaasee
Ġarg uuf
Ġgudd achuu
aaÊ¼ an
Ġyaad anii
aj aaj
Ġool a
Ġwareeg amaniif
Ġqor icha
Ġdandeeny ee
Ġdadhab ne
em en
Ġbuu se
Ġaangoo tti
Ġfix ee
ĠBiyy atti
Ġmot ummaan
ĠFayy isaa
Ġkoloneeff ataa
Ġministee ra
Ġraad iyoo
Ġsuuk anneessaa
bit tee
Ġmuuz iqaa
Ġsuduu daan
K oreen
t ure
an oo
Ġk oot
Ġhin j
ĠI yaa
Ġgo g
Ġbiyy oonni
Ġnu yi
ĠF ii
Ġr iq
Ġso dd
Ġdeeb ise
Ġhaa mm
Ġsir noota
Ġsh aak
Ġaan j
Ġbaas een
Ġbarr eessee
Ġu tubaa
Ġdhii ttaa
ĠDh aloota
Ġmorm aa
ĠmulÊ¼ isu
ĠdeebiÊ¼ aa
Ġban ee
Ġken ya
Ġajjeef amuu
Ġkon yaa
Ġsuu kk
Ġpoolis iin
Ġdu ww
ĠAbd ull
Ġhadh ooftuu
Ġhint aÊ¼in
ĠJedh u
ĠKir ist
Ġwalumaa galatti
ĠQil xuu
ĠRakk oo
HaataÊ¼uu tii
2 9
I B
I rra
f ata
g een
s inu
Ġq omoo
Ġbar ab
Ġwal f
Ġisaan iti
ĠD ald
ĠI SAA
Ġhar dhaa
ĠJ aarraan
ĠOromiyaa ti
ate d
iy uu
aaÊ¼ ik
Ġjab aatu
Ġaan aalee
Ġku taan
ĠP ool
Ġgoot owwan
Ġnamaa tti
II S
Ġjijjiir uuf
Ġinjif achuu
Ġhal agaan
Ġ0 8
Ġmagaal aan
Ġfid an
Ġcall is
Ġwagg oottan
UMM AAN
Ġafur ii
ĠYuniv arsitii
ĠDim okr
har Ê¼a
Ġhos pitaala
ĠDaw ud
ĠHaam id
G aree
J un
j a
m ad
m aree
at oonni
Ġj araa
Ġt ee
in nee
is m
Ġqab atu
bb ii
ĠB ishaan
iyaa d
ĠM iid
ĠG AB
Ġgaaf atee
Ġseen te
Ġdhab amee
Ġib iddaan
uul a
Ġaan utti
Ġwarra q
Ġbo bbaa
Ġe k
Ġfedh een
Ġmurt eef
Ġcaal uu
Ġgegg eessan
Ġbaaf atanii
Ġbiroo s
Ġtuf fachuu
Ġgumaach an
Ġsirni chi
âĢ¬ ,
DH A
jje tt
Ġyook in
Ġhaat aÊ¼u
ĠFaa x
) :
K itaab
Q oo
b aq
b el
i ka
am i
Ġw oggaa
Ġs a
Ġs urr
Ġjir eessi
amm aa
ad an
Ġc aasaan
as itti
ĠH ub
Ġadd un
iif tuu
Ġtokko rratti
achuu tu
tu s
âĢĿ .
Ġhojj atee
Ġhub achuuf
Ġdhab aa
ĠN aann
Ġdhaab anii
Ġdhih eessan
Ġfur uu
Ġdhiis u
Ġban an
Ġhoggan amu
Ġ0 7
Ġcabs uun
Ġmirg ii
Ġhang i
Keess umattuu
AL AT
Ġsabab oota
Ġhag uug
ĠAbdii saa
Ġwayyaan e
Ġqalb eeff
Haat ahu
Ġ197 4
Ġdaf anii
Ġhamb isuuf
Mag aal
Ġbe kk
ĠDab alee
ĠRoo baa
ĠDubb ii
Wareeg amni
ĠMootumm oota
Itoo phiyaa
Dabal ataan
2 7
K ora
M oo
P H
R oo
l ish
am naan
Ġb ub
ab oo
Ġt uni
ummaa tti
Ġwal ig
Ġl ee
Ġkana dha
if tee
Ġdhi ba
ich ii
idh aan
Ġx umm
tt ps
ees an
Ġdhab ame
aaÊ¼ e
qab eessa
Ġfakk eessanii
Ġfakk aatanii
ĠharÊ¼ aan
ĠbuÊ¼ uraa
Ġakkas iin
Ġqoph eessan
sis an
Ġeeny ummaan
Wal daan
Wal gahii
Ġkaan is
Ġbuqq isanii
eessit u
AN D
Ġdhiyaa chuu
ĠAbb abaa
aadh u
oti kaa
Add unyaan
Ġdug uugg
Er gam
ĠMis eensa
Ġhojjet amaa
Gu yy
Ġqun namtii
Ee ga
Ġfeen a
mur tii
ĠIt yoo
mmar too
Ġori gin
A adaan
G A
I YY
T an
W aajj
a in
b u
c on
d oo
ii raa
ab ni
Ġs aafaa
om p
ĠO SA
ĠB iq
Ġc uq
it tuu
if i
Ġgaaf atamu
eeff amaa
Ġgodh atan
Kan arraa
ĠN U
Ġdhaabb achaa
ĠY uun
ĠbuÊ¼ anii
Ġhim anii
Ġofii tiif
Dh alli
el lem
Ġam anna
Ġnyaa tan
Ġgargaar uuf
Ġban uun
Ġiyy annoo
áī °
Ġach umatti
Ġukkaam suu
Ġdog ong
Biyy oonni
ĠMall asaa
ĠsochoÊ¼ an
Min ilik
ĠXaal iyaan
ĠAyyaan ni
4 0
C arraa
K oree
d anii
l eef
o y
am atti
am nii
Ġb iiroo
Ġm alli
Ġqab neen
Ġqab dee
Ġbar siisa
Ġwal umaan
ĠM iti
ĠG amb
Ġisaan itiin
as aas
ĠD oor
ĠH AA
Ġof umaa
ol ution
on e
Ġuu maan
Ġgal eessa
Ġhir iyoota
ĠAm b
Ġyaad achuu
Ġhim amee
Ġuum u
Ġhamm eenyaa
Ġjalqab aaf
ĠWal gahii
Ġfedh ee
Ġnyaa te
Ġad abbii
Ġgand een
ĠGuu tamaa
Ġargam tan
Ġshorork eessaa
WBO n
Ġarrabs uu
Adeem si
Ġgamaa gg
Ġakeekkach iisa
B or
D C
S iyaa
Y oom
h is
l iin
t iifi
ii rri
Ġk ootii
aan e
Ê¼ ina
Ġw ith
Ġdh ang
Ġs aal
aaf ame
il le
ĠM oot
as t
ĠI ti
ĠH amm
ay e
Ġdiin aatti
Ġseen uuf
udh aaf
Ġhojj annee
Ġhub annaa
aann eef
Ġfudh atamaa
iti d
Ġmis eensi
Ġbal lee
Ġuum an
Ġjalqab u
ĠmulÊ¼ isuu
Ġeeny uun
Ġbu tu
Ġdhugaa tti
Ġjijjiir uun
Ġsabboon tonni
Ġgam oo
Ġturr ee
Ġfid anii
ĠAn goo
Ġhaara waa
Ġhaara wa
Lamm affaa
Ġjijjir ama
Ij oollee
Ġdhun f
ĠMul Ê¼
Qabsaa w
ĠSal aalee
Ġpool isa
Ġagars iif
Mudd ee
! .
3 4
G O
J aall
O duun
W ayyaan
g ab
h i
s aatiin
uu maa
Ġi fii
ch atti
dh uf
eess ota
ĠB arsiisaa
Ġto h
or t
ĠH AR
ĠK aroo
eeff amu
Ġdab aa
Ġgudd atu
Ġhir ree
Ġfudh atamuu
ĠL een
Ġyaad achuun
Ġyaad annu
Ġaman amoo
ĠR abbiin
Ġhim ameera
ĠBilisummaa ti
dhaa b
imm oo
Ġdhih a
Ġbaq attoonni
Ġdadh abaa
Wal ii
Akk aataa
amsiis uu
ic tor
Ġguut ummaan
Ġqof atti
Ġjajjab eessuu
sit uu
Ġdhibb aan
Ġwol iin
ĠAn filloo
Ġyo u
Ġtaph a
AD AA
Abb ootiin
Ġqabsiis ee
Ġmiil iyoona
ĠArtis t
Go chi
Ġhirii raa
Ġbun aa
ĠIlaal chisee
Ġgalat eeff
Ġdiimookr aat
Ġtars imoo
W arraaq
f fa
i al
s uf
Ġk ot
Ġb aab
Ġb ush
Ġg atanii
um atu
aÊ¼ iinsa
aÊ¼ insa
Ġy ad
Ġl uu
ann iin
iyy een
Ġc an
Ġgar malee
or ork
ĠW ag
Ġar addaa
Ġgu baa
Ġbiyy aaf
ĠK aan
Ġseen aaf
Ġhub adh
Ġti yya
Ġfakk eeny
Ġaman uun
ĠtaÊ¼e tti
Orom oota
Ġraa jii
Ġfuf anii
Ġijaar amanii
Ġe x
Ġtar ee
Ġduu baa
Ġlakk ii
Ġdhiy eessa
Ġfayyad amee
Ġajjees anii
Ġmaq aaf
Ġcuf aa
Ġ6 0
Ġilaall a
Ġhundaan uu
ishaan gul
ĠBilis oom
Ġgool ab
Ġkaay oo
Ġbaqatt ummaa
Finc ila
ĠUr jii
ĠMinistee ra
Finfin neen
J aallan
O tuu
S OO
b iyya
l uu
Ġb aannaan
Ġg eeny
Ġm aan
Ġm oggaa
oot uma
aÊ¼ us
ĠM ad
ĠT eed
ĠQ oo
eeff amanii
all y
Ġhojj atuu
Ġhir iyy
Ġdhab ama
Ġdubb ataa
Ġfudh atam
add unyaa
Ġboo dd
ĠtaÊ¼uu saa
dee y
ĠC eh
Ġaman siisaa
Ġofii tiin
ĠDh eer
Ġhamm am
eff ate
Ġdadh abbii
.. .
Ġwall aggaa
Ġyakk amaa
Ġsaaxil uu
AT AA
Er g
AD H
CH A
Ġkiyyaa titti
ver siitii
Ġbadh aasa
ĠMo haammad
ĠEe bb
ĠFuf e
M al
M oot
b ilisummaa
n ne
p o
an t
Ġk oof
Ġd oof
Ġb aj
Ġb ixx
Ġb oombii
Ġm ich
om b
is tummaa
Ġhin arg
Ġy aalee
Ġwal ti
Ġtokk ichi
ĠS eera
Ġseen tee
Ġin d
Ġdubb isuuf
ĠN ew
ĠL iib
ĠAm h
Ġtar kan
Ġbarbaad anitti
Ġdhih aatan
Ġkoo s
Ġdabal ataan
Ġnag ayaan
Ġdhum u
Ġfac aasuu
Ġdag atamuu
ĠAbb a
ĠBiyy ummaa
Ġach umaan
Dhaa d
Ġhiik uu
Ġgalch ee
ilii k
Ġgaf fii
ener al
Ġhe rr
Ġmo y
Karoo ra
Ġinter nee
ĠYoh aannis
Ġhirri ba
T aammanaa
b ata
g ara
l le
Ġk adhaa
am p
Ġi ttii
Ġg uun
in aaf
Ġs ani
ĠOrom iya
aÊ¼ een
Ġbar e
Ġjedh eera
ĠM anni
ĠG ind
Ġisaan uma
Ġirraa yyi
ĠH absh
Ġil aam
ars an
iy ee
Ġib iddaa
Ġmar ih
ĠbuÊ¼ iinsa
ĠR aaww
Ġhim anitti
ĠDh awaa
Ġqub ate
Ġnyaa chaa
Ġaf uura
Ġkam tu
Ġmuu x
Ġhanq achuu
Ġgabaab umatti
usl ii
Ġawwaal cha
Ġjijjii rraa
EES SA
Ġjar j
Tokko ffaa
Ġakaak ilee
Mas ter
Ġnaamu sa
A MM
e lee
k araa
u yyuu
aa z
Ġk aatee
Ġh ad
Ġh aalaa
ir aan
Ġdh oof
aar si
Ġgar tuun
ĠG U
ĠG AAF
Ġtokk uma
ĠD abb
ĠD awaa
ĠS aÊ¼
ĠS anaa
ĠS EEN
ĠH O
ĠK enya
Ġarg atuu
ich is
Ġin n
aall een
Ġmar iy
Ġkenn ine
ĠR oob
Ġkabaj amuuf
Ġisin iin
Ġcim suun
ĠWal aayitaa
ĠAr aar
Ġas uma
ĠItoophiyaa tti
Ġxumur amee
Ġsun is
Ġbad ee
Ġjirru tti
Ġmiidh ama
Ġreeb ichaa
Ġbeeksis a
Ġdhagah amu
oomf ataa
ĠOromoot u
ĠSabboon aa
Ġcab ee
ĠUmmat ootaa
ĠCh aayinaa
Ġnafxany ootaa
ĠSan yii
ĠArab iyaa
Ġxii q
BuÊ¼ aa
Ġdall an
usti r
OOM AA
ĠAfir ikaa
2 4
X umura
u x
Ġb a
al tummaa
kk uu
Ġm og
Ġqab b
Ġhin fakk
ĠA DD
ad i
ĠG O
ayy oon
Ġar ab
if amu
ĠT ola
Ġbarbaa dee
Ġdubb atamu
Ġjab aachuun
Ġdhuf ne
Ġyaad ame
Ġaan gaw
Ġeeg ala
ĠWayyaanee s
Ġdhih aat
Ġjaar maa
ĠAr g
Ġam b
Ġkaan u
Ġbaaf achuun
Ġdhum ee
Ġfaa jjii
Ġwaliig ala
Ġmee tira
Ġagarsiis an
Ġhu jiin
ĠbaayÊ¼ inaan
Ġwo yyaan
Ġbilch ina
Ġcacc ab
Ġdhan dh
Dargagg oonni
Ġko sii
Ġáī ł
Ġtaajj ab
ĠAad am
2 3
D ubar
L absiin
V OA
W AA
c uu
u baa
Ġd aaraa
Ġf ull
ĠA sh
Ġy uu
ama d
ama s
ĠB all
Ġar Ê¼a
ĠS een
ol e
if f
Ġdand eny
araa b
Ġgudd inni
Ġqabu s
Ġdubb ataniiru
qab aa
Ġjab eessu
uul Ê¼
uul lee
Ġdhuf tee
Ġyaad amee
Ġilaal ame
Ġhojii dhaan
Ġhim atan
Ġijaar u
ĠDh ab
ĠDh uf
Ġjiruu tti
Ġwaggaa tti
Ġaddunyaa f
ĠgaÊ¼ uun
eey saa
Ġxiqq eessuu
Ġjaal atu
Ġbarreeff ame
iil iik
Ġmin is
Ġjajjab ina
Ġtum si
Ġcal aq
Ġayyaan tuu
Ġlall abaa
Ġgodin oota
Ġ198 0
ĠFayy is
Ġoomish a
Ġint ala
ĠInjif annoo
Way ta
igh ts
Ġirb aata
A DO
H amm
N i
N uuti
c oo
h ir
k eessa
s un
w ayyaaneen
w ork
at ootni
Ġg eessee
Ġg eenyee
Ġqab amuun
ĠA sa
ummaa dhaan
Ġwal daan
Ġwal dhab
Ġl achuu
ĠB UL
ĠM aatii
ĠG idduu
ĠW aash
ĠI r
Ġarg achaa
ĠT an
Ġbeek aniif
aach aw
Ġgudd atan
ĠN ews
ĠR as
achiis anii
Ġqoo saa
âĢľ ,
Ġerg if
sh ip
Ġnyaa chuu
Ġbilis aan
Ġgaa z
ĠZ een
Ġmilk oof
Ġqof atu
Ġhordof u
mb aasii
uumm aan
Ġdhagah ame
ĠMar gaa
bar ataa
200 9
ĠDim okir
,, ,,
Ġjee dh
ĠRoo bii
Mir gi
Morm iin
poor tii
Ġgalg alaa
Ġharq oota
M anneen
M OA
T AA
U F
l akk
l leen
m is
Â Ń
Ġ ii
at amuuf
Ġg aww
Ġt umsaa
um arraa
Ġjir ta
ĠOrom ootni
Ġn arraa
Ġqab aatee
ĠA ann
ĠB aay
Ġar aarri
iis uuf
Ġil le
ĠK anaa
all a
ĠABO tti
qab soo
Ġyaad i
Ġhim ama
iig ii
Ġqoph aaÊ¼ee
ree dom
Ġfil achuu
Ġlol uu
Ġdhiis an
dur aa
ĠIn ternational
Ġeegal uu
Ġhoj ee
Ġyoom itti
Ġiyy u
ow n
Ġdhuunf atee
ass an
ĠGoot otni
ĠâĢ¦ .
Ġargamsiis e
Ib saa
AD UBBII
Ġbur jaaj
Ġmammaak sa
ĠQor annoo
ĠMot ummaa
ĠIstee ts
D UU
H u
m ana
u p
ee wwan
Ġm us
Ġm alle
aas ti
Ġbar c
Ġbar ata
il aal
ĠB okk
ĠM andii
Ġgar tummaa
as i
iis u
if amuu
Ġarg amaa
Ġarg inee
ĠF akk
Ġbeek toota
Ġdubb isaa
Ġfudh atuu
Ġlaf atti
Ġjab eessaa
Ġti r
Ġfakk eessaa
Ġkenn ameef
Ġyaad achiisuu
Ġyaad achiisa
Ġibs etti
Ġwaa h
Ġwaa qa
ĠP O
Ġuum anii
Ġgoot onni
Ġcaal an
Ġ4 5
ĠHar ka
ĠKan aan
aatiif i
Ġhawaas ota
Ġboon uu
Ġleen caa
?? ?
Ġlaal chisee
Ġgeggeeff amu
Ġhojjett oota
Ġempay er
B akk
D A
G am
R AA
g uyyaa
q eerr
Ġg amni
Ġg aanfa
dh al
Ġq ayyab
ra ffaa
ĠS a
ĠS oo
ĠS eer
en s
ĠQ o
Ġseen nee
Ġib idd
Ġfudh annu
ĠL immuu
Ġdhaabb anna
Ġgad aan
achiis aan
ĠP iree
ĠmulÊ¼ atee
Ġduu ti
op iyaa
Ġfur maatni
Ġbarbaachis e
Ġdarg ag
Ġtan kaar
Ġbarsiis uuf
áĭ «
Ġdid anii
Ġdalag e
ĠAw roo
Ġpaar tilee
Ġgoww om
Ġpol iti
Ġnaanna waa
Ġdadd aaq
Ġjiraan na
ĠhundaaÊ¼ e
Ġsany iin
Ġwix in
A jjeechaa
T OO
e ad
g r
h un
t ot
oo phiyaa
ii dhaan
Ġb ataskaan
Ġj achuun
Ġa y
ĠA K
Ġy aall
it tan
ĠI N
ĠH al
if amee
Ġhund aatti
Ġyaa bb
Ġkeenya dha
ees ii
ĠL aggasaa
ajj ee
Ġeeg umsa
Ġdir aamaa
Ġjechuun is
Ġhaf uura
Ġmii laan
Ġijaar e
Ġwayyaanee tti
Ġturan is
Ġkee ww
Ġgoot e
Ġnag aya
Ġduul uun
Ġdhaq ab
ĠOROM O
ĠBul tum
Ġhiriir uu
Ġfaar suu
Ġtoof taan
ĠMis ooma
Ġfeder aal
Ġdinq u
Ġwalfakk aatuun
ĠDhaabb ilee
ĠQabsaa w
ĠGul ummaa
timan tii
F ulbaana
L akk
M ooraan
W U
Ġk m
Ġf faa
Ġt aati
Ġw ixx
is ne
Ġl aalaa
ĠB iiroo
ĠI tt
Ġwar anaa
Ġbiyy ee
ĠF IN
Ġgaaf ataman
aaÊ¼ ii
Ġsh oor
Ġdeem tu
ĠtaÊ¼uu dhaan
Ġbul e
Ġibs achuu
ĠC im
Ġdhaab ate
Ġkabaj uuf
ĠBar ii
Ġmurt eessa
iqq aa
isiis ee
Ġdhum aatti
Ġkut annaa
Ġdim okiraasii
áī ½
aadh ee
uni ty
AT TI
Ġcunqurf amoon
Ġifaa dha
Ġkom ii
Ġargamsiis u
ĠGudd aa
oc ide
Ġdhaggeeff achuu
Ġdhoo y
Ġqabsiis uun
Ġijj i
Ġbarbaadd u
Ġhundeeff ama
ĠáĪ ĺ
ide o
ANN OO
Ġbeell ama
Ġhos pit
Ġboson aa
Dhiig ni
B akki
S ar
Ġ atatt
Ġk aah
Ġd ok
am sa
Ġi too
ti men
dh ag
ss ee
aÊ¼ iin
Ġakka si
ĠM AR
ĠM aangudd
ul y
ĠD aa
ĠK oreen
ĠJ aallan
taa ra
Ġdeeb isan
Ġgodh een
ĠdandaÊ¼ aa
aaÊ¼ anii
Ġsh im
âĢ¦ ?
Ġeeg amuu
ĠR abb
Ġabbaa biyyummaa
Ġuum amuu
Ġtaasis eera
Ġdan qaa
Ġaf ran
Ġdhiy eessaa
Ġtaasif amee
Ġmurtii tti
Ġxiyyeeff annaa
ijj ir
AM AA
Ġdhageess isuu
ĠGuu tama
Ġxiinx ala
Ġpol otikaa
ĠáĬ ł
Ġjilb eeff
Lammii leen
Ġheedd uu
ĠDubar toota
ĠYunaay itid
7 5
U l
ar iin
am aafi
Ġb aati
al uun
al ag
Ġf arreen
kk f
um ent
in us
Ġq oon
ĠO bbol
Ġo to
ach uf
ah in
ĠB ayy
att ota
ĠT aas
ĠT AÊ¼
ĠQ awwee
Ġhidh atanii
Ġx urree
Ġij ar
Ġdeem ne
Ġaan aan
Ġrakk isu
Ġibs eera
ĠC aal
eel aa
Ġwayyaanee s
Ġakkas umatti
Ġakkas umaas
ĠBar nootaa
ĠAf f
Wal iigal
em ent
Ġhaal uu
Ġmad oo
ĠTig iree
Ġargaman itti
Ġdhiif ne
Ġman dhee
Ġgaafii lee
Ġcall isee
Ġhaar aatti
Ġhiik amuu
Ġhumn ootni
Ġdammaq ee
Ġdedd eb
Ġoof uu
ĠbabalÊ¼ isuu
Ġxur ii
ĠSiyaa sa
Ġsodaach isaa
ĠáĬ ¥
Dhaabb ileen
Ġarrab soo
Ġakeekk ate
ĠSum aalee
Ġbaruum sa
Ġmit iiree
Hag ayya
Ġjilbeen f
Onkol oolessa
2 8
G urr
M ot
S eera
f annoo
k aas
m een
o ad
Ġ eessatti
Ġd aÊ¼
Ġd il
Ġd eeffachuuf
Ġh ee
Ġj ah
Ġm icc
in iin
in naa
dh af
Ġw e
Ġs ax
Ġkan fal
is iin
ĠOromoo rra
ah oo
ĠB oolee
ĠG aruu
att uun
ĠD UR
uf uu
ĠS ill
Ġamm uma
ĠK ar
ĠK of
on s
on aa
taa y
oom suuf
ars uu
Ġr ukk
ĠABO Ê¼n
Ġqabu tti
Ġsh if
Ġjab aataa
Ġyaad atamuu
Ġsad ar
Ġhaf te
Ġdhag eetti
Ġbarr eessu
Ġbarr eessanii
Ġkabaj uun
Ġdhii sa
Ġhamm aatee
Ġjen n
ĠWal d
Ġlol toonni
Ġmurt eessuu
Ġbaaf ne
Ġmadd u
Ġkol lee
Ġgoon f
Ġeg er
Ġduguug gaa
Ġnaanni cha
ĠMuslim oota
Ġdhabam siif
ĠTor ban
Ġraab s
Ġdah oo
Ġgabroonf ataa
Ġbarbaan ne
:: ::
ĠDamm aq
Dab alee
Ġsass aab
Ġorigin al
A anaa
B ir
P DM
c ar
n nee
aa jii
at ameera
ab ummaan
Ġg eg
Ġg angal
in ne
rr o
ĠO baa
ur t
aaf a
ĠA ra
aas ummaa
ach ew
ĠG on
ĠS ochiin
Ġadd uunyaa
Ġof irratti
ĠT es
Ġdur uu
Ġhar kaan
ĠQ abs
Ġuumm ataan
Ġr es
ĠABO f
ees u
Ġjab aate
Ġfakk aataan
Ġdhal ootaaf
chis a
Ġraaww achuuf
Ġhamm aataa
Ġbilis umma
Ġmiseens oti
Ġdarg ii
Ġbobb aasee
Ġbobb aÊ¼anii
Ġeegal u
OM T
Ġban uu
ĠItiyoophiyaa tti
Ġmiidh aman
Ġajjeef amanii
Ġmootumm an
ĠLamm affaa
pp il
Ġwaliigal aatti
ĠbaayÊ¼ ina
Sabab iin
Ġkeessum attuu
ĠAman tiin
Akeek a
ĠQabsaa Ê¼
Ġqoqq oo
ĠwalÊ¼aan sa
Ġwalb ira
- -
G AR
M u
M ata
T UU
i gaa
aan iyaa
Ġh if
Ġb aaj
Ġhin bar
Ġkeess attu
aas oo
ĠG af
ĠG iddu
ul ee
ĠW aamicha
ĠD uree
ĠD aud
ĠS i
ĠH edd
Ġwar ana
ĠT ufaa
Ġmur aasni
ĠdandaÊ¼ uun
aaÊ¼ a
ĠN ajj
Ġsh eek
Ġbul cha
Ġfakk eessuuf
Ġorom oota
Ġbarbaad uun
ĠWal tajjii
Ġdabars u
ĠAb dur
Ġsaa mm
ĠHar arg
Ġbad u
Ġbaay ee
Ġbuu su
Ġtan aan
Ġdiig u
Ġirree chaa
ĠAfri ca
Ġqof aatti
Ġdhala wwan
Ġgurm uun
Ġhu ccuu
Ġgay uu
ĠAw aash
ĠV ictor
Ġim ala
Ġeg alee
Ġtaph achuu
Ġcin atti
ĠNam oonni
ĠdhagaÊ¼ ame
ĠUm ar
Ġbilb il
Ġnafxany oonni
Ġbaraar uuf
Ġgul antaa
Ġqan anii
Ġqoqq ood
Ġyook iis
Ġkiti la
Ġagg aam
ĠAjj eef
ĠBadd allee
ĠCeh umsaa
H ang
M aatiin
T as
n ol
s ir
aa daa
Ġk uu
Ġk oom
Ġh alee
Ġg eessa
Ġjir eessa
bb an
Ġbar ame
Ġbar annee
Ġl ub
Ġl aayy
ĠM iil
ĠD il
ol om
Ġarg ina
ĠJ im
aay ir
Ġnam icha
Kan aanis
iÊ¼ aa
Ġgah ii
Ġgah anii
Ġaan ichaa
Orom oof
Ġnaann o
maa z
Ġwaa mm
chis u
Ġe le
el laa
Ġbarbaad uuf
Ġbarbaad ne
ĠWal is
Ġerg ame
Ġqor annaa
Ġsaam ee
Ġgargaar an
Ġduul an
Ġhaww an
Ġbobb aÊ¼uu
dur ii
Ġdhaq an
ĠIn cinnii
Ġeegal anii
Ġfayyad amanii
Ġlabs ee
áĭ °
Ġqind oomina
Ġulf aata
Ġbarb ach
iz imii
Ġtattaaf atan
Ġmak maak
Ġdhib een
Ġwalt ajj
Ġgalch u
ĠHum an
Ġmas araa
Mur tii
Ġodeeff annoon
Ġdorg omaa
ĠToo phiyaa
ĠFal mataa
ĠlakkaaÊ¼ aman
ĠSuu daan
ĠShaash amannee
ĠwaaÊ¼ een
ALAT OOMAA
ĠGind ab
2 1
7 6
B aatii
D uÊ¼
G amm
Q ubee
T II
k ut
y u
y is
Ġg eenya
ch iif
Ġw er
Ġdh een
eess aatti
Ġbar anne
Ġl olee
ĠM og
iis h
ĠS eeraa
ot e
Ġho ng
Ġadd eess
ĠK oloneel
im oonaa
ĠT ul
ĠQ ellem
eeff achaa
ĠJ aall
oom e
Ġgudd aatti
Ġgudd achaa
Ġdar ara
Ġhojj atame
Ġhir rii
ess anii
Ġdubb i
ĠdandaÊ¼ uuf
Ġdhal atu
Ġdhal ootatti
Dh ib
Ġdhih eesse
Wal aloo
ĠQab eenya
Ġmud atan
ĠAbb ayyaa
Sab abaa
Ġgoon ee
Ġhaas awaa
Ġdeeggar toota
Ġdubar tootaa
ĠGu yyoo
Ġmaall aqaan
ĠGur m
Ġbilisoom ti
Ġtilm aama
Ġqaqqab e
Ġid ilee
ĠmilkaaÊ¼ uu
Ġgee jj
ĠGodin aalee
Ġdimookr aasii
qun namtii
Garaa gar
Ġhon gee
jek tii
D abb
F aay
a kaa
u tt
aan g
at ootaa
ti fi
umm aatu
ĠA lem
uuf uu
iyy u
Ġgar ba
ĠD and
Ġdhi dh
agg een
ĠJ ibuu
ars i
âĢĿ âĢĿ
Ġdeeb inu
Ġdhaabb ii
Ġdhaabb attan
ĠY us
Ġguu rr
Ġmaal iin
Ġdhag ahaa
Ġdhii t
Ġuum amaan
âĢĻ ,
Ġjalqab uu
Ġkaan e
Ġkanaaf uu
Ġbaaf achuuf
Bar ataan
Ġdhum uu
ĠIs in
Ġfix e
Ġmiidh u
Ġdabr aniif
Ġqind eessuun
Ġgumaach u
Ġfaar su
AM E
Ġkab achiisuu
Ġtaph achaa
Ġkum ootaan
Ġdhangal aÊ¼e
ĠmariÊ¼ achuu
ĠFinc illi
Ġdukk anaa
Ġqood ni
Ġheg eree
ĠArtis toota
Qabsaa Ê¼
Ġjum laa
Habash oonni
ĠsossoÊ¼ u
ĠKur nan
Ġhundum tu
Ġsibii laa
A KK
B aay
O r
S im
T aÊ¼us
f orm
g adaa
k aaf
l es
m aaf
t aaf
Ġh ay
Ġj aha
Ġq ee
Ġq ayee
is ani
iin is
Ġo soon
ĠA af
ĠA KK
Ġy Ã£
eeny atti
ĠM ak
ĠG iin
Ġtokk umma
Ġgu tuu
ame s
Ġarg ata
Ġdur i
ĠQ ur
Ġuumm aanni
Ġhub ach
Ġhub ata
Ġdhal achuu
Ġdhal ootni
ĠbuÊ¼ aalee
ĠC unqur
Ġhaf nee
es haa
Ġturan iin
Ġnaannoo lee
ĠDh imm
ĠP ar
Ġfil atee
Ġdirq ame
Ġdirq amni
Kun iis
ĠAb arraa
Ġkuf aniif
Ġbuqq isaa
Ġbuu saa
Ġbiroo tti
Ġgan tummaa
Qab eenya
Ġroo ba
Ġfac aas
Ġlabs e
Ġlabs an
Ġhang afa
sit u
Ġdhabamsiis uun
Ġdhagah uu
ĠGaaf fiin
Ġbalaaleff achuu
ev el
ĠsochoÊ¼ u
Yaad ni
Ġdhoor k
ĠHoo ggan
hum na
qal bii
Um rii
ĠBe qq
Ġqill eens
ĠWag ii
K amaal
L af
P r
R abbi
Y akka
s um
s eera
Ġk ool
Ġi tiyoo
al an
Ġt aatan
in ik
Ġq aab
eess un
Ġjir tuuf
ni llee
Ġn ann
Ġn yaan
ĠA R
oon e
ĠM aaÊ¼ik
ĠH eera
Ġwar aq
Ġil al
ĠQ ixx
ĠJ E
Ġr aasaa
ate s
Ġso buu
tee tti
Ġfudh atuun
iir u
siis anii
ed i
ĠC all
Ġgagg eesse
Ġhim atu
Ġcim u
Ġcim suuf
Ġfii gaa
Ġjen nuu
ĠWal itti
ĠmulÊ¼ isaa
Ġsabboon ummaan
Ġgabaas an
Ġgabaas etti
ĠGal ataa
Ġbarsiis uun
Ġbaayy ina
ĠHo jj
Ġsaaxil ame
Ġfir oota
Ġukkaam see
Ġbeeksis an
Ġmiid iyaan
ĠOl aanaa
Ġdoor sisuu
Ġtasg abbiin
Ġhol olaa
ĠYaa da
Ġbe bb
Ġhaarom sa
Je chuun
ĠFaran j
Hidh aa
Ġyuuniv arsiitii
ĠHayy u
Ġsablamm oota
pr il
ĠSabb ataa
Ilaal cha
3 5
A jaj
K N
M uumm
O g
b akka
n iif
n eefi
at er
ti r
Ġg annaa
Ġt ek
Ġt ayee
Ġm or
Ġm amiin
Ġq is
Ġq oor
Ġq ax
Ġq eÊ¼
Ġkan aafi
ĠO N
Ġjir tii
aÊ¼ i
Ġqab achuuf
Ġhin c
ĠA addee
amm aq
er aan
Ġof irra
Ġarg amtu
Ġuu ma
tuu l
ĠQ al
agg ee
Ġab uk
ars iti
Ġsab oonni
Ġdhab lee
Ġdubb atama
fa ce
ok ra
Ġqor achuu
ĠbaÊ¼ ii
aaw ii
ĠKan aaf
Ġgadd i
ĠTig ray
Ġmiidh agaa
áī ł
Ġgumaach e
jedh e
Ġdheeraa dhaaf
Ġagarsiis e
Ġhiik uuf
Ġmars ee
Ġkiyy oo
Ġkiyy atti
200 8
Ġmuldh ata
19 9
Ġbel bel
ĠFaran jii
Waaq ayyo
Ġbitti m
ĠSoom aalee
Ġrag aalee
Guu tummaa
ĠQan yii
Ġteess uma
Yuuniv arsiitii
ĠUMM ATA
gah iin
B iyyaa
H OR
T uul
V iew
W W
b al
j ijjiir
Ġ ed
aa rra
ii tuu
Ġb aana
Ġt ees
Ġs ig
ĠO fii
Ġn ational
amm ii
ad dhu
iyy ii
Ġgar ri
Ġar ree
Ġho g
alee tti
ĠF ur
Ġjech i
Ġdab arree
ĠOromiyaa tiif
Ġin uma
ess itoota
Ġhub annu
ĠdandaÊ¼ eera
aaÊ¼ uun
ĠAm har
Ġajj ef
Ġdhaab e
Ġhaf uun
aanii tti
Ġbarr eessuun
Ġfuf iinsaan
Ġjiraat tu
ĠDh ag
ĠDh aamsa
Ġ3 6
Ġbit uuf
Ġbulch aan
Ġgegg eessuu
Ġmal kaa
Ġbad iin
umaan uu
isiis uun
ers iti
Ġgan tuu
Ġhaal oo
Ġdhok atee
áĭ Ń
áĬ ĵ
Hum n
ĠLamm eessaa
Ġbalaal ef
Ġtakk aan
Ġhaq aaf
Ġhaara yaa
Ġhogg anni
Ġfaay daa
Ġolol li
mpay era
Ġgol g
Ġ196 6
iw aat
jjee chaan
ĠOg ad
Ġfaran jii
Ġmilis h
Ġrakka chaa
Ġgooft olii
G oota
\ âĢĻ
e rr
e saa
k anneen
t umaa
ti leen
Ġkan aatiin
Ġqab aan
Ġbar achuuf
Ġl aa
ah un
ĠB oq
ĠG et
ĠD aaww
Ġar iy
uf ii
it iif
ĠS ah
Ġil moon
ol leen
gg ana
Ġgaaf annu
all u
Ġdab ru
Ġqo q
Ġbarbaa daa
Ġmur ee
tee r
Ġhub anna
Ġdhab siisuuf
Ġdeem na
Ġdeem nu
Ġrakk ooleen
Ġbilisummaa tti
Ġdhaab achuun
Ġhaf in
Ġbal dhaa
Ġfil ate
Ġbarbaad nu
Ġjiruu s
Ġwareeg amuu
Ġwareeg amtoota
Ġdhih aatu
Ġgoot u
Ġmurt eesse
ĠduÊ¼ u
Ġerg amaa
Ġabb oom
Ġsaam amaa
Ġxumur ee
Ġjiraach isuuf
Ġdhiy eessuuf
Ġgum aata
Ġkut atee
Ġdag atamu
Ġhiriir ee
Hum noonni
Ġdegg ar
et work
Ġdhaal e
Mur na
Barr eeffama
ĠYuniv ersitii
Ġshorork eessummaa
Ġhinjir re
ĠKabaj aa
Sag aleen
Ad oolessa
Mar iin
zdaan tii
Gur aandhala
ĠHos pit
Ġgaaff ilee
atn oon
ĠRagg aasaa
B it
B if
Q EERROO
S O
d in
f oo
h ii
x axaa
aan u
Ġd ama
ni tti
ĠOrom iyya
ĠA ti
att iis
raa tti
ayyaan tuu
Ġgaaf achuuf
ne w
Ġbeek toonni
Ġdubb istoota
AA D
iti on
Ġbul a
Ġtaan an
ed en
Ġaman siisuu
Ġdhaab atee
Ġdhag aÊ¼uu
Ġhojje te
Ġjalqab anii
Ġqabs ichaa
Ġqub siif
Ġdandeeny eef
Ġfuul lee
Ġfalm u
Ġban anii
Ġtan aaf
ĠGal moo
Ġgalm eesse
os ted
ĠtaaÊ¼ uun
Ġmootumm oonni
Il mi
Ġagarsiis uuf
Ġdug da
Ġkak uu
Ġdhageess if
Ġdhugoom suu
Ġxin noo
Dhaabb ilee
ĠPaar tii
Ġgowwoom suu
Ġha ve
Ġkaar dii
Ġbab all
Ġbashann anaa
Gabr ummaa
Ġqaxxaam ur
ĠTola saa
F ir
U Q
l in
p e
Ã ¢
Ġd ul
am aariyaam
Ġb ak
Ġb ac
Ġg a
Ġg amee
Ġg eer
Ġs aatii
is ummaa
Ġn ub
aaf oo
aaf faa
Ġo bb
aat ullee
Ġbar ootaaf
Ġc een
Ġc ulul
uf f
ĠH ot
Ġgu g
ĠK itaaba
im aan
ĠT BOJ
Ġdhi baa
ĠQ ulqull
Ġbeek ani
Ġbeek tota
amuu dhaan
Ġnam ichi
aw uun
ĠL ubbuu
Ġeeg amaa
Ġlamm ilee
Ġbarr eessuuf
ĠkaÊ¼ umsa
dhaa bb
Ġummat ichaa
Ġkee sa
ig ht
Ġam anne
ĠAb di
Ġbulch uuf
Ġhaww a
Ġdhaq e
Ġad abaa
Gaaf as
eessit ootaa
ĠTPLF n
Ġturee dha
ĠBiyy i
Ġdamm a
Keess um
Ġ199 8
Ġdammaq iinsa
Ġsirr eessuu
chiis uu
ĠGam toom
Dur aan
Ġoll aatti
55 55
ĠAyyaan tuu
.... ....
Ġraaj eff
Ġquun namtii
Ġqaaww a
ĠLib eration
A adde
I yy
M aar
f aasaa
k eessatti
t od
am tootni
Ġh oolaa
Ġa c
Ġa daa
Ġdh ee
Ġdh alaa
Ġn iitii
Ġqab aach
Ġl oo
Ġl aataa
att aaf
ĠD ilbata
ĠH aaj
ĠK aayy
on ii
itti s
ĠT am
Ġdur suu
ĠF ar
nee rra
oom aan
ĠU l
Ġdeeb itee
Ġdubb isuun
ĠL af
Ġjab aat
Ġbul toonni
Ġdhuf tan
Ġtaan a
Ġtaan u
Ġhaf aa
ĠR aash
Dh ukk
Ġee b
Ġgur maa
Ġdan gaa
Ġbilis aa
Ġsaam insa
Ġbaaf atan
Ġhal k
Ġsabboon toota
AN II
Ġgand ummaa
Ġmad eessuu
Ġqabsaaw oota
Ġdabr ees
Ġbor iif
Ġbarsiis an
Ġhang afaa
jedh een
Ġhiriir an
Ġhiriir anii
Ġfinc ilaa
acc ee
Ġtum suu
Ġbabal dh
ĠEr g
gaaf atama
Ġgodaan an
Ġgonf achuuf
Ġbur q
Ġgabaaf ameera
Ġtilmaam uun
Ġfun y
Ġimpaay ara
Ġalag aaf
Ġmiliyoon aan
ĠTaf arii
Itoo phiyaan
Toof taa
ĠId il
ĠMang istuu
IYY A
Ġitoo phiyaa
A S
H edduun
I BB
h am
Ġk aasa
Ġg oob
Ġm uulÊ¼
ch iisaa
Ġq ir
iin sii
Ġhin q
ann aaf
ĠB r
ĠtaÊ¼ un
Ġjedh amaa
ĠM umm
ĠM arg
ĠG or
ĠG and
Ġisaan if
ĠH D
ĠH or
ĠH ord
Ġgo wwaa
Ġkun iis
ĠK il
ĠK all
ĠK aab
ĠT uu
ĠF ayyaa
Ġr abbi
Ġgodh aniin
Ġdubb isee
Ġmar tuu
ĠAm nes
Ġjab aannee
Ġp ar
ak oo
Ġqoph aa
ooti cha
Ġam al
áĪ ¨
Ġkeessan itti
eessit an
Ġguut umatti
Ġmiidh amaa
Ġukk an
Ġqabsaaw an
Ġbor ii
ĠSad aasaa
Ġagarsiis uun
Ġmak amuun
Ġdubar tiin
oollee jjii
ĠIrr aan
ĠsochoÊ¼ uu
Ġsarb amee
iqaa duu
Deeb ii
Ġwalgah iin
ĠOgaa deen
ĠlakkaÊ¼ aman
Ġinv as
Ġcarraaqq ii
ĠBUL AA
B ishaan
G S
W aayeen
n amaa
Ġ @
Ġd udhaa
Ġf oo
Ê¼ ii
oot ee
Ġjir tanii
aal chaa
ĠOromoo dha
Ġo ur
Ġo pd
ĠM edia
ĠG AL
af ii
iis ii
it tu
it tummaa
ph a
if atee
ĠQ alloo
eeff atu
ĠU S
Ġmur aa
ees uun
Ġdhal ataa
Ġhim amu
chis e
Ġkee saa
Ġhamm ayyaa
Ġ19 5
op rotests
Ġqor atee
Ġyaal anii
Ġsaam anii
Ġkeeny arraa
Ġjiraach u
Ġjijjiir amu
Ġwan toota
isiis an
ĠAbb ichuu
Ġwall aalaa
Ġhawaas i
Ġbaan d
Ġgumaach uuf
Ġhang amuu
Ġeegg annoo
Ġgaree lee
diin ni
aph ee
ĠAw ustir
orom o
Ġguyy uma
Ġwarr uma
Ġoof an
Ġob saan
Ġgub atee
Ġjirre tti
Ġadeemsif ame
Je chi
Ġeebbif amaa
Ġaang oon
ĠSheek h
Ġministee r
Ġgos oota
Baq attoonni
ĠOF C
Ġmararf annoo
Ġmaadh ee
Ġmid iyaa
FF AA
Ġlammi wwan
AYY AAN
Ġimpaayer ittii
Ġtartii ba
3 8
I sh
M il
P iree
R ev
j al
t arri
x e
Ġk ootiin
ti k
Ġj il
um saaf
Ġa kaa
aal uun
Ġl aatu
ĠB an
ayy u
ĠS aphaloo
achuu dhaaf
Ġdur sinee
ĠJ aag
adh aan
Ġij aajj
Ġmur too
Ġdhab siisuu
ĠharÊ¼ atti
ĠR ep
Ġlamm affaan
Ġfuf eera
Ġwayyaanee dhaan
Ġdadh abb
Ġhaww u
.. ?
ĠIn ves
Ġdiig uun
Ġhirm aachuun
Ġseer an
Ġman kar
ĠHaw aasni
Ġdhangal aÊ¼ee
Ġhubachiis e
Ġkiyy aan
Ġwagg ota
ĠOromooti f
tokk ummaa
Ġhindand aÊ¼u
Ġkij iba
Jir eenya
Ġfay idaa
Daan dii
TV OMT
ĠKuttaa yee
Ġhintu rre
qeerr oo
H am
J ara
M uu
M ammaak
Q ondaal
s ad
x u
y ahoo
Ġk aaww
Ġh ala
Ġj ila
in aafi
oot t
umm oo
Ġje Ê¼
ĠW M
ĠH ii
Ġgu bee
Ġil m
Ġarg inu
atan itti
Ġdiin arratti
aay a
Ġso kk
Ġgodh eera
Ġsir umaa
ĠL al
Ġfakk ii
Ġfakk ata
Ġfakk eessii
orm aata
Ġlamm ata
Ġqoph eessaa
Ġmil Ê¼
Ġhor iin
Ġhamm atu
ĠWal da
ĠItoo phiyummaa
ĠAdd unyaan
Ġfur maataa
isuuf i
Ġjaal atamaa
Ġfac aasaa
SA T
Ġqind eessuu
Ġyakk oota
Ġqeerr an
Ġhubachuu dhaan
Ġfaar suun
je dha
ĠAn ni
Ġob saa
ĠAs m
Ġcin aatti
Ġ197 0
Ġkaff alaa
Ġqeeq a
Ġv iid
ĠMoh ammad
Ġmeesh aan
Ġfaash istummaa
ĠSud an
ĠKir istaan
Ġfay ad
Ġraad iyoon
Ġsu ph
Ġcit ne
ĠDhii ga
ĠFaax umaa
ĠItyoo phiyaa
A H
G and
K uf
L een
Q al
d s
u e
y an
z ed
â Ĥ
am saa
am tanii
Ġh ik
eess ummaan
oon n
uuf aa
ad aay
iyy aan
ĠM araa
Ġc e
Ġc arra
ĠW and
ĠD aj
Ġisaa tin
Ġwaan joo
aam oo
Ġadd an
ĠK oo
if ama
Ġhar iÊ¼
Ġgal anni
idh aa
ĠJ aaf
Ġol laan
Ġdeeb isa
Ġhir iyyaa
Ġhub adhe
Kan umaan
Ġsh all
Ġmar Ê¼
Ġkenn ama
Ġguu te
Ġeeg uuf
Ġmootummaa tti
Ġsan as
Ġbarr eessaan
ash ii
Ġal buu
ĠSh am
Ġmorm u
Ġmagaalaa wwan
ull een
Ġbiraa ti
Ġhamm aate
re ak
Ġlol u
ib u
ĠWBO f
ug ust
Ġdan taan
Ġgegg ef
Ġjijjiir ee
Ġjirtu tti
Ġad uun
Ġbuu sanii
Ġhooggan toota
Ġdii m
Ġdhangal aas
bul aa
Ġjilb iif
Ġbaqatt ootaa
Ġmat ad
Ġz oonii
Baar entuu
Gabaab umatti
Ġqoof a
ĠJibuu tii
âĤ ¬
I t
P re
Q aamni
T OKK
c l
i e
ii z
Ġk umaa
Ġk uusaa
ar i
at or
ab iin
Ġj aÊ¼a
dh imma
Ġq ulq
aal ota
Ġqab anne
ĠA tilee
ann uuf
ĠB in
ĠD arraa
ĠD aran
ĠH ad
Ġgu duun
aam e
Ġof is
ame d
eeff amuun
Ġdab raa
aay oo
Ġr ep
enn u
Ġsir ee
Ġbah uudhaan
Ġbakka yyuu
Ġkenn in
Ġkenn eef
Ġkenn amuuf
Ġhaf anii
Ġijaar amuun
Ġe mpaayera
aab aan
Ġam oo
Ġnag ahaa
Ġkanatti s
Ġwaam u
Ġxiqq oon
Ġball eess
th erland
Ġdeegg aruu
Ġhordof ee
Ġhordof toota
ĠBul too
ĠHabash ootni
Ġpoolis oonni
Ġdalag uu
Ġsabab aan
Ġkak aase
Ġhaara waan
Ġfar daa
ĠEr tiraa
âĢ¦âĢ¦âĢ¦âĢ¦âĢ¦âĢ¦âĢ¦âĢ¦ âĢ¦âĢ¦âĢ¦âĢ¦âĢ¦âĢ¦âĢ¦âĢ¦
Lamm iin
Ġir k
Ġhamb isuu
Dhal oonni
Ġroorr isaa
Je ch
Ġkaa ba
Ġdhagees isuun
Ġcicc ir
Aman tiin
Dhii ga
ĠGond ar
ĠGin b
ĠGoob anaa
Dabalataan is
face book
4 6
B ifa
I C
I s
N ews
Y YAA
e ti
o ut
Ġk aate
Ġd aar
Ġh aph
Ġg atiin
iin s
ĠA ss
Ġbar uuf
Ġbar uma
aar an
ĠG inc
ĠW AA
ĠD oolloo
ĠS olom
Ġtur eefi
ĠH im
Ġbiyy arraa
Ġil aamee
Ġof iis
ĠF iqaaduu
ubb ii
ool eessa
arr iffaa
Ġhaa w
Ġhub atama
Ġdubb atuu
ba ss
Ġdhaabb atuun
Ġbah ani
Ġdhuf eef
Ġdhal atte
Ġaman amaa
Ġhaf aniif
Ġhim amaa
Ġbo kkaa
Ġqoph eessee
Ġummat icha
Ġas h
Ġbaq ate
Ġtahe tti
Ġqor atanii
Ġkuf uu
Ġhaww inu
Ġbaaf ame
Ġfalm achuuf
Ġbobb aÊ¼ee
eey sa
Ġbuu tee
Ġfag eenya
Ġgand aan
Ġdiig ee
Ġlabs uu
Ġqind eessaa
Ġhanq atee
Ġsaaxil aman
Ġgay an
AT I
Ġkak aasuu
Amm allee
ĠHay iluu
Ġdhangal aÊ¼aa
Ġfeder al
Ġhubachiis an
Ġdhagay ame
Ġgodin ichaa
ĠRoo bee
ĠDii maan
ho jj
ĠWaaqayy oon
Ġmangudd oo
Eeny ummaa
Ġdemokr aasii
ĠNafxan yaa
ĠImpaay er
Ġhubat ameera
Ġhundaaw e
Ġteek nool
Ġmumm ee
oromia po
ĠBeen ishaangul
ĠNajj oo
4 5
D ach
G ootummaan
I f
Q ar
X alayaa
e yyii
g umaa
q aaq
r atti
r ati
s eenaa
t aatti
t he
ee tiin
aan aan
at ummaa
Ġb inee
Ġg at
Ê¼ uma
Ġw ill
Ġa w
Ġs aani
is tan
is utti
Ġn aas
aat tiin
amm uun
ĠG QM
ĠD eegg
ĠK al
ĠK aar
Ġarg attu
Ġdur saa
Ġisaanii rraa
ĠQ onnaa
Ġyaa dee
eeff ata
Ġgal tuu
Ġbir rii
aay i
Ġx iq
Ġx uq
Ġhedd un
Ġhan gaa
ĠY oom
Ġkenn amaa
oor m
isuu dhaan
Ġjedhan is
Ġee bbaa
Ġdhih eessa
Ġfedh aa
âĢľ âĢľ
Ġdadhab anii
Ġhaww aa
Ġfalm atu
Ġbobb aÊ¼
Ġjijjiir amuu
Ġkam i
ĠX al
Ġfag aachuu
Ġgan am
Ġdiig gaa
Ġgalm ees
Ġbarsiis u
Ġcabs e
ĠtaaÊ¼ e
Ġbil iyoona
AAN N
Ġsaaxil uun
Ġwarraaq si
Ġqulqull ina
Ġsoss oh
Ġras aasaa
Ġdhuk aasaa
Ġor mi
Ġdanday ama
Ġwallaal ummaa
Ġsii daan
xee m
ĠDaan iyaa
Ġbadh aaf
ev iz
Go chaa
Ġbitti n
maal iif
Aman tii
ĠHoggan oota
Ġkey satti
Ġfo yy
Ġdandeess isu
Ġafan faa
Ġgib ira
Ġaff eer
ap olis
ĠMiÊ¼ eessoo
Ġriq icha
Ġhinfakk aatu
evel op
A K
C h
H ii
H aga
Y oon
m aqaa
t am
w anii
x xoo
Ġ â
Ġ ann
Ġk iiloo
Ġj im
Ġm and
ch oo
Ġw aayy
een naa
ĠOrom ummaaf
ĠA daa
Ġy aanni
ĠB achoo
ĠtaÊ¼ ani
att ummaa
ĠS ource
Ġwar shaa
Ġarg atin
ĠF iil
Ġgaaf anne
Ġmalee tti
Ġab idda
Ġgudd ittii
Ġseen aatu
udh af
Ġhojj enne
Ġgab atee
Ġdhaabb iilee
ĠY emen
eerr atti
Ġhim aan
Ġhim ata
Ġdarb uuf
Ġmis een
Ġkanaa ti
ĠAr b
ĠAb aba
Ġqub een
Ġdhiis nee
ĠbaÊ¼ a
Ġmal aan
ĠQBO n
Ġbobb aase
Bar oota
Ġwan tin
Ġball eessu
Ġkut annoon
Ġcuf uun
Ġlabs uun
ook r
áĭ ¨
Ġsar ara
Amm aan
Ġduree wwan
Ġbalaaleff achuun
ĠGar bummaa
Ġhadh aaw
Ġbilisoom suu
Ġgool ii
Ġfashal suuf
Ġoll oota
Ġfee te
Ġfee tan
iyyee wwan
Ġgooti chi
Ġsukk an
ĠHaay il
ĠDimook iraasii
ĠEj er
Ġmudh ii
ĠFIN FINNEE
Gurr aandhala
Ġdheen ga
B y
B ur
B alaan
G aash
M aq
M aatii
f ir
i da
t ur
y saa
Ġ áĮ
aa tin
Ġd iyaasp
ti rraa
Ġg it
Ġt eenye
Ġt alii
dh een
een is
ur ce
aal u
dd ii
anii tti
Ġo tuma
aat uma
Ġwal faan
Ġl aachuun
mm ii
ĠB BC
eef achuu
ĠM AAL
Ġc ubb
ĠG aree
Ġtokk umaa
ĠD aadhii
Ġbiyy uma
Ġdab oo
ay ii
Ġmir kana
Ġij oon
Ġdhab amu
Ġwaliin ii
ĠN ug
ĠL ix
Ġfakk aachuu
ĠE lem
ajj ab
isuu dha
ĠR ights
Ġsoch aÊ¼uu
ĠSh G
Ġ3 3
Ġool chuun
Ġdhih eessuuf
ĠmulÊ¼ isan
eff ame
Ġam na
Ġfur maanni
Ġbilis om
Ġdhaam a
Ġmirkan eessan
ĠQBO f
Ġhundaa ti
ahaa mmad
Ġshakk u
Ġjibb an
Ġhang ana
Ġmaxxan saa
Ġsabab eeffachuun
AB A
Ġdubar toonni
Ġmu kaa
Ġdirree tti
wal iin
Ġkaroor fame
Ġmuldh atu
ver n
zidaan t
Ġgabaa bb
ĠAmer ik
Ġkamiin u
ĠNaq amte
ĠBeek an
Ġbasaas ota
Min isti
Miseens ota
Ġdoorsis a
Ġquuq ama
ilaan iin
Ġidd oon
Ġjaalatam oo
ĠTasf ahuun
Ġloog ii
ĠOnkolol eessa
ĠKaroo ra
ĠAwroo ppaa
ĠVictor ia
Ġbebb eek
HOR AA
7 0
8 6
G ALATOOMAA
I M
J ab
M ulÊ¼
N agaa
O bbol
T HBO
k abaj
o u
r op
s ummaa
v arsiitii
Ä °
Ġd aak
am eefi
Ġh uu
Ġi maanaa
Ġf ann
Ġm amm
Ġq aar
is een
Ġn adh
Ġn arra
Ġn ammi
Ġo ne
ĠA j
Ġkeess ani
il oo
Ġl amuu
Ġl ak
ĠB en
jj aa
Ġc affee
ĠW aaÊ¼ee
ĠD abal
if tuu
Ġdand eenne
Ġtah aniif
ĠF aanaa
ubb aa
Ġgaaf achiisu
Ġgal eessaa
ĠJ ib
amuu dha
Ġhir r
ĠC a
Ġsad iin
Ġsad aasa
Ġajj eessaa
Ġdhag aÊ¼aa
Ġfuf siisuuf
ĠSh if
Ġhojje tee
Ġfil atu
ax xan
Ġeeny ullee
Wal daa
ĠOPDO tti
Ġwaam ichaa
Ġta e
Ġdadhab nee
Ġxumur e
Ġbobb aÊ¼uun
Ġbuu san
Har ka
aff een
Ġtol chuu
Ġaangoo rra
Ġtaasif nu
Ġjibb u
Ġhanq ate
tar oota
ĠqabsaaÊ¼ u
ĠqabsaaÊ¼ uu
Ġtarkaanf achuu
Ġbas aasaa
Ġobbol eessi
Ġmidh aa
Ã© e
Ã© ss
Ġofiif uu
Ġwaar oo
Ġ197 3
Ġ197 6
Ġkoph aatti
Yaad annoo
ĠSo uth
Ġst ate
Ġfokk isaa
Ġcomm ent
OOT UMMAA
Ġgubb aatti
ĠMaandeel laa
Duu ba
ĠKEEN YA
ĠKarra yyuu
ĠSEEN AA
new s
G ootummaa
H arra
H anq
K olon
M aall
M aangudd
T U
q ixx
v en
Ġh eerri
Ġj aÊ¼an
ch un
Ê¼ oo
Ġs aaf
om sa
ĠOrom Ã¸
Ġje ttuu
ĠB aallii
Ġc uun
ul aan
Ġar Ê¼
Ġitti s
lee wwan
ĠI ty
Ġgo gg
ub s
ĠT PDM
ĠQ um
Ġgaaf asii
Ġdha dhaa
Ġbeek tuu
amuu tti
ĠOromiyaa s
Ġhidh an
Ġhojj anne
Ġin nii
ĠdandaÊ¼ anii
us e
Ġkenn een
Ġrakk inni
oor k
Ġijaar si
ĠkaÊ¼ eef
Ġtahuu dhaan
Ġam annee
ĠduÊ¼ anii
Ġnag eenyi
Ġbit toota
Ġyaal amaa
Ġ4 6
Ġta u
ĠAl maaz
Ġball eessuun
Ġgadd aan
Ġdhum e
Ġbarn oot
Ġbarn ootaaf
Ġroo baa
Ġdeegg araa
Ġcabs u
Ġboon su
Ġleen ca
Ġsod aatu
ĠHabash a
Ġsaaxil e
Ġdhibb ootaan
Ġbeel li
ĠHay ile
Ġdhageess isan
Ġhubachiis ee
Ġlaal u
ĠAkka sumas
Ġdegger toota
ĠEr ga
Ġdham aÊ¼aa
gaÊ¼ ii
Ġergam toonni
Ġqeeq uu
Ġdabalee s
Ã¼ n
Ġbakkee wwan
ĠJaar mayaa
Ġbeey l
Ġshir aan
ĠJe chuun
ĠUs maan
Ġbuun e
Jal qaba
ĠNe therland
ĠTsah aayyee
Ġsuukan eessaa
erman y
ĠBiq ilaa
Ġherr eg
ĠAsa ffaa
ĠAann olee
3 3
D and
E jj
G arg
G ootichi
I RR
U K
W arrii
p ol
q oph
s ochii
ee saa
at uufi
Ġb ana
al tal
Ġf uuf
Ġw ax
Ġa gaazii
ur g
Ġn iin
aÊ¼ amu
Ġqab amuu
Ġy eer
oon nis
Ġl oonii
Ġjedh aniif
ĠM IR
Ġgar aatiin
ĠG iddaa
Ġitti suun
it ootaa
ĠI J
ĠH ool
ĠK ot
ĠK FO
aman iin
Ġhund aaÊ¼ee
ĠT aammanaa
Ġdur su
Ġyoo kan
ĠOromiyaa tiin
Ġgudd isuun
Ġdar aruu
ĠU umaa
Ġdeeb in
Ġhir iy
Ġwaliin is
ĠdandaÊ¼ ameera
add ii
oof tu
ĠC ar
Ġajj eessuu
es uu
aasaa dd
Ġturan itti
Ġ3 9
Ġcim sanii
ull e
ĠduÊ¼ aaf
Ġkaan s
Ġmirkan eessee
Ġwaam ee
áĪ ĺ
Ġtol ch
Ġcarraa qaa
Ġjett een
atam eef
Ġsaax ilee
Ġdabar tee
Ġ9 0
sif amaa
Ġbay uu
AT T
Ġon neen
Ġsabab ii
Ġ199 0
Ġtuq aa
eb site
Ġtasg abbaa
Ġqondaal onni
Ġbeey ne
Goot ota
iv iliz
ĠIt opiyaa
Ġsaan iif
ĠJaarm ay
Ġbashann an
Leenc oo
Ġdun goo
ĠAF AAN
ov ember
Ġsakk att
ĠAbdull aah
Ġwixx if
ĠBeqq elee
ĠQixx eessaa
vern ment
8 0
B o
D aaÊ¼
I maamm
K eessaa
U S
b iyaa
b or
h amm
o rra
Ġj ii
Ġt eenna
Ġm oonaa
in f
Ġw a
Ġdh ama
ĠO laan
ĠA him
aar u
ĠD od
Ġtokko f
Ġab sh
Ġseen sa
ĠU ni
ĠABO tiin
Ġgodh achuu
Ġdubb anne
Ġdubb isu
Ġsir ri
aaÊ¼ oo
Ġmar ga
Ġdhaabb annu
Ġbah eef
Ġlaf aan
Ġaan an
Ġeeg an
Ġsad iif
Ġdhaab oota
Ġhim uuf
Ġmii dha
ĠkaÊ¼ a
Dh ih
Kanaaf u
Ġaddaa tin
Ġdirq iin
Ġhor ate
Ġjalqab amee
ĠduÊ¼ uun
Ġmirkan eessaa
Ġdadhab siisuu
ĠMin nes
Ġhii kaa
Ġdiig amu
Ġgadd isiisa
Ġgam toom
kf urt
ĠBiyy oo
Ġeegg achuun
Ġajaj ni
Ġdhaad annoon
Ġqajeel e
Ġkonkol aat
Ġkall atti
ĠOr tod
oc ra
Ġbood arra
Ġpol isii
ĠRoo rroo
Ġduguug insa
Ġbarbaadd an
Ġreeff i
Nu tis
ĠSii daa
Ġkudh anii
Ġwarsh aalee
Ġbaldh inaan
ĠKenn ame
Ġbarab araan
ĠAaf rikaa
F kn
N afxan
Y akki
d iyaa
g y
h aala
t ootaaf
Ġ //
Ġ eessaan
uu gaa
am tii
ab aan
in s
Ġdh orkaa
Ġs iir
aÊ¼ inaa
ann eerra
ĠG iz
Ġwar aqaan
Ġadd ummaa
ga yii
Ġdur is
ĠQ otee
Ġhojj ata
Kan aa
Ġjab eessa
Ġfakk atu
Ġyaad ata
Ġyaad amu
ĠR ad
Ġwaa qaa
Ġfil achuun
Ġaa ra
ish oo
Ġfalm atan
Ġfalm achaa
Ġjijjiir amee
Ġfag aatee
Ġxiqq eessuuf
Ġfayyad u
Ġfayyad ama
Ġishee tti
Ġguut amee
ĠWall aa
Ġqabsaaw uu
Ġwayy an
Ġakkan aan
ĠtaaÊ¼ aan
Ġbarreeff amaa
Ġyakk amanii
ĠMinilik i
Ġpaar tiin
ĠOROMOO TA
ĠOl iiqaa
Ġor ma
Ġdhiph ina
ĠHin dii
ĠGur muu
Ġduraan uu
Ġwalq un
ĠHund aaf
Ġgaraagar aatti
Ġgaraagar ummaan
Ġeer ga
Ġhiraar famaa
Ġat ilee
Ġsumm iin
ĠáĬ ¨
Sag antaan
Dir qama
ĠKun oo
Ġwaal t
Ġree baa
Ġempay era
ĠDin agdee
ĠHa ile
Ilaal chi
Ġsabb on
ĠInj inar
Ġheddum inaan
Ġwalal oon
ĠJar man
ĠToron too
Ġbarc uma
A laa
n en
Ġk it
Ġk ash
at oon
Ġj aala
ch aatti
Ġdh as
Ġs eÊ¼
ĠO LF
ĠB urr
Ġjedh etti
ĠM aaster
Ġgar buu
ĠG egg
ĠW an
ĠS eenaan
en ter
if na
Ġarg amuuf
ĠF ay
ĠQ ub
Ġbeek tan
oom anii
Ġgudd ataa
Ġnam tichi
adh an
iy am
Ġni m
Ġfudh attee
Ġfakk eessuun
Ġdhuf een
Ġkenn aniif
fin aa
ru gg
Ġajj echaa
Ġhedduu mm
Ġgagg eessanii
Ġdhaab atanii
ĠtaÊ¼u tti
Ġe daa
ash ee
ĠP h
ĠAfaan ii
Ġdhih aachuu
Ġqoo duun
Ġtahuu s
Ġduu bbee
Ġalaa baan
Ġag arra
Ġbif aa
Ġdhaam suu
Ġwaam uun
Ġmal iif
Ġmiseens ot
Waan uma
amsiis u
Ġbarbaach isuu
Ġtol chee
iyoon aa
ĠYuuniv ersiitii
Ġbor uuf
Nam ooti
ĠBiyy attii
áī ¥
Ġmurteeff atan
Ġukkaam suun
AL EE
Ġtoof taalee
mb er
Ġmak aman
Ġdhangal aasaa
Hund uu
Ġdhaabaa tti
Ġwalqab annee
ĠLeenc oon
Ġmij ataa
Mag aalaan
ĠHag ayyaa
Ġqabsiis anii
Ġgaazex aa
Ġhundeeff ame
Ġwald aalee
Ġmudd ama
Ġgee j
ci al
ĠBaan kii
Haww ii
uslii maa
ĠAff aar
ĠAwustir aaliyaa
L olli
a ve
e j
m aatti
m ootummaa
r ess
t en
t ol
x a
x aan
x ata
y atti
ee yy
an dh
Ġd aaw
Ġd inni
Ġh is
Ġb aala
Ġm ork
Ġm so
in an
in aatti
eess ani
dd o
ĠA ga
ĠA maan
ĠA pp
oon aan
Ġl agaa
eef ama
ĠM ata
Ġc ite
ĠG aan
ayy ee
iis uun
ĠI mpay
Ġwar a
Ġarg ataa
Ġhar iiroon
ĠF ran
eeff annee
eeff amni
ĠJ ahan
Ġkeessaa ti
ĠU ff
Ġsh ak
Ġra k
Ġboo ree
Ġdhuf tu
Ġjal Ê¼
Ġjal att
Ġyaad achuuf
Ġibs ina
ĠC aayaa
Ġaman amummaa
ĠR iy
Ġbarbaad na
Ġjechuu tu
Ġool aa
Ġool uun
Ġkee ti
Ġkee yy
ish ee
ib eration
Ġkam iifuu
to ber
Ġham ileen
Ġhal gaa
Ġan atu
Ġakkan uma
áĬ Ĳ
Ġgumaach uun
ĠBul aa
Ġdalag amaa
Ġbay an
ĠJir an
allatt oo
Ġtarkaanf achuun
Am eer
Hir iirri
ĠIj oollee
Ġtajaajil uu
ĠLammii lee
ĠMul aatuu
Ġkur nan
ĠhundaaÊ¼ uun
Ġgee gg
Ġgartuu lee
Ġsablamm ii
ĠAan olee
Od oo
Ġfuu dhaa
Ġyar oon
Ġqaaww aa
Ġdheereff achuuf
ĠEb ila
Ġfedheen uu
ĠGindab arat
ĠJaaf ar
reak ing
A t
F ak
L O
O fii
Q aam
g um
g oota
g ani
n aaf
s aas
z aa
â Ħ
Ġd eg
am al
Ê¼ tti
aas iif
il maan
amm oon
ad e
ĠG umaa
ĠG abb
as iin
ĠD oo
Ġgu rraa
Ġho bb
Ġgo saan
Ġbiyy aalessaa
ĠK ollee
ĠF ront
Ġgal te
akka sumas
Ġdiin aatiin
aw aatti
Ġjab b
Ġgah utti
Ġbul uun
Ġmag ar
Ġilaal uuf
Ġdhaab atan
Ġdhag aan
Ġjiraat us
od uu
ĠP er
ĠP ire
ĠSh aam
Ġhojje toota
Ġdhih aatee
Ġish eef
Ġgoot ee
amne tti
ik ii
Ġbilis umaa
Ġgegg eessu
Ġaf oo
ĠAd unyaa
Ġgamm achiisaa
ic al
ĠAbb ootiin
Ġcabs an
áī ħ
Ġjibb ee
Ġjaarmay oonni
Ġkab ach
Ġgurgudd oon
Ġwaraan aatti
oc i
ĠbabalÊ¼ achaa
Ġtokkoom suu
Ġbin eensaa
Ġjijjir amaa
Ġir atti
ĠHidh aman
Ġcab e
ĠKon kol
Dhug uma
Ġhint ahin
ĠBaar oon
oq or
Miseens onni
Dargagg oon
AG GAR
Ġfuldur atti
Ġwayii tuu
________________ ________________
Ġcaq as
Ġdandeett iin
Ġsax il
ĠMarg oo
âĤ¬ âĦ
âĤ¬âĦ ¢
5 0
8 7
B S
C O
K eessa
S WO
d er
f e
i aa
k o
m ag
oo dha
at aas
am neen
am ullee
Ġh ama
Ġh iddaan
Ġb aatuu
Ġf afa
Ġt aab
in is
Ġw ho
Ġq om
Ġkan umaan
Ġfi dd
ĠOrom edia
Ġqab amu
Ġwal m
att een
ĠD ee
ĠD aaÊ¼
ĠH assan
Ġamm ata
Ġnu tt
ĠT ull
Ġgal cha
Ġdha dh
ay i
Ġr eg
eeg ama
Ġsab ootni
Ġsab aafi
Ġso q
Ġhojj enna
oof tee
te mber
ĠE el
ĠE thi
Ġhaf tee
âĢ¦âĢ¦ ..
Ġafaan ota
Ġcim tuu
ĠBar attootaa
Ġjaar sa
sh an
Ġqor atu
Ġkuf tee
Ġsaam an
Ġdadhab u
Ġbaaf ate
Ġad oo
Ġham il
AN A
Ġfac aÊ¼ee
Ġdhok suuf
Ġfix uuf
Ġajjeef amu
Ġhawaas ti
ill ii
Ġjibb uu
Ġach irraa
Ġulf aataan
Ġfiniin su
Ġsaaxil amee
Ġtatt af
Ġreeb ichi
laan d
Ġbeekk ama
Ġtuq uun
ĠAddunyaa tti
Ġseeraa tti
Ġhubachiis eera
Ġlab saa
Ġbaatii lee
ĠBilis ummaaf
Ġdandah an
ĠMur t
IL IK
lamm ii
oll ow
ĠMacc a
Ġsarb ame
Ġkuff isuu
ep tember
Ġkur na
ĠAmm as
Akeek i
áį į
Ġheer aan
Ġaad aafi
ĠDhug aasaa
Baar oon
ĠTasfaa yee
oolle jjii
Ġkabachiif achuuf
ĠPl aanii
ĠUkk aam
ĠIsraaÊ¼ el
WU I
Bif uma
altal k
! ,
A rra
D AA
J aarraan
c tober
l er
l aama
x il
x ummii
Ġf aÊ¼a
Ġm um
in iif
Ê¼ uun
dh oo
Ġw ag
Ġw onti
Ġs ummaa
om ii
is un
un a
Ġo daa
ĠA deem
Ġl aatan
amm an
ĠG aamb
ĠD aal
ĠD oolaara
Ġtur tan
Ġadd eessee
Ġof irr
ĠK a
im e
ĠF or
Ġyaa Ê¼ee
Ġgal aanaa
Ġbir aaf
Ġol iin
Ġmoot um
ĠâĢľ -
ĠL afee
oof taa
Ġfakk eessee
Ġyaad achiisuun
Ġguu ree
ĠharÊ¼ aaf
Ġaman taan
si on
aww aa
ĠR iyaad
Ġfuf na
Ġijaar saa
Ġe gg
Ġqaban is
Dh aam
egg er
Ġqoo ph
ĠAdd isuu
Ġkuf aatiin
Ġsochii lee
Ġmirkan eessanii
Ġhaww amu
áĪ ĭ
Ġjijjiir ame
Ġ200 2
Ġthe ir
ĠOromummaa rratti
isiis anii
Ġdiig anii
Haa dha
ĠIl ma
Ġfac e
Ġyoom illee
ĠZ en
Ġmootumm aatiin
Ġdalag u
ĠJir uu
ĠJir aat
pp ii
Ġsar een
Ġdhagah u
ob i
Ġbalaaleff atan
Ġyaadd oon
Ġdi ppil
Ġdanday e
Ġguur amaa
tokk ee
Ġijaarr achuu
ooyy ee
ĠWayyaan e
ĠUmmat aaf
ĠTuul ama
Ġwo jjiin
ĠMacc aafi
Ġmeesh a
Haw aasi
Ġramad ame
ĠMuslim aa
ĠIlaal cha
Ġxixiqq aa
aakk of
ĠlakkaaÊ¼ amu
Ġadee ma
Kabaj aa
ĠolÊ¼aan tummaa
Ġayy aanaa
Ġhaam ilee
Itiyoo phiyaa
Ġqond aala
ĠKaf ichoo
Ġfund ur
ĠEebb isaa
! ?
5 6
9 9
B A
R E
c es
h anga
u dii
Ġd ool
ar atti
ar aalaa
am tan
Ġg ees
Ġg itu
ir ree
Ġf e
Ġf aÊ¼aa
Ġt aatanii
Ġw ww
Ġw ell
ĠO moo
yy is
Ġjir atan
Ġjir aann
ĠA keek
aas haa
ah anii
ĠG ADAA
lee t
ĠS ul
achuu dha
ĠQ EERROO
Ġdha dd
ool ess
Ġgudd isaa
Ġuumm aata
Ġdar ba
ĠU lee
ees ina
Ġdhab uudha
ĠY KN
Ġbah ii
Ġjab duu
Ġgah eera
Ġkenn inu
Ġyaad achiifna
arraa qaa
Ġijaar amaa
chis uun
Ġjiraat toota
Ġmoo faa
ĠDh iig
Ġjalqab ne
ĠmulÊ¼ atuu
ĠAb ra
Ġdhaam na
Ġdaan d
ĠAd aree
Ġdhaq u
Ġdhaq uun
Ġbuqq aÊ¼ee
ĠX umur
Ġgamm achiisu
Ġajjees uuf
ĠGal aasaa
Ġbarreeff amee
olee raa
eny i
AAN AA
Ġmin daa
sit oota
ĠBir aanuu
Ġhag ana
ĠkaaÊ¼ e
Ġkaf alaa
Ġgalaaf ate
ĠBaqq alaan
Je cha
Ġgeggeess ame
ĠJaw ar
Ġwaaq eff
Fil annoon
Dir ree
ĠSH G
Ġceh umsaa
usti rii
Ġartis toota
Ġlaall u
ĠGeet aachoo
Ġmalaa mm
ajaaj ila
ĠWaash ing
Ġlaayy ootti
Ġitiyoo phiyaa
evelop ment
8 8
E n
Q C
U MN
d ummaa
t si
Ġ ama
Ġ ver
Ġ ==============
Ġk aach
Ġd aa
Ġh aaf
Ġi mp
Ġb iy
Ġt ulluu
Ġm eshaa
ss in
Ġs um
umm aasaa
Ġis laamaa
Ġkeess ummaa
ĠB aa
ĠB uu
Ġc irr
att ani
ĠK ab
Ġdur aatiif
Ġisaanii tuu
Ġgaaf an
ne apolis
Ġbeek aan
Ġbeek sisaa
Ġyeroo dhaaf
Ġbir oof
Ġab di
tt aan
uÊ¼ eel
Ġdubb atamaa
iÊ¼ ii
Ġhan kaak
ĠAm antaa
Ġbul tu
Ġyaad atamaa
Ġrakk ataa
qq oo
Ġhaf naan
Ġdhag eey
Ġfil atanii
ĠWal lee
ĠAr aaraa
ik e
Ġerg e
Ġdadh abs
Ġfur maati
Ġxumur amu
Ġjiraach isuu
Ġfalm achuun
ĠIn tarnee
Bar att
Ġad araa
Ġxiqq aan
Ġijool l
IN ILIK
Ġgalm eessee
Ġguut ummatti
Ġmud ataa
Ġcuf amee
Ġdag achuun
Ġmiidh uu
aÊ¼u dii
ĠBiyy aalessaa
Ġqind eessee
iil lee
Maal tu
Ġxiyyeeff atu
Ġxiyyeeff achuun
Ġjajjab eessaa
Ġtas umaa
Ġjirtan itti
Ġgalch anii
ĠHum noota
ĠOr oom
Ġafur tama
Ġlag achuun
Ġhiraar suu
19 6
ĠGam taan
Ġijj annoo
ĠdaaÊ¼ im
Ġ196 0
ĠKabaj ame
Dargagg oo
Ġmangudd oota
ĠFal m
ANN I
Eeny u
Ġgoof taa
Ġakeekk atee
Wall agga
Ġsuuk ann
Ġkann en
Ġedd u
IY YAA
ĠMaandeel laan
Ġuniv ersity
ĠKibb aatti
ĠIyaa suu
ĠZeen aawii
UQ Q
ĠAhim ad
3 2
A k
D im
H ay
M iidhaa
e rri
h ol
l oo
l aaf
o chuu
q i
y s
z ation
Ġd ik
Ġh urr
Ġh ulluu
Ġb eenyaa
um aatti
Ġw aÊ¼ee
Ġq aal
Ġq oma
is if
dd iin
Ġn arratti
Ġqab uudha
ĠA z
ĠA jjeechaa
ĠA angoo
aat te
Ġbar annu
oon iin
Ġl u
Ġl aphee
ĠB antii
ĠG uraa
ĠD ag
iis ee
ĠS aayinsii
Ġho ra
Ġwar qee
ĠK oom
ĠK os
aman itti
Ġarg atte
tuu lummaa
ĠQ ajeel
Ġgaaf annee
oom u
Ġgodh aniiru
Ġhedd utti
aann isa
Ġsh ubb
ĠL iyyuu
oof te
Ġfakk eessuu
Ġilaal ama
Ġorom ooti
Ġeeg allee
Ġsan aatti
ĠkaÊ¼ uudhaan
Ġmis eensaa
Ġdhii baa
Ġtaasis aniin
re k
Ġfedh anitti
Ġmurt eessee
Ġdabars ine
Ġfur tuu
Ġnyaa chuuf
Ġabb oolii
Wal gahiin
eessuuf i
Ġgegg eef
ĠYuu nib
Ġgaafa dha
Ġball eesse
Ġbarn otaa
Ġmud ateen
Ġmilk eessuu
Ġbarreeff ata
Maal i
Ġtakk allee
Ġtarkaanf ilee
ĠDir qama
Ġejj e
Ġhaq amuu
Ġbalaaleff anna
Ġobbol ummaa
nam tiin
Ġdi aspora
Ġkadh achuu
Ġdanday a
Ġwallaal uu
Ġguur amanii
Ġcich anii
,, ,
ĠtoÊ¼ annoo
Ġabaar uu
Ġsodaach isu
ĠUm urii
iroo bii
ĠJun eey
Daan diin
Ġur jii
Ġsaff isaan
Ġgaragar aatti
ĠUs m
ĠHu ss
Ġdipl omaasii
Ġxala yaan
Siyaa sa
ĠTeed iroos
ĠDheer essaa
iyee mii
ĠBayy anaa
ĠGiin cii
4 9
? ,
A angoo
B al
I ddoo
K AN
M aaf
Y kn
b arsiitii
h ttps
l aall
t araa
Ä ±
Ġb ii
Ġg umaan
Ġf ed
ch iisa
Ġw aay
Ġs aayin
om s
Ġo lee
ĠA raa
Ġje Ê¼ee
aat awa
Ġwal c
ra kk
ĠB IYYA
ĠM ahaammad
ĠG ub
Ġjiru tu
ĠD ibaa
ĠS in
ot aatti
Ġgu gudd
Ġof itt
eek taara
Ġhar raa
Ġtah ullee
amuu s
Ġhidh aatii
arr u
Ġakk i
Ġmur aasaa
Ġfudh atani
ĠE gaa
Ġyaad ach
Ġyaad atu
Ġyaad achiis
Ġijaar amte
ak ar
Ġ3 8
Ġcim ina
Ġcim su
Ġummat aatti
Ġee y
Ġdirq isiif
Ġkee tiin
Ġhoo da
Ġqabs o
li kk
Ġbaq achuu
Ġdabal amee
Ġnyaa tanii
Ġsaam ame
Ġfalm iin
em b
ĠX alayaa
Ġijool lummaa
th er
Ġdabr uun
Ġtuf fiin
Ġmagaal atti
áī £
omm iin
Ġtor baa
Ã£ f
ĠqabsaaÊ¼ an
AL L
Ġtattaaf fiin
Ġgay u
ĠIto phiyaan
Ġdhib e
eb ru
ĠBoor an
Ġkom ee
Ġ! âĢĿ
Ġdhiph uu
ĠOb seen
Ġkaaf ne
chiis u
Ġwalq ix
Ġdagaa gaa
ec t
Ġgeess isaa
Ġmiil la
Ġmuumm iyyeewwan
ĠFuf a
ĠPaar laamaa
Beek an
Ġqabn uun
ĠSH AGGAR
Ġsany ummaa
Ġtay e
Ġhudh ee
Ġgatee ttii
Itiyoo phiyaan
ĠDirri baa
Ġdagg ala
Ġwarraq saa
ĠYus uuf
Ġqir c
ATI ON
ĠCa iro
ĠWallaa ggaa
A na
G G
H iree
I V
S eer
W ol
b aaf
f er
f anne
k am
Ġ >>
ee sa
an ce
Ġk itti
Ġd awaa
Ġh alaa
Ġh adoo
in xoo
Ġw ogg
Ġdh araan
om saa
Ġkan i
ag eenyaan
er o
ĠB aab
ĠB adii
Ġc aph
Ġgar amitti
Ġisaan tu
ĠW aar
ĠW ay
as uus
Ġgu buu
Ġho Ê¼aan
Ġbiyy uummaa
Ġkun ii
Ġisaanii tii
ĠQ onnaan
Ġdab ala
oom sa
aay aan
Ġr el
Ġakk aataan
Ġjiran illee
Ġgodh aman
Ġdhaabb atuuf
ĠY akka
Ġjab iina
Ġti bb
Ġti bba
us ee
Ġaan uu
ĠbuÊ¼ iinsi
Ġbaas uudhaan
si dent
Ġdhaab ichi
Ġbarr ees
âĢ¦âĢ¦ âĢ¦
Ġal aas
ĠP or
Ġuum aman
Ġhor ee
Ġhamm aachaa
ĠBar atoota
ang ul
Ġdhugaa dha
ĠItoo piyaa
Ġwajj ira
ug ee
Wal iin
ĠAd an
áĪ «
Ġkeessan iin
Ġbuu sii
arii sa
Ġtol fame
Ġhoj e
Ġcunqur saan
Ġkar aalee
aaww ii
ĠHabash aan
Ġfaar f
Ġdhuunf ate
Ġdabre rraa
Ġhaq aan
Ġdoor mii
Ġcunqurf amaa
ĠâĢ¦ ..
usl iim
Ġwaajj irri
Ġtoo h
ĠfeÊ¼ ame
Ġargatu tti
fuf a
Jir uu
Ġsak attaa
Ġmuumm ichi
Ġhirmaat tota
Ġqan c
Lammii wwan
ĠIRR ATTI
Ġguutt achuuf
Ġheedd uun
Ġbineens ota
Ġsaf ar
Ġbeeksif na
ĠDimook ir
Ġnidand aÊ¼ama
Ġlakkaaww aman
ĠEjj ennoo
Ġhinh af
ĠDimokr aasii
ĠIti y
Ġdoof ummaa
Dhaad annoo
ĠAmhar ic
Ġdama q
4 4
: âĢĵ
B EEK
I r
K ar
S alph
b irr
c an
d al
t aÊ¼
Ġk ill
Ġd eeffachuu
ar ittii
at is
ab ba
Ġj iddug
Ġq ilee
is nee
ni yaa
aÊ¼ ina
il oota
Ġwal xaxaa
ĠB EEK
Ġjedh in
Ġjedh amuuf
ĠM OA
ĠM angudd
ĠM ammoo
Ġc arr
as oo
ĠD ook
ĠH A
ĠH ara
ĠH alloo
Ġho Ê¼
Ġgo w
if tu
Ġgaaf atuu
Ġdha ww
Ġr aas
Ġhojj atamuu
ess oo
ĠL ag
Ġdhu ga
qab eess
Ġgah in
!! âĢĿ
ĠE n
Ġilaal e
Ġsad oo
Ġsan gaa
ati ve
Ġbaratt onni
imm aa
Ġdhug umaan
ĠAf ur
iqq oo
ĠQab u
ĠQab eenyaa
Ġgegg eesse
Ġaf eerra
eey san
Ġinjif atee
Ġthe y
Ġtol che
ĠGal ii
Ġgadd is
Ġgam nummaa
Ġhord o
Ġiyy aaf
Ġajjeef amuun
Ġakkan umatti
Ġdabar een
Ġgochuu dhaan
ĠMinilik iin
Ġbay anii
Ġreeb amuu
Ġtas uma
ĠDir re
Ġhidhannoo tti
Ġgarb oomfataa
Ġdhuk aasuun
Ġhind ag
Ġayyaan ichaa
ĠAs ab
Ġhag as
ĠAmaar aas
Ee gaa
ĠáĬ Ĳ
Ġeebbif ame
Ġwor ds
ĠBarr uu
Ġjabeeff atee
ĠceÊ¼ uu
ĠceÊ¼ umsaa
???? ????
Ġgaggeess inu
Ġijaa rree
Jijjiir amni
Ġwix inee
Ġhom aatuu
Irree chi
Hal kan
Ġmilis haa
alaal am
ĠJaag amaa
AANN OO
. ,
A rr
A jjeechaan
M A
M all
Q ubeen
S Q
T ol
T attaaf
m bass
n us
o rr
p aa
Ġk aaw
Ġd ame
Ġh adha
Ġq aall
Ġs ec
eess eera
oot tii
Ġn um
Ġqab enyaa
Ġkeess aaf
Ġbar m
mm aan
ann uun
ĠB eel
ĠB ash
ĠM aaf
Ġc uu
Ġc iviliz
ul d
ĠD ig
ĠD iddaan
ĠK umaa
ĠT akk
ĠT eek
Ġdur aaf
Ġdhi buu
ĠQ aam
ich aas
ool eessaa
Ġjech aan
Ġbah aatti
uul aa
ajj i
Ġdhal oot
eel ii
ĠR aayit
Ġfuf uudhaan
Ġjiraat uuf
Ġe yy
Ġisin is
Ġhor achuun
Ġraaww ii
Ġhamm ana
Ġhamm ataa
Ġlol an
Ġhoo g
Ġhoo Ê¼aa
eff atan
Ġam aloota
Ġag gaa
Ġdabal anii
suuf i
Ġ4 9
Ġaf uuf
eeq atu
Ġdadhab siisuuf
Ġeegal te
Ġfag aate
Ġgaggeeff amuu
Ġqal ama
Ġfac aasan
oph aa
Ġdag atanii
Sh am
Ġeegg amu
ĠHo jiin
Ġgurm eessuu
Ġmurteeff ate
Ġqajeel f
Ġreeb uu
Ġmaxxan fame
Ġdhagah amaa
ĠMar araan
Ġgadii ti
Ġaww al
Ġsoss oÊ¼aa
ĠBir h
Ġoof u
ĠOr moo
Ġfuuldur aa
Ġbin een
Ġhojjet ame
Ġhojjet amuu
Ġgoo dh
kun is
ĠKon g
ĠdhagaÊ¼ amu
ĠhirÊ¼ ina
Ġiss a
Ġbaraar uu
Ġhaleel uun
ĠNaqamtee tti
Ġhinbeek u
Ġur g
Ġinves t
ĠWoyyaan een
Ġkaroorf ate
Ġsagant aalee
ĠGoo jj
ĠMagaal ota
Ġkof al
ĠGaadd isaa
ĠIL AAL
Ġafaanfaa jj
Fedh ii
Ġduguugg ii
ĠBokk uu
Ġkollee jjii
inik eeshinii
Keessum aayuu
Ġmatad uree
Ġhedduumm inaan
) âĢĿ
+ +
1 00
A j
B in
B oruu
B reaking
F UU
K a
L akkii
O LF
R agaa
S aam
d oota
j uun
l ama
at ichi
ti v
Ġb i
Ġj aam
um ee
um aayyuu
Ê¼ aana
Ġdh in
Ġs p
een ni
yy oon
ur op
Ġis arra
Ġqab ata
ĠA rr
Ġbar uun
Ġbar aaf
er v
ĠB it
ĠM en
Ġc r
ul ture
ĠD andii
Ġitti f
aq ab
Ġtur tii
ĠI shee
ĠH R
ĠH af
akk oo
Ġadd aaf
Ġdee g
ĠK oomish
Ġgaaf atame
amee dha
kaa yyoo
ars iif
Ġhub annoon
Ġsir ra
aaÊ¼ iin
ĠL ama
Ġilaal een
Ġeeg alle
Ġibs achaa
Ġdhal che
Ġp ere
Ġjedhu tu
Ġhim i
Ġbo baa
abb uu
chis an
ef er
Ġmoo h
Ġdhii taa
Ġ3 7
Ġaa da
Ġraaww achuun
Ġqoo duu
Ġtarkaan fi
Ġlol aan
sh orork
ĠMin neapolis
Ġad aba
Ġtarkaanfii lee
Ġbarn oonni
aash ii
Ġqon na
Ġcuf uu
Ġdag anne
Ġtaj aj
Ġdabar te
Ġmootumm ichi
Ġyakk ee
Ġdach a
ĠMinilik ii
Ġmaxxan s
Ġmaxxan suu
Ġmaxxan suun
Ġgay uuf
jir u
Ġmeeq aa
Ġargam ti
Ib si
ĠbabalÊ¼ atee
ĠkaaÊ¼ uu
ĠNag awoo
Ġbadh aase
Ġut aal
ĠIrr anaa
Ġhabash ootaa
Ġkumaat ama
UT AA
ĠdeddeebiÊ¼ anii
Ġwaaq ni
ĠMuslim a
Ġadeemsis e
Ġdhaamm anna
Ġkir ist
ĠQAB SOO
Ġsiyaas aatiin
ĠBadh aasaa
Ġqabsiif ame
Ġwaajjir aalee
ĠOgaa den
Ġmiin daa
mir ga
Ġshar af
IIS UU
Ġatatt amaan
ĠKof alee
ĠAmnes ty
rugg le
3 1
? .
B arsiis
D ogogg
E thiopia
H ol
J aw
K itaaba
L ubbuu
N amuu
Q abs
T of
d iy
f annee
u qur
Ġ &
Ġ '
at ing
Ġh axx
Ġb uul
Ġj oon
Ġw anna
Ġw eedd
om e
umm ata
Ġjir as
ĠOrom on
ĠOrom iy
Ġhin deeb
âĢ ı
Ġy uun
Ġbar anna
ĠB aah
ĠB ush
aar uun
iyaa s
ĠM II
Ġgar boon
ĠW aaree
Ġar tii
ĠS alph
ĠS aÊ¼udii
Ġgu t
Ġgu rri
Ġbiyy att
Ġof uma
ĠK aay
ĠT r
ĠF iq
Ġbeek utti
Ġbir ootiin
Ġdab ra
Ġseen in
Ġhub achiisaa
ĠN agaan
Ġdeem nee
Ġdeem sisaa
ĠtaÊ¼uu dha
Ġti nn
ri ca
Ġp ire
Ġsad affaan
aj aj
Ġdhaab ne
Ġdhag ayaa
Ġbaratt uu
Ġfuf insaan
Ġkabaj u
Ġkabaj an
Ġdhii bee
Ġqoph eessanii
Ġ3 000
Ġhor atan
Ġhor tee
Ġwareeg amaan
ĠAr baa
Ġas xaa
ĠItoo ph
Ġam aaraa
Ġnag aatti
Ġaf ars
Ġwaam uu
Ġdadhab ina
II G
Ġbaaf tee
Ġbobb aas
Ġxiqq o
Ġgaa rr
Ġjaarm olee
Ġdiig amee
Ġkut anii
ĠYuuniv arsii
Ġach iin
Ġbaan kii
Ġeegg atee
Ġgurm eessee
Ġgurgur taa
Ġsuu r
Maal if
Ġxiyyeeff achuu
Ġxiyyeeff annoon
Ġhu j
Ġbeeksis aniiru
Ġhaar saa
et tii
Amm aaf
Rakk oolee
ĠAbd allaa
Ġoof uun
Ġwalt ahuun
omaa yaa
Barr uun
âĢ¬ -
Ġcab saa
Ġfiig icha
ĠIng li
Ġ198 3
Ġboor dii
Ġhacuu c
Ġnuf f
hub annoo
ĠMil kii
ĠJun edd
ĠFederaal awaa
Ġqu baa
Ġbineens ummaa
ĠTasfaa huun
ĠMuumm icha
ĠMinisti ra
Ġshaff isaan
ĠMii dh
Ġlakkoob sa
Ġen g
Ġriph ee
ĠDoor ii
ĠLiib iyaa
Ġinternee tii
timen tii
Ġsadar ka
Ġele k
ĠMaaÊ¼ik alaa
ĠNetherland s
ĠGuraa gee
ebru ary
B aan
B adii
I TI
K all
M edia
Q aama
S aphaloo
e al
r oos
w ayyaanee
z id
Ġd ang
Ġd aadhii
Ġd oolaara
Ġi ts
Ġb aqaa
Ġf aas
dh as
dh ib
ss an
Ġq aata
rom saa
is tu
ĠOrom iyyaa
Ġis aallee
Ġn ii
Ġn aasuu
Ġhin dhab
ĠA mmoo
ĠA qaaq
ann en
ĠB ach
ĠM un
ĠM ay
ĠM ootii
Ġc itaa
ĠW ol
ĠW atch
ĠW AYYAAN
ĠD ing
ĠH ars
en ti
gaa ziin
Ġil leen
ĠK u
BO O
Ġarg isiisa
tu dent
ĠQ ondaal
Ġgal chaa
Ġdha kaa
Ġbeek tonni
Ġbir raa
Ġbir allee
Ġhidh amu
Ġr aat
Ġin umaa
Ġhub adha
Ġdubb atame
ĠN AANNOO
ĠL and
iÊ¼ u
ĠY akk
Ġgad oo
ĠE SAT
Ġdhal ata
Ġbaas ani
Ġhim atam
Ġsoch o
ĠDh ala
Ġuum amne
Ġwareeg amee
ĠBar baa
ĠBar umsaa
Ġdhih aatanii
Ġbaq achuun
ĠAf aar
Ġqaam olee
Ġbif uma
ĠOPDO Ê¼n
irr aan
Ġmirkan eessuun
Ġgargaar uun
Ġgegg eessuuf
Ġhaww uu
Ġbaaf annee
Ġhal gaan
ĠAl iyyii
Har dha
Ġgabaas eera
Ġdiig amuu
Ġgalm eessuun
os e
Ġdhiyaa tanii
Ġ6 4
ĠZ eenaa
áī ³
Ġjibb inus
Ġargamu tti
áĭ µ
Ġdamm aa
jedh an
ĠSad an
Ġeegg ata
Ġhiriir see
Ġdhiif tee
Ġgurgur amaa
Ġxiyyeeff atee
ist or
Ġmin iiliik
Ġukkaam sanii
Ġjajjab eessuun
Ġjajjab eessu
Ġdeeggar an
Ġhumn atti
Ġqulqull uun
Ġyoon aatti
Ġmak amanii
Ġtik oota
Ġtaph ataa
Ġmars anii
ĠSab aba
200 6
Ġuff atanii
Ġrif eensa
chiis uun
Ġijaarr atee
Ġ197 7
Ġlaaff isuuf
Ġdabb allee
Ġbaad iyy
Ġmiil li
ĠDargagg ootni
Ġdho qqee
Ġimpaay eera
Go cha
EES SAA
Ġnaanni chatti
Goot onni
ĠBarr eessaa
Ġbubbul ee
Ġqaroom inaa
Ġfardii dha
ĠNaay iroobii
ĠJijjiir amaa
Ġcichoom inaan
Ġigg itii
con om
Ġcuq aasuun
ĠGon faa
ĠKaayy oon
ĠGinc ii
E M
H aqa
I H
S il
U SA
b ol
d am
f oorm
j ala
q us
t arii
y oota
Ġ aann
ee yyiin
uu maan
Ġd idaa
at ar
Ġb l
Ġg atan
Ġg aaraa
Ġg eessanii
Ġj oollee
Ġf an
Ġm ah
in st
Ġw aj
Ġs aalaa
eess oon
Ġjir achuun
ĠA ar
Ġy a
ach utti
Ġbar eedd
il i
Ġwal aab
Ġl aatuu
er m
ĠB u
aar tuu
ĠG aach
ĠG arg
ĠG ootichi
ĠG ooticha
Ġtokk ee
ĠW ajj
as aanii
iis i
ĠI H
Ġamm an
iif ii
iif ama
en a
en ocide
if te
Ġnu s
Ġarg anna
Ġhar aa
Ġgal gal
Ġbeek neef
ĠJ abaa
Ġgudd anne
arr is
arr eessaa
Ġnam oom
Ġsab icha
Ġhojj attoota
Ġni b
Ġni yaad
Ġgodh amuuf
Ġmar gaa
Ġaman toota
aniif is
aww een
Ġdhag eeny
Ġfuf iinsa
Ġbo s
Ġdarb ees
Ġe j
Ġisin i
Kanaaf an
ĠSh ira
aab ee
Ġool lee
duu ba
Ġfal aas
eff achuu
Ġerg ee
Ġerg uu
Ġdabal uunis
Ġqub atanii
Ġif iin
Ġkaan iif
Ġbulch an
eeq aa
Ġwaam amu
Ġta Ãº
Ġxumur uu
ĠHar omaayaa
Ġbuu sa
Ġfag aatanii
Ġfayyad amuuf
Har iiroo
Ġgan ee
Ġmadd ii
Ġgalm eessuu
Ġmud achaa
ĠIs k
Ġwayy aba
Ġmagaal aatti
SA FUU
Ġhayy am
ook oo
ĠtaaÊ¼ an
Ġmootumm ichaa
Ġfir st
Ġdhaad achaa
Ġdeeggar u
Ġtattaaf atu
ĠMar saa
Ho jjett
ĠBir ood
bul ch
Ġeenyu yyuu
Ġkiyy aaf
Ġtarr isuu
Ġargam siif
Ġbarbad eessaa
Ġuummat oonni
ĠEthiop i
Ġhojjet amu
ĠShaggar itti
Sabab aan
Ġnaq ee
ilii m
Ġnaa z
Ġolaan aan
ĠGad aatti
Ġmuumm icha
Ġkuff isuuf
Ġgufuu lee
Ġwald ichaa
Lammii lee
Ġch aar
BuÊ¼ aan
ĠqabsaÊ¼ ota
SEEN SA
Ġeny ummaa
Toof taan
Ġgaman aa
Ġhubatamu tti
Ġkijib aan
ĠBitoot eessa
kaas tiin
ĠEjer saa
ocra cy
, âĢ¦
H ayyuu
K um
M ad
O ggaa
Q onnaan
R aad
T umsa
W ayy
Y o
Y univ
b iyyaa
d arg
k y
n amni
s el
x i
Ġk aam
Ġk okk
Ġd udd
Ġh att
Ġi yuu
Ġb aachuu
al oon
Ġm aay
Ġm ed
Ġm aastar
Ġm arroo
um ayyuu
dh ug
Ġq aph
Ġs e
Ġis ani
aat us
Ġy aannu
il y
Ġl aate
eef uu
ĠM or
ĠM ataa
ĠG aa
ĠG AR
ĠW H
Ġjiru dha
ĠD iinaa
Ġitti su
en sii
tu di
ĠT ee
ĠT ar
ĠT ik
ĠT olaa
Ġdur an
Ġgaaf ataniif
Ġbeek iin
oom ii
Ġgudd oon
ars ee
Ġhidh achiif
ĠU n
aw i
ess aan
Ġgodh ama
Ġdhab amuun
Ġdubb ist
aann us
AA YY
Ġmar f
Ġjab aatanii
Ġyaad utti
Ġmaal uma
ri z
Ġrakk in
ĠWayyaanee dhaan
ĠC an
ĠtaÊ¼e f
Ġbo qq
Ġkabaj ama
Ġdarb aan
Ġhor e
Ġhor atee
Ġhor siisee
ĠgaÊ¼ een
Ġbaq aq
Ġod eef
Ġerg aan
Ġqub aan
Ġsaam insaa
Ġaj eef
ter oota
Ġeegal amee
Ġban u
Ġhoj irra
Ġgalm eessaa
Ġwalab ummaaf
Ġhirm aatanii
Ġbarn ootaatti
Ġtaasif ameera
Ġguut umaa
Ġum amaa
Ġdag atee
Ġbarsiis e
ĠAfri kaatti
mpaay er
Ġsod aatan
Ġeegg achaa
Ġsaaxil u
Ġsaaxil amaa
Ġjajj abaa
Ġjabaa dhaa
Ġbay ii
Ġkeey s
Ġtuq ame
Er gaa
Ġkak aasaa
Ġim alaa
bar attoota
Ġbeekamu tti
ĠMas fin
zii z
ĠGoot otaa
Ġkom p
Ġkom achuu
ĠSab oota
Ġfar d
Ġhundee dhaan
Ġ13 0
Ġisaati f
Sad arkaan
Ġawwaal chaa
ĠDaan diin
ĠIrr eessaa
Ġdhah uun
ĠMaal iif
Ġambaa tti
AAL AA
Ġkuff isanii
ĠdaaÊ¼ ima
Dhaabb anni
Ġalag aatti
Ġadeemsis an
Ġakaak uu
Ġarrab saa
Ġhojjett ootni
Ol ola
Ġdad dhab
Way ita
kur nee
Tor ban
//// ////
ubli c
Ġyaall a
Ġyeer o
ĠMinnes ota
mbass y
4 8
A ww
B aqq
G oo
H at
K orri
N A
O P
T umsi
Y akk
b uun
d ubar
h orn
j aar
j alee
l afa
m il
q an
u yyaan
z erland
ar oota
at tti
am suu
Ġg il
Ġdh or
is toonni
Ġn in
aat ani
ach isu
Ġc ew
Ġgar eeleen
ayy ad
ĠW aayy
aq ni
Ġtur a
Ġof f
Ġkun t
ĠK aasaa
ĠK atamaa
ĠT um
ĠT ak
Ġgal ag
ne tti
Ġab da
Ġhidh ann
Ġhidh atan
ĠN ational
Ġfudh achiisuuf
ĠL absii
add iin
ĠAm ah
ĠAm araa
Ġti g
Ġdhuf nee
Ġdhuf eera
Ġsad ih
Ġdhag aÊ¼ee
Ġhim achuu
Ġdhii buu
Ġkaas een
ĠP ir
Ġdirq aman
Ġjalqab de
ĠBar attuu
Ġdhih eessaa
Ġdhih eessina
ĠWal aloo
Ġfayy aale
Ġfur maat
Ġnag aaf
Ġbit tuu
Ġwaam an
ĠMin iliik
Ġsalph isuu
Ġfalm uuf
ĠIn ter
ĠX iyy
Ġtan atti
ĠtaÊ¼eef i
Ġgan amaan
Ġuf itti
Ġmadd en
Ġhaal ota
Ġakeek u
Ġyoom iitti
Ġum ama
Ġmiidh e
Ġwall aalee
Ġmagaal oota
Ġboon u
Ġmaxxan famee
Ġdhuunf achuu
ĠAmeer ikaan
Ġpaar tileen
Ġfuudh e
ĠOl ii
Ġdhageess isuun
Ġguf achiisuuf
Ġduub att
Ġtokkoom ee
IS AA
eh ee
Ij aar
Barr eessaan
Ġijaarr ate
ĠHir ph
ĠIj a
ĠDim okiraasii
iss a
Ġgaazex eessit
Ġadeemsif amu
Ġbilch inaan
Ġiss aanii
Ġqus atan
Ġbilb ilaa
ĠSan b
Ġtof taan
Waaq eff
Ġaang oof
ĠWaaqeff annaan
áį ¢
Ġmaangudd oo
Ġministee raa
Ġruku tuu
Ġhinbeek ne
Gur m
Ġarga dhe
ĠajaaÊ¼ib u
ĠGond or
IY AAN
Ġnaamu saa
Qabxii lee
ĠGabaa baa
ĠKirist aanaa
ĠMiid iyaa
Ġdogong ora
ĠTul amaa
form ation
okra sii
ĠWAA Q
3 9
4 2
< <
A chi
A mb
E eg
H or
H edd
I A
I SA
K ut
L AA
M eesh
Q awwee
S een
T BO
d ab
f ina
f amuuf
h er
k u
l d
s amaa
s itti
t uufi
Ġ .
am ar
Ġi tuu
Ġb aal
Ġf ollow
Ġs oom
Ġs aniif
eess otaa
is eef
is aniin
Ġjir un
ur iin
Ġo s
Ġy om
ĠB alaa
ĠM N
ĠM ac
Ġc ii
Ġc aalee
Ġc aamsaa
Ġc iree
Ġgar uma
Ġtokk olleen
Ġjiru f
af rica
aq qab
it een
ĠI F
ĠH aqaa
ĠH atatt
Ġwar aabb
if atan
Ġhund attuu
ĠT uqaa
Ġtah us
Ġisaanii tu
ĠQ eey
ool e
ool iin
Ġjech u
Ġhidh annoon
adh ab
Ġmur te
ĠN y
ĠN imoonaa
haa d
Ġdhaabb ataniif
ĠAm iin
Ġti f
Ġbul guu
Ġjal aatti
too ni
ĠE mail
Ġmag ariisa
Ġp ir
oor g
Ġgagg ees
Ġwaa da
Ġal angaa
ĠDh iyaa
ĠDh add
Ġcim uu
ĠBar att
Ġdhih eessu
Ġgabr oomsaa
Ġlol tootni
Ġbu rraa
Ġhoo gan
EE FF
eff achuun
Ġgoot oota
Ġbilis umm
Ġsaam uun
Ġsaam amee
Ġbulch uun
Ġwaam ichi
Ġkeeny arra
Ġmal uuf
ĠHar Ê¼aa
ter aa
ic s
com m
Ġsabboon totaa
Ġgan anii
atam oo
Ġ6 5
Ġsaax ila
ikaa Ê¼
ey sa
Ġsod aachuu
Ġgon fachuu
itaa bban
Ġhooggan ummaa
Ġfaar san
Ġnaan ne
Ġtattaaf achaa
Ġmak iinaa
ĠIto ph
Ġaww aala
Ġlam atu
ĠOl b
ĠBir bir
Ġshor orkaa
ĠmariÊ¼ atanii
ĠGamm achiis
Ar aar
ĠGum uz
rotes t
Ġfiig u
Ġabaar uun
Jir aat
Min istee
Ġbaqatt ummaan
Dir q
Ġgamtaa dhaan
Ġraaj u
Ġkaar taa
ĠMaq alee
Sheek h
ela ide
ĠTOKK O
ĠWAR AAB
Ġmaxx annee
ĠAN C
kal chaa
Ġtankaar fii
ĠDil boo
Garaagar ummaan
ĠJE DH
ĠCall iyaa
kaastiin g
D UO
L ukk
Q otee
U s
b ni
b ad
d eessaa
d amii
k ab
r y
y een
Ġ eessan
aan soo
Ġd ibbee
Ġh ool
Ġh oom
Ġh alle
Ġi ttuu
Ġb on
Ġb idd
Ġg un
Ġg idd
ir obi
Ġf ud
in er
Ġq il
Ġq ama
ĠO ol
oot aas
aal oo
aaf amaa
ach isee
ĠB el
Ġto lee
ĠG ann
ĠG add
ĠG id
ĠG aallaa
Ġisaan irraa
ĠS ib
ĠI M
ĠI ttiin
ĠI TTI
Ġgu gur
Ġbiyy aalee
Ġadd eesse
ĠK orm
ĠK oor
ĠK EESSA
ĠK oolleejjii
if amuun
ĠQ arsaa
eeff ataa
Ġgal agal
ĠJ um
Ġx al
tt anii
Ġmoot umaa
Ġhub achaa
Kan atu
Ġdubb isa
Ġhedd ummaa
Ġra w
ĠL ola
Ġmar iif
ĠAm aarri
Ġbul le
Ġkenn uudhaan
Ġyaad achiisaa
Ġkeenyaa ti
Ġku kk
Orom iya
Ġhojii rraa
Ġhojii wwan
Ġgagg eessee
es ee
ĠkaÊ¼ uuf
Ġe b
ĠBilisummaa tti
el le
el la
Ġal aalatti
ĠDh a
201 0
Ġlakk ifaman
Ġdhiis e
Ġta ee
Umm atoota
Ġmiseens oonni
dur een
ĠAl l
ĠtaÊ¼uun is
Ġmud achuu
Ġmiidh an
Ġajjeef amee
Ġkar uma
Ġkol faa
**** *
Ġhordof fii
Ġ8 00
Ġfiniin ee
Ġhooggan sa
Ġhooggan oonni
ĠLamm iin
Ġtarkaanf achiisuu
Ġjaall atu
ĠItti saa
Ġtaph atan
Ġhinqab an
Ġfeder aala
Ġhubachiis aniiru
Ġlaal uu
Ġkonkol aach
Ġcin nee
ĠMir gi
Ġlag uu
Ġfashal suu
áĮ Ī
Ġhint aÊ¼u
eeti ra
Ġabj uun
ĠyaaÊ¼ u
ĠEe kkaa
ĠTigraa yi
Waaq ni
ĠAmm ayyaa
Ġgadhiis uu
Ġciis ee
ci ence
Ġxinn aate
Ġijaa rra
Ġkey saa
Ġyar tuu
Ġquun n
Ġraaf ama
Ġbeekam tii
Ġdiimookr aasii
min ist
Bulch iinsi
ĠSw eden
Ġtuu ta
Ġwalhub annoo
Ġsurr aan
Ġxumm ur
ĠMiti kkuu
Ġshoor ark
Ġopd o
Ġdadhabb ina
zed aan
hol m
BEEK AN
Ġjoon j
G idduu
K oloneel
U um
W o
b ira
c ont
d uuf
d ota
e x
g aal
j aal
k ir
m er
r eek
r ichi
s ti
s iti
v iew
Ġ amaan
uu ma
uu rri
at iif
at naa
ab o
Ġg eenyu
Ġt umaa
Ġm ac
in yaa
Ġdh uuf
ss uu
een n
eess in
ĠO R
Ġqab aatuu
ĠA gaw
Ġkeess allee
er n
ĠB arraaqaa
Ġto y
ĠM aqaan
ata waa
Ġisaan itiif
ĠW ASHINGTON
ĠD ukk
ĠD uraa
ĠD olloo
Ġitti gaafatama
iis an
it oo
it ler
ĠS e
Ġtur suuf
ĠI ddoo
ot an
Ġwar eer
ĠK HR
Ġdand ii
Ġdand eenyaa
aach i
Ġhidh u
Ġnam aatiin
Ġnam ootiin
Ġakk atti
Ġij oolee
Ġhojj ennu
Ġhaa jaa
Ġhub adhu
Ġdubb annee
ĠdandaÊ¼ ameen
iti cal
ba saa
Ġdhaabb anni
Ġbah aniif
Ġjab eessan
Ġmag al
Ġeeg ga
Ġsad aff
Ġbo fa
Kanaaf i
ĠDh eeraa
Ġuum amuun
annee tii
aaq aa
sis anii
Ġqoo dee
ĠmulÊ¼ isuun
Ġjedhamu s
ib aan
Ġag arree
tummaa tti
Ġbulch iisa
Ġdhaam anii
Ġadeem u
Ġbakk an
ĠAd elaide
Ġul faa
ĠAl amuun
Ġhoj itti
Ġqaww eetti
ĠGal aanaa
Ġbarn ootaan
atam te
Ġlabs amee
ĠWall agg
Ġsaax ilaa
Ġboon aa
Ġ9 5
Ġgumaach i
Ġyakk amtoota
Ġfiniin san
jedh uun
Ġcall isuun
Ġtum suun
Ġshan yii
ĠAs f
Ġ14 0
Ġkadh annaa
Ġlag achuu
Ġdhagay e
ĠHund a
arsh ii
Ġcich oomina
ĠUmmat ichaa
Ġabaar amaa
ĠQoph aaÊ¼
ĠDargagg oonni
ĠDuul a
ĠdeebiÊ¼uu dhaaf
ĠTaadd asaan
Ġobbolee wwan
Sabboon ummaan
Ġfayyadamuu dhaan
ĠSag aleen
Ach umaan
Ġmilkaaw u
Ġyuniv arsitii
ĠtooÊ¼ annoo
ĠWareeg ama
ĠImpaay eera
Ġfaran j
Ġwaldh abbii
Ġcarraaq an
Ġbadhaadh ina
Ġbeekkamaa dha
Ġwalig al
Ġilaam een
Ġarab iyaa
Ġaangaw oota
ĠTes f
Ġmilish oota
Rev olution
Ġqulq ul
Ġtibb ana
B oo
B ad
D aaw
G abaa
G argaarsa
I cc
J IF
L absii
Q AB
Y e
f ilee
h arkaa
n aannoo
o soo
s im
s ani
t uf
y aalee
y ssin
ii ti
aan tummaa
Ġd ook
Ġh ot
al iyaa
Ġg aan
Ġw aq
Ġdh ahaa
Ġq araa
ĠO noota
Ġis aatiis
Ġirr as
ag ee
ag ar
anii dha
ĠA agaa
ach isa
il d
ad ur
ĠB ifa
Ġjedh aan
Ġc o
Ġgar baa
ĠD ug
ĠS aree
ww a
Ġbiyy oo
Ġbiyy al
ol iif
if aa
if innee
Ġumm ani
Ġarg annu
ĠF uul
Ġgal lu
Ġab aaraa
Ġhir raan
Ġgodh aniif
ees un
ees uuf
Ġdhab de
Ġdubb adhu
ĠN aanna
ĠL afti
Ġmar famee
Ġjab eeffachuun
Ġgah aan
ĠE R
ĠE eb
Ġilaal chaan
Ġibs achuun
ĠbuÊ¼ urri
Ġkeenyaa tiif
Ġbaratt ootaan
Ġbarr uuleen
Ġfuf etti
es an
chis anii
Ġjiraat aan
Ġkanaa rratti
Ġqaban itti
Ġisin tu
Ġqoph eessu
Ġhojje ta
ĠBar gaa
ĠBar attoonni
ĠWal ab
Ġdhug oomf
sh aash
Ġif irraa
Ġnag ah
Ġbulch itoota
ĠMag aalaan
Ġjijjiir u
eey su
Ġdhaq uu
Ġinjif atnoo
to ck
ĠX aafoo
Ġgaggeeff amee
Ġuf irraa
AN AA
Ġgalm een
Ġdheer atu
Ġdheer essuuf
Sab oota
ĠIb roo
Ġgidduu tt
Ġhanq isuu
Ġjabaa dha
Ġtattaaf ataa
Ġtakk ittii
Ġgarag alee
Ġqot e
ĠGar een
Ġcunqurf am
uur aan
Ġdhugoom sa
de p
Ġkess attii
ĠariÊ¼ aman
ĠHidh annoo
Ġdhagay uu
Ġmuldh isa
aamm ii
ĠfeÊ¼ e
Mis eensa
Ġat is
Ġkaay e
Ġgurr aachaa
aleel laa
ĠMo q
ĠyaaÊ¼ iin
ĠFuf ee
ĠJedh uun
Ġfees isu
Ġwor aana
ĠBirr aatuu
Ġbooj iy
Ġdig irii
Ġlakka w
ĠJun eedd
Ġmiliyoon otaan
ĠJaarm iyaa
Hayy ee
Akkan uma
ĠDhaab ni
ĠQil inxoo
Ġkey sa
war aanaa
ĠLe ave
Kon kol
Ġaddadd aatti
Ġmuslim aa
ĠDok tar
ĠGaazex eessaa
Ġqaanf achiisaa
ĠDassaal any
ĠIsraaÊ¼ eel
Ġdimookir aasiin
Ġibidd aatiin
Mot ummaan
Ġhinbar baa
Tas f
Muumm ichi
ĠQum bii
ĠDaal attii
UQQ IF
ĠWARAAB EESS
! âĢĻ
D ii
D eegg
D orgommii
H a
H aas
L ubbuun
N a
W arr
Y aaliin
b as
b all
c s
f ront
i ve
t un
Ġ amaa
Ġk aba
Ġh aall
Ġb asa
ab i
Ġt oor
Ġt aah
in naan
Ġq aruu
Ġs em
Ġs oog
eess uf
ag an
Ġwal is
ra kkoo
ad ir
Ġc eÊ¼ee
Ġc iib
ĠG aash
ayy aatti
ĠD ull
ĠD antaa
ĠI raa
Ġwar aannii
Ġof ittummaa
ĠK itaab
ĠK eni
ĠT ew
ĠQ in
Ġyaa Ê¼a
Ġbeek taa
Ġbeek umsaan
oom see
Ġx ab
Ġhojj ennee
Ġhir buu
Ġgodh ameen
ees ar
Ġra sa
ĠharÊ¼ aas
Ġibs atan
Ġsan arratti
Ġhaf iin
Ġdhag eenyee
Ġsiyaa saaf
el ik
ĠSh aalee
Ġ3 4
Ġool chu
ig n
ĠAr tiis
Ġqub s
Ġdhiis aatii
Ġbit uun
Ġxumur an
Ġdhiy eessee
Ġfalm anii
Ġaj ee
Ġgabaas uun
Ġakeek i
Ġdheer essuu
Ġfac aasuun
atam een
Ġan aan
Ġmiidh ame
Ġiyy ata
ĠZ alaalam
Ġ7 5
Ġajjee sa
Ġhayy uun
Ġfiniin suuf
Ġbaayy e
Ġfir ri
Ġfir aafis
Ġmurteeff atee
diin a
ĠqabsaaÊ¼ otni
pp aan
Ġhiik amu
AB B
Ġmak amuu
Gal at
Ġcal Ê¼
Ġgurgudd aan
Ġiddoo wwan
ĠAbd ataa
Ġoof amaa
Ġkolon ummaa
Ġshor ok
Ġfash alee
Ġbuuf atee
Ġhag i
Ġdanday an
Ġheddu tu
Ġkaaf nu
Ġargatan iin
Ġguur uu
chiis ee
ĠDaan gaa
Ġdimokr aatawaa
Ġpol is
ĠdhagaÊ¼ amaa
ĠHaa c
Ġmoor icha
ĠqophaaÊ¼ aa
Ġbasaas tota
Ġbilch inaa
Ġbilch aataa
ĠDar ajjee
Ġqilleen si
ĠBur qaa
Ġqindaa Ê¼een
ep art
iw ul
ĠIngiliz iitiin
zdaan tiin
buÊ¼ ur
ĠDem okr
ĠMot ummaan
Ġraaf amaa
Ġbuun ee
ACH II
Ġomish a
Ġmuraas aaf
Ġmuc aan
Ġgurraach i
Ġdaddaf fiin
Ġluu cc
Ġbixx il
Gam taan
Ġhong een
ĠGurm eessaa
Dabb all
ĠFran kfurt
ĠKollee jjii
ĠOlb aanaa
A h
A jj
A pril
B os
F aallaa
G or
G atiin
J illi
K S
K u
K anniin
M eeshaa
T uf
b oor
d abal
f ajj
g argaarsa
s aniif
t ni
w aar
Ġd eeff
ar amaa
am iinsa
am ent
Ġg aba
Ġt iis
kk kk
in k
in een
Ġq arree
eess iin
is aanii
umm i
Ġqab siisuu
Ġqab eenna
ach aan
il and
Ġl aggeen
ann on
Ġjedh un
Ġjedh uudha
ĠM id
Ġc un
ĠG ermany
ĠW F
ĠD IIN
Ġar Ê¼aa
ĠS and
and aan
ĠH aar
ĠH ol
Ġbiyy aattii
Ġof umaaf
Ġdand eessi
tuu tti
Ġyaa b
Ġjech un
ĠJ uly
Ġqo ra
Ġgudd itti
Ġnam arraa
tt oo
Ġmir m
ess atti
ess inee
Ġhub attanii
Ġfudh ataman
haa mm
iti z
Ġboo kk
Ġbah een
ani dha
Ġgad if
Ġbul l
Ġyaad nu
Ġsan uu
Ġsan atu
Ġhim achaa
Ġlamm aaffaa
Ġbo wwaa
âĢ¦âĢ¦ âĢ¦..
Ġal aaf
ĠDh uk
Ġjechuu dhaa
Ġhamm atee
ta jii
Ġjen er
Ġjaar saa
Ġtaasis aniiru
Ġduu lee
ĠgaÊ¼ eera
Ġdabars inu
Ġdhiis itii
Ġabb aatu
Ġsaam u
Ġsaam amuu
irr een
Ġdhaam ee
ĠYuu suf
Akk am
Ġdhiy eessanii
Ġbaaf te
ĠAd aÊ¼a
Ġjijjiir anii
eey see
Qab eenyaa
Ġgadd isiis
Ġhirm aatu
Ġfix u
Ġsi v
Ġmootumm ootaa
áĭ Ī
Ġhordof anii
ĠSad affaa
Ġhooggan u
Ġagarsiis ee
Ġdalag aan
ĠJir eenya
uumm ata
Ġaar iin
Ġ199 7
Ho jj
Ġtuq u
ĠIrree chi
Ġhaq ni
Ġalatti s
Ġsirr eessuuf
Ġbalaaleff atu
Ġgabaab suu
Ġang af
ĠAs allaa
ĠmariÊ¼ atan
oc ument
oc rati
ĠBilis a
Ġuummat atti
Ġdhork uun
Ġguur uun
Ġeer ame
Ġdabb aloota
Ġjee dhu
ĠUm rii
Ġfeen u
ĠAh b
Ġdeebif nee
Jaarm ayaan
Ġoolee ra
Ġcicc imoo
ĠHayy oota
Ġwalqixx ee
Ġciis u
hidh aa
IT TI
ĠMuumm ee
ĠMuumm ichi
ĠMagaal oota
ES CO
Ġxayy aara
ĠIslaam ummaa
ĠAD WUI
Hogg anni
ĠDald alaa
Ġdhang ala
Warraaq si
ĠDhimm oota
Ġgamee yyii
ĠTam aam
ĠRaash iyaa
Ġfuny aaniitti
Ġmamm ak
Dhaam si
ĠDibaa baa
ĠSHAGGAR II
ĠAqaaq ii
UQQIF AMA
) ;
9 6
H e
H eg
I P
T ulluu
h at
h aam
m ed
o a
s en
z i
Ġ ***
Ġd is
Ġd ina
Ġd amb
ar tuu
at ullee
Ġb iil
ab le
al iin
Ġm amsiisuu
in oo
Ġw ah
Ġjir taan
Ġjir eenyaan
dd oon
Ġn ame
yaa da
ĠA dee
Ġl iyyuu
ama yaa
ad eem
ĠB ooda
Ġjedh en
ĠM ud
ĠM axxan
ĠD e
Ġar fan
ĠS ilaa
ĠS eerri
aam an
Ġil maa
ĠK olon
if nu
Ġumm ta
Ġtokko yyuu
Ġhund uma
Ġarg isiisu
Ġarg itan
ĠT ek
ĠQ aba
ĠJ edha
Ġgudd isee
Ġhidh achiisee
Ġx ib
Ġhir uu
Ġmur aasaan
Ġhum aa
âĢ¦ !âĢĿ
iÊ¼ uu
Ġhan tuu
ĠY e
Ġbul lu
Ġfakk aatuu
Ġyaad anna
Ġibs amu
Ġhaf uuf
Ġhim annaan
Ġu ww
Ġkabaj anii
Ġwaa jira
Ġmoo ticha
Ġqoph eessuuf
ĠDh idh
Ġyaada dha
Ġhamm i
ĠmulÊ¼ isuuf
re at
urr e
Ġas iif
Ġgoot oti
Ġbaq q
taan ee
Ġfin naa
Ġdan f
In n
Ġbit ee
Ġdal aga
Ġwaam anii
Ġhaww ina
Ġdhiy eeff
ĠX uu
ĠX oophiyaa
Ġgamm achiise
Ġsabboon toti
Ġhirm aatt
Ġfix uun
Ġ12 0
Nam ichi
Ġmootumm aaf
Ġkol f
Ġhang uma
Add is
ĠqabsaaÊ¼ oota
Ġqajeel tuu
Ġwaliigal atti
Ġtakk atti
Ġbeekk ame
Ġim aam
ĠBoor dii
Ġgabaab aan
Ġmata yy
ĠâĢ¦ ?
Hund een
Ġjeeq umsaa
Gar tuun
Ġdanday amu
ĠSabboon ummaan
Ġwallaal u
oos tii
Ġdhork uu
Sad affaa
Dhugaa dha
Ee kaa
Ee yyee
Ġbaat tee
Ġdagaag u
Ġlakkaaw amu
Ġbarbaadd e
Ġhabash oota
Ġpaartii lee
ĠArtis toonni
ĠPaar lamaa
Ġsadd eett
Ġlukk ee
Ġtams aas
ĠAt oomsaa
ĠFederaal awa
Ġgidir saa
Kabaj amtoota
AF D
ĠHaww ii
Ġkaab inee
FIN FINNEE
ĠGoo ban
ĠMinisti raa
Ġcaccabs ee
Ġwaldhaan soo
ĠTur kii
Ġtel ef
Ġdeegar sa
Paar tiin
Ġwalakk eessa
ĠTOKK UMMAA
ĠMokonn on
Ġqindoom inaan
ech n
ĠBos ona
Ġyuu nibarsiitii
Ġdandeny e
ĠSill aaseen
Gamm achuu
ĠIJ AAR
Alaa baa
INILIK OOTA
Ġkitti ll
cont ent
D UR
M araa
M aariyaam
N yaa
R aajii
S afuu
U G
a v
g amaa
h r
h aalli
m as
p il
r ation
t ootaan
u ga
w p
w een
y sa
y oonni
z a
at aafi
am aatiin
ti ve
Ġb r
Ġg eessuun
Ġg oree
Ġj ahaa
Ġj aÊ¼u
Ġt eeny
um ni
um aafi
Ê¼ inni
Ġa ga
Ġdh of
Ġs uk
om maa
rr u
rr or
ĠO s
Ġjir enya
Ġis arraa
Ġqab daa
Ġqab atani
aaf f
ĠA naa
Ġbar anee
Ġl aanne
ann aatti
ĠB aale
eef is
ĠM ala
Ġgar atti
Ġgar asitti
ĠG ama
ĠG ol
as aaf
ĠD an
ĠD ess
aq i
it aaniyaa
ĠS af
ot atti
if aar
if atanii
Ġhund arraa
Ġarg isiisuu
Ġdur baa
Ġdhi bii
ĠQ illeen
Ġyeroo dhaan
ĠJ oh
Ġqo Ê¼
Ġuumm attoota
ars aan
Ġr abbiin
Ġx aafii
Ġhir ir
ees ee
Ġdhab amaa
aaÊ¼ een
ĠN annoo
ĠL AMA
ĠL iigii
iÊ¼ anii
Ġboo Ê¼
Ġjab eesse
aayy ii
aayy een
Ġdhuf eenya
Ġilaal ch
Ġibs aan
Ġdhal ootan
Ġkeenyaa tiin
Ġdhaab oti
Ġguddaa dhaan
Ġbo kkaan
ĠkaÊ¼ i
Ġmul aÊ¼
Ġjiraat aniif
ak im
ĠP ost
Ġsiyaasaa tti
ang u
Ġfal maan
Ġdabal ame
Ġif umatti
Ġgegg eessuun
Ġbaaf na
em tee
Ġkeessan is
Ġad ams
Ġbarbaach iisaa
Qab eenyi
Ġgod aannisa
ĠGal aana
Ġmad eesse
Ġmad eessee
Ġtaasif ama
Ġfac aÊ¼e
Ġfac aÊ¼anii
áĬ ł
Ġhark isaa
Ġgon gumaa
ĠHabash aatiin
Ġgurgur uu
Ġgurgur uun
Ġman uma
Ġhu ab
Gab aasni
Ġbeeksis uun
ĠJir aataa
Ab diin
Ġdammaq anii
Ġmak amee
Ġdug ug
Ġdhageess isanii
Ġfudhachuu dhaan
Ġbalaaleff ata
Ġdogogg orri
anga w
ĠGudd ataa
Ġwallaal e
eh u
Ġguur aman
Ġqabaa tin
ĠAmaar aan
him aa
ĠKon gir
Ġbur qaa
Ġwo rra
ro up
Ġbilb ilaan
ĠFuf aa
ĠAwuroo pp
Ġgul aal
ĠMil iyoona
Ġmoggaaf atanii
ĠOg ummaa
ĠCalanq ootti
Ġgidir aan
zdaan t
ĠwalÊ¼aan soo
laam aan
Ġqabaat tan
ĠBah aatti
Qoph iin
Guu tuu
ĠHa il
ĠDirri bii
Ġulfin aa
~~~~~~~~ ~~~~~~~~
tic le
ja zii
amas geen
Ul finaa
Ġmicc iir
DuÊ¼ a
Ġaddeess utti
Ġhirrii ba
ĠyÃ£ da
Ġlaa kka
Ġviid iyoo
ĠLix aatti
ĠIty ophiyaa
ĠCar car
Ġmum ulÊ¼
Ġciviliz ation
Ġaggaa mm
. âĢĻ
A sh
A tilee
S om
d aar
e rra
f udh
i kk
n na
o bee
v ia
Ġ und
an an
am aafii
Ġj a
Ġf infin
Ġf aaÊ¼aa
Ġm allee
dh ugaa
Ġw am
Ġdh im
Ġq ees
is aniif
oot aatiin
umm aatii
Ġjir atu
Ġjir aadhu
aal cha
Ġqab iyyeen
Ġy eeroo
Ġbar eed
Ġbar ums
ad dha
ad iitti
ĠB iiftuu
ĠM e
ĠG e
ĠG aar
Ġisaan irra
ĠD eem
Ġar i
ĠI mm
ĠH itler
Ġho gan
if ti
gg anaa
ĠT aa
Ġdur aas
ĠQ aq
ĠQ ubeen
Ġgal li
ich arratti
ĠJ aa
Ġbir aatiif
Ġab alu
Ġij i
Ġin j
Ġmur anii
Ġhub attan
ees anii
Ġfudh atamuun
ĠL ub
ĠL olaa
ĠL ubbuun
eer ii
Ġgah ame
te s
Ġdhuf anitti
Ġkenn aniiru
Ġyaad achaa
Ġilaal amaa
Ġmaal an
Ġdhal attoota
Ġku tuu
Ġdhaab aan
Ġdhaab sisuuf
Ġdhag aÊ¼e
Ġkabaj atan
el aawwii
ĠSh ar
ĠSh ow
Ġcim saa
rii kaa
Ġyaada dhu
Ġjalqab ani
ĠAb ashaa
Ġdhiis i
In umaa
Ġmal etti
Ġ5 5
Ġbaaf atu
áĪ ħ
áĪ ļ
dur atti
Bar uma
Bar noonni
Ġfag eenyaa
Ġban amu
Ġjaal alaan
Har iiroon
eessit ootni
ĠKan adaa
Ġduraa ti
Ġway ee
Ġtaasif ameen
Ġmud annoo
Ġcuf ee
ĠIs laama
Ġog eessa
aÊ¼uu dii
Ġbarreeff amaan
ĠGab ayyoo
Ġfid ne
ĠbaayÊ¼ee tu
Ġgor san
Ġqophii lee
achiif ne
mb aasiin
Ġsirrii dha
Ġqulqull eessuu
Ġdammaq suu
Ġtum suuf
ĠV ia
Ġbeel aaf
Ġtuq e
Ġdug ugg
Ġfuudh an
Ġguf uun
Ġjirr uun
Ġdegger uu
Ġkiyy as
Ġmata yyaa
nam oota
Ġbarbad eessuu
ĠbabalÊ¼ isuuf
Ġjeeq umsi
Ġbood allee
Ġbin eensi
Ġmormit oonni
Barr eeffamni
Ġdham aÊ¼uu
Ġ197 8
DH IBB
Ġeer an
Dhal ootni
Ġfiig ee
ĠIng ilii
Ġkoph ee
ĠMu haammad
Yaad i
ĠAwuroo paa
Qabsaa waan
Ġfee tu
ĠjaÊ¼ amtu
Ġqabn uuf
Ġdull oomaa
ĠBAR DHIBB
Ġdaldal toota
Ach ii
ĠBishooftuu tti
ĠDuu b
Ġhall ayyaa
Ġkaab inoota
Mudd e
Ġeeyy ama
Ġangaw oota
Sii daa
áī° áĪĽ
Ġbataskaan a
sad arkaa
ĠWalda ya
oci ation
Ġcew uun
ĠBARDHIBB EE
A ang
D in
D eem
E thiop
G umaa
H oraa
J ar
K uun
S t
S eerri
e sa
f amoo
g ht
i am
m aasuu
n ooti
o ice
p oolis
r al
s adii
v ement
Ġ Ø
Ġ ata
Ġ atii
Ġ aannan
Ġk orri
aan oo
am inc
Ġh orm
Ġb iyaa
al amaa
Ġf kn
in ool
Ê¼ iin
Ġw aww
Ġdh aala
Ġkan f
rr aatti
umm iin
Ġjir eenna
dd uu
un ya
Ġo suma
Ġkeess ayyuu
aas in
Ġbar atame
Ġbar moota
ann utti
ĠB ilb
Ġto w
ĠM aj
ĠM aariyaam
ĠG urree
or ity
as il
ĠS aÊ¼aa
ĠH iree
Ġbiyy aan
ĠK uf
ĠK orri
if faan
if achuuf
Ġarg atuuf
ĠT iwul
Ġhar aÊ¼a
ĠF ash
ĠQ ot
Ġgaaf attu
Ġdab e
Ġqo pph
oom suun
Ġhidh ii
Ġhidh uuf
Ġr eÊ¼ee
Ġseen uudhaan
Kan afuu
Ġdhab aman
Ġdhab bii
Ġdubb ise
Ġib iddi
ĠN etwork
Ġsh aniif
iÊ¼ e
Ġmar x
Ġmar y
Ġgah eef
ĠtaÊ¼uu tu
Ġgad ad
Ġdhuf aniif
iir aan
Orom oprotests
abb oo
Ġqoph eeff
Ġjechuu dhan
Ġdirq e
imm anii
Ġkee tiif
Ġhamm uma
ĠWal t
ĠAr faasaa
Ġmurt eessan
Ġbaq ataan
LF On
atuu dha
Ġerg uun
Ġdhaam an
Ġbarbaachis oo
Ġwaam aa
Ġta uu
ĠtaÊ¼an iin
Ġhii x
eet tu
Ġfag eessanii
Ġjaarm iyoota
Ġtol le
Ġhaal uun
Ġhaal amu
ĠGal gal
Ġmad aaÊ¼an
Ġkut uun
aash ee
ĠYuuniv ers
Ġbor us
Ġilaall ata
Ġargamu s
áĭ Ŀ
Ġ8 5
ĠHo jje
ĠHo jjett
Gab aasaan
Ġnaan oo
jir an
Ġhumn ootii
Ġdug daa
Ġdhagg eef
Ġor gani
Ġfash alaa
Ġgalch an
ĠBilis umma
Am boo
Ġdhork u
ĠariÊ¼ uun
áĮ ¥
Ġxur eessuu
xoo xxoo
Ġhamb ise
Ġgabaa ba
ĠAmer ic
Ġqeeq an
Ġtajaajil u
Ġbaat ullee
Darg aggoota
ĠPoolis oota
ĠsochoÊ¼ uun
Ġbubb ee
Ġrukut amee
Ġkeessatt iis
Ġdeebif achuuf
ĠSan bata
Ġkur f
Miseens otni
Ġdabball oonni
Ġharc aatuu
Ġbatt ala
Ġsib iil
ĠDiin ni
ĠtooÊ¼ annaa
EN N
ĠSt ate
ĠDach ee
ĠDach aasaa
Ġ!!!!!!!! !!!!!!!!
ĠShaa kk
Gudd inni
ĠHarom ayaa
ĠAL H
ĠLol toota
Ġdipl om
Ġarj oom
Ġintarnee taa
ĠNafxany ootaa
Ġqabsa w
ĠGamb eellaa
Ġbaj ata
ĠSaÊ¼ ud
ĠAraar so
ĠAKK A
ĠGinb ot
Ġface book
A w
D antaa
J iÊ¼a
M an
Q ajeel
S G
X umur
l ol
m ish
o rraa
r at
s iyaa
u ph
ee z
Ġk abaa
Ġk iraa
Ġk iil
Ġk Ã©ss
Ġd oonii
Ġg eett
ir man
Ġdh org
een taa
is uf
Ġis ee
Ġhin kenn
ad uu
ad ar
ĠM aamm
ĠM uusaa
Ġc omp
ĠG addaa
Ġkana f
ĠD is
ĠH UN
ĠH edduun
Ġgu daa
Ġkeessatti llee
ĠK omish
Ġarg ateen
ĠT ir
ĠT se
ĠT aÊ¼an
Ġtah iin
ĠF R
Ġgaaf annaan
Ġgal ama
amee tti
amuu tu
Ġuumm ta
aw ee
Ġso urce
Ġhojj ee
Ġgodh atu
Ġdhab naan
Ġdubb at
iÊ¼ an
Ġdhaabb annaa
Ġlaf oo
Ġkenn atan
Ġrakk isuu
fin nee
ĠC ivil
Ġajj eessuun
Ġji mmaa
Ġgagg abaab
ĠR addaa
Ġofii tii
Ġwalitti baq
od aan
el s
Ġuum ameen
Ġcim e
ud aan
Ġjalqab aatiif
ĠBar atootni
Ġtahuu tti
atuu dhaan
Ġerg aman
Ġdan ad
Wal abummaan
Ġsaam uuf
Ġdhaam u
Ġadeem saa
Ġduul anii
eey suu
ĠGod iina
ĠX il
ĠX uqur
Ġgan toota
Ġmadd ee
Ġhedduun is
Ġdhum anii
Ġhirm aate
Ġdheer aan
Ġmad eessuun
Ġamantii dhaan
Ġdhok suu
Ġbiyyattii tti
Ġhark isuu
Ġjiraatan is
Ġsod aatanii
aarr ii
Ġhooggan uu
Ġgor suu
pp it
Ġ199 9
Ġkaroo raa
ĠMar aaf
Gal gala
ĠSom aalii
Ġbas aasa
Ġras aasan
Ġdhuk aasee
ĠGar ba
Oromo Revolution
ĠmariÊ¼ achuun
ĠbabalÊ¼ ataa
isti y
Ġqaan essaa
Ġdhiph oo
Ġrif aatuu
wal itti
Ġwalq ixa
Ġtaasisuu dha
God in
Ġhindand ay
Ġergam tootni
Ġhaarom saa
ĠSBO n
Dhaab i
Ġgeggeess amaa
Ġkennuuf ii
Ġqindaa waa
Ġheg ar
ĠArtis ti
Ġgadhiis anii
Ġgurmuu lee
Ġkutannoo dhaan
Ġdoorsis uun
ĠIRR EE
Ġhaam lee
Ġgoch aalee
Irree cha
Ġbayy ee
Bulch iinsa
ĠTigiraay i
ĠFaransaa yii
Ġqabsaay ota
So daa
Ġjaars ummaa
ĠMokonn in
Ġdimokir aat
Ġhardh as
Ġsuukk anneessaa
ĠLeen jii
Ġdiimookraat essuu
ĠAmh ara
ĠGO GAA
araab essi
ĠKanaa daa
Hu jii
Ġbaaj ata
ĠHedd uu
ĠHaaj i
ĠHord ofaa
ĠKall acha
ĠArb aminc
Ġbebbeek amoo
gy pt
âĢ¬- (
Ġniyaad atama
ĠBirood kaastiing
tock holm
dep end
8 9
D ok
F ar
I tt
I DH
K Y
K FO
M AAN
M iidhaan
N agaan
N ammi
R eeff
U LFO
W araa
c ee
e ta
j iraa
o us
t oonnii
y in
Ã ĥ
ii ba
Ġk is
Ġd udh
Ġd inaa
at nee
am siisaa
Ġi ni
Ġb ey
ab sa
Ġg iddug
Ġg omb
Ġt aakk
Ġm oof
Ġm oh
in t
in atti
Ê¼ f
Ġkan iin
is na
oot e
aal iyaan
Ġqab aaf
Ġo deey
ĠA la
Ġl aakkof
ra him
ann oota
ĠB ook
ĠB aabb
Ġto k
ĠM ilis
ĠM aall
ĠM ek
Ġc itin
ĠG em
ĠW arraa
ĠD add
ĠD agaa
it zerland
ĠS en
Ġtur in
ĠI B
ĠH ur
ĠH aaw
Ġil man
Ġkun uu
Ġarg atiin
Ġhar Ã¡
Ġgal af
Ġbeek amtu
Ġdab allee
Ġgudd an
ars e
Ġij aara
Ġhojj edh
Ġhaa da
== =
tee ra
jii r
iÊ¼ eel
Ġmar iis
Ġdeem tan
ĠAm baa
te tti
Ġbul uuf
Ġfakk aatti
Ġaan uun
Ġdhal anne
Ġhedduu s
ĠR aabaa
Ġhim eera
Ġbarr eessitoonni
Ġkabaj amuun
Ġijaar s
ef i
ac k
Dh ala
Ġal aatiin
Ġmorm anii
Ġdirq amee
Ġdirq amanii
Ġgur baan
ta in
ĠWal ii
Ġqoo suu
Ġmurt eessu
Ġerg amanii
Ġdhaam e
Ġ4 7
Ġ200 3
ĠX aafaa
Ġjaarm iyaan
Ġball aa
Ġtol aan
Ġtol chu
Qab iyyeen
Ġmad aala
Ġbarsiis ee
ĠBiyy oolessa
Ġmootumm ootni
Ġmootumm icha
Ġdin naan
ĠGab aase
Ġhanq achuun
Ġhanq isuuf
Ġeegg ataa
Ġdach een
Ġsaaxil amanii
Ġgurgur aa
ĠqabsaaÊ¼ uun
Ġqajeel chuu
Ġcall isuu
Ġreeb amaa
Ġbeeksis anii
Ġnuu tis
je ttee
Ġjaall ummaa
Ġejj enn
Ġbeekk amuu
Ġtuq uu
ĠItti sa
Gal mee
Amm atti
ĠBir mad
Ġhubachiis anii
fakk aatuun
Ġhaara yaan
Ġdogogg oraa
Ġcin q
Ġdi pil
Ġgadh ee
Ġgeggeeff amee
Ġwallaal anii
Ij aarsi
ĠGum iin
ec ember
ĠAmaar aatti
Ġsirb uun
Ġgaazex eessitoota
ro ug
Ġdagaag ina
Ġbasaas ummaa
Ġqus achuu
Ġdhabb ilee
ĠKir is
Ġqindaa Ê¼ee
ĠPaar tiin
ĠajaaÊ¼ iba
Ġdhagees isaa
ĠjaÊ¼ amu
Ġkamii tuu
ĠUniv ersitii
Ġleenj isaa
Ġhirmaach uuf
AAT U
Ġhidham toonni
Ġayy oliif
Ġbaatan is
Gabr ummaan
eni x
ĠAk sum
Ġcees isuu
Ġhoon gee
Ġpro jektii
Ġpiree zidaantii
ĠGee tuu
Ġafaanfaa jjii
Ġsuukk an
Tuul amaa
Ġinvas timantii
ĠAnni yyaa
Kuf aatii
ĠAbdullaah ii
Ġdaaw Ê¼
ĠBirh aanuu
ĠBush ooftuu
ĠWAYYAAN EE
ocrati c
7 8
C al
C aal
E L
G umaan
G et
K abb
P osted
R SWO
T ana
U mur
a zex
f annu
f attee
g er
i wwan
j eeriyaa
o saa
s alph
t aamuu
am baa
Ġh ttps
Ġh eektaara
Ġb aannan
Ġb awuun
Ġg een
Ġj adh
Ġj illi
ir oota
Ġf aÊ¼
Ġm aaster
Ġdh ar
yy aalee
oot tu
umm aatt
Ġjir aatti
Ġn ur
aÊ¼ oo
aÊ¼ eera
Ġqab i
Ġqab uufi
Ġy un
Ġy aannee
ach ii
Ġl ach
Ġl aalle
ad iir
ĠB ull
ĠB oombii
ĠB iiraa
aar ik
saa m
Ġar ag
Ġwaan in
Ġbiyy ittii
Ġof tuul
Ġhund umaaf
ĠT u
ĠF id
ĠF arra
Ġgaaf ilee
Ġgaaf adhaa
ĠJ am
ay uu
Ġture dha
Ġuumm aatni
Ġr abbii
Ġr ec
Ġseen tu
Ġnam ota
Ġmoot ota
Ġij ollee
Ġhojj attoonni
ĠABO ti
Ġhub atin
Ġhub ataniif
Ġdhab siisuun
ĠL aaf
Ġbah i
aayy u
ĠE TV
ri c
ĠC ir
ĠC uf
Ġsan uma
Ġjiraat ani
nu tti
Ġal as
Ġuum anni
Ġoromoo tti
Ġfil ataman
arsii sa
ĠmulÊ¼ ise
ĠAdd ana
eff ama
Ġam alaa
Ġdabars inee
Ġqaam oleen
sh ii
Wal t
Wal tajjii
eeq a
Ġxumur ameera
ĠHar arii
eey s
ĠX iq
ĠGal m
Ġfakkaatu tti
Ġfaa jj
Ġmiidh uuf
Ġiyy ee
Nam ii
Ġmagaal ichaa
Ġhayy ootaa
ĠAfri k
Ġbarreeff amni
Ġleen jiin
Ġleen ci
Ġdin agdeen
Ġdhala dhe
Ġragaa dha
Ġseer aaf
Ġdarar aman
Ġkon s
Ġgurm eessuun
Ġhaas aÊ¼uu
Ġhaas aÊ¼uun
Ġdhaad atu
Ġhamaa tti
sit an
Ġdhagah amee
uus aanii
Ġguyy atti
Ġdhib deen
Ġfuudh u
ĠAbd ullee
gaaf fiin
ĠkaaÊ¼ uun
Ġtuff atu
Ġkaroor fatee
Ġdandah ama
ĠIj aarsa
Dhug umatti
Ġqabsiis e
ĠUm amaa
Ġid aÊ¼
ĠqophaaÊ¼ inaa
ĠAB BAA
An gaw
Ġlaat ame
Al l
az z
ĠmilkaaÊ¼ ina
Miseens oti
Ġgowwoom suuf
ĠEng lish
ĠSoom alee
Ġmammaak si
Ġroob ni
Ġmiliyoon ota
Hayy oota
Hayy oonni
Bilisummaa Oromoo
ĠqabsaÊ¼ oota
Ġcalaqq isu
Ġidd o
Ġboqot e
Ġgabaafame ra
Ġbaruum saa
ĠFir st
Ġkibb aatti
Ġhiis isaa
Ġbol ol
ĠAmeerik aaf
AQ AA
Roo rroo
Ġqabb anaa
Dabalee soo
ĠAra ddaa
ĠJim aata
iwaat oonni
ĠAsm araa
Ġwalfaan a
Ministi rri
ĠKos o
Ġbineen saatti
B aha
C aalaa
F aran
G iddu
K al
M angudd
N o
O TA
S uuraa
T ube
c il
d atti
d oon
f anna
h or
k il
m ootummaan
w uun
Ġ {
ii li
Ġk Ã¸
Ġb iif
Ġg aff
Ġj aÊ¼ee
Ġj iil
Ġm anii
Ġm aar
Ġm aati
Ġm urree
um p
Ê¼ as
Ġq accee
Ġs ulul
om ee
eess onni
ĠO L
is on
aaf ate
ĠA MM
Ġkeess aattii
aat aaf
aas ota
uuf ata
ra k
ĠB arri
ĠB uk
ĠtaÊ¼ en
eeny ummaa
Ġjedh amtuu
ĠM GS
Ġc oun
ĠG aarii
Ġtokk umman
ĠD as
ĠD ub
iis oo
ĠS O
ĠS am
ĠS IYAA
Ġtur aan
ĠH ang
Ġadd aas
ĠK eess
if e
if achaa
if toonni
Ġarg ateera
Ġdand eesse
ĠT arra
ĠT IK
Ġdur umaanuu
Ġhar oo
ĠQ OF
Ġbeek umsi
ĠJ iddaa
ĠJ iloo
Ġol iitti
Ġdar d
ĠU UMM
Ġx aaÊ¼oo
Ġdeeb itu
Ġhojj atamee
iy umaan
Ġmur atoo
ees i
ees inee
Ġfudh anna
AA MM
ĠL en
qab u
qab eenyaa
Ġboo y
Ġjab eenya
Ġyaad ne
Ġorom ootiin
Ġeeg nu
Ġrakk inoota
Ġibs ametti
ĠC aasaa
ĠC iroo
Ġaman t
Ġaman ti
Ġji b
Ġdhaab i
Ġdhaab ilee
ĠR eeb
Ġwaa d
Ġdarb eera
ĠkaÊ¼ ani
ash iid
Ġnaannoo tti
ĠSh agg
Ġfil uu
Ġdirq isiisaa
rratti s
Ġool uuf
Ġool chaa
Ġhamm eenyi
ĠBar liin
Ġaddunyaa tu
Ġlol tuun
201 1
Ġhoo kk
Ġmurt eess
Ġod eessaa
Ġdabars aniiru
Ġqaam an
ĠItoophiyaa f
Ġcaal e
Ġbit u
Ġadeem sisuu
Ġmirkan aaÊ¼ee
Ġgargaar ee
Ġwaam e
Akk i
Ġbobb aÊ¼u
Ġkam irra
Ġgamm achiisa
Ġgabrummaa tti
Ġban uuf
Ġgaggeeff amuuf
Ġball eessee
Ġajjees isaa
Ġtol uu
ukk een
iyoon aan
IN A
Ġcarraa quu
Ġhoggan aan
Ġhoggan oonni
Ġfac aasee
Ġmaq aalee
ĠIs poortii
Ġshakk isiisu
org is
Ġmurtii lee
**** **
ĠSad ii
Ġeegg ama
Ġgurgur achaa
ow er
ĠqabsaaÊ¼ onni
Ġtattaaf ata
je chaa
Ġwaliigal uu
Ġhumn ootiin
Ġshan affaa
Ġtuq ee
Ġkak aasu
Ġtarr isuun
Ġkom ish
Ġdhaqqab ee
ĠmariÊ¼ achuuf
Ġuff annaa
Mur tiin
Ġjijjir uu
Ġwalqab atanii
wal umaa
Ġgodaan u
Ġxin naa
Ġmuldh achaa
ĠNag eellee
Ġijaarr atan
ĠHir phaa
God aan
Ġeer aniiru
Ġbadh aatuu
ĠtoÊ¼ achuu
Ġqood anii
ĠMoh amed
ĠTas ammaa
ĠBeek ame
ĠDargagg ootaa
ho jii
Ġwaraab essi
Ġgowwoom saa
pl oad
Ġmisoom aatiin
ĠWayy aneen
Ġlallab an
Ġdubbif tan
Ġicc itiin
Ġbubbul aa
Ġilaalchis e
ĠMootumm ootaa
Ġqol achuuf
Ġgidir famaa
Ġmilkaaw uu
Ġkudhan ootaan
bir tuu
Ġqixx ee
ĠMoo sisaa
Ġbeekam neen
Ġgaman umaa
ĠGeet aachaw
Ġtasgabb eessuuf
ĠEeny ummaa
Ġmirkaneess aniiru
Jaarmay ootni
Ġgadhiif aman
ĠSw itzerland
Ġdoo faa
hund a
Ġbol ola
ĠDam bii
Ã©n Ã£
ĠTash oomaa
ĠToron to
Kitaab ni
ĠMulÊ¼ ataa
ĠQoo qa
ĠGAAF A
ĠWM O
ĠMaraa mmartoo
ĠDaj anee
Ġshall ag
ĠShif arraa
Ġkaans arii
ĠRad io
Ġnim ala
ĠApp aar
Ġfundur atti
foorm eeshinii
ĠHatatt amaa
jazii raa
7 7
I laa
K ol
N ovember
S ammuun
U DH
Y er
f annaa
g oon
m al
n uun
p iyaan
s ochiin
u pload
Ġ $
Ġ Ä°
Ġk ul
Ġk aatu
at nii
Ġh at
Ġg eessaa
Ġj ach
Ġt aatuu
um tu
Ġw ere
Ġq aamm
Ġs ay
Ġjir aannaan
aal uma
Ġis poortii
Ġqab eessaa
Ġqab aannee
Ġbar atuu
Ġwal taanee
Ġl uqq
mm an
iyy an
ĠB uqq
ĠM a
ĠM os
Ġc aalle
Ġc ivil
Ġgar m
att uuf
or oo
ĠD IIG
Ġar man
aq ee
it uun
it er
ĠH aati
ot as
Ġil l
Ġil ii
ol eessa
ol iberation
if aabb
ĠT amasgeen
Ġ1 000
Ġjech oonni
Ġbeek amoo
all aan
oom an
ay o
Ġgudd isu
Ġdiin om
Ġseen een
arr uu
Ġhojj ataman
dhaan is
Ġdhab achuu
Ġdubb anna
ĠdandaÊ¼ us
aann uu
ĠN I
ĠN aas
ĠY oon
oof taan
Ġbah in
Ġbah achuu
Ġjab eeffachuu
Ġbul maataa
Ġorom iyaan
qq aa
Ġdhal e
Ġdhal achuun
Ġdhal attee
Ġbaas iin
Ġaman teen
achiis tuu
Ġkabaj amaan
abb aan
âĢ¦âĢ¦ âĢ¦.
Ġjiraat uun
Ġmoo y
Ġdhii tee
ĠP DF
ax ter
Ġhamm ata
Ġtahuu tii
Ġfedh i
ĠItoo phiy
Ġlakk isanii
Ġdhug uu
ĠAb abaa
Ġqor ee
Ġqor atamee
Ġkuf uuf
Ġadeem uu
Ġ? ?
Ġmal uu
ĠMag alaa
Ġbobb aasuu
mp ire
Ġad iin
Ġxiqq aatee
ĠAl am
arii m
Ġtol chanii
Ġhaal u
Ġgadd isiisuu
Ġgadd isiise
Ġdhum ate
Ġhoggan toonni
Ġfac aase
Ġdhok atanii
Ġdhiyaa chuun
Ġdag atan
Ġfix anii
Ġmiidh amanii
Ġqabsaaw u
Ġwayy ane
Ġjibb e
Ġboon sisaa
Ġdabar famee
Ġtajaaj illi
Ġmurteeff anne
Ġxiyyeeff atan
Ġdhaad achuu
Ġtoof t
Ġwaliigal an
Ġsabab aalee
Ġaar ee
Ġtarkaanf atu
Ġ199 6
Ġqar ooma
Ġdammaq insa
Ġtik suun
Ġdog og
Ġlaal an
Ġshor oork
Ġargam na
Ġfar deen
ĠbaayÊ¼ inni
Akkas itti
Ġmidh aanii
ĠOr m
Ġjeeq ama
Ġtokkoom uun
Ġdhiph isuu
Ġwallaal uun
CH IS
Ġbilisoom te
Hir een
Ij a
Ġqalb if
ĠNam ummaa
Ġkaroor fatan
Ġrama duun
ĠAmaar aatiin
Ġlall aba
Ġlaaff isu
ĠIj oolleen
Ġshorork eessitoota
Ġfiig uun
iss aa
iss ion
ĠGo dh
Ġjee dhe
ĠMo haamm
Ġarii tiin
Ġgabaaf amaa
ĠGad aatiin
ĠWarraaq si
Ġeebbif amee
Ġkitaab ni
ĠBur uu
Ġbaraar u
Ġramad aman
Ġbuqqif amee
Ġlameen uu
Ġmat aatti
Ġwaraab essa
ĠajaaÊ¼ ibaa
ĠMiseens oota
Ġganamaa tti
áį £
Ġtams aasa
Ġmull ata
ĠSoom aaliyaa
Ġmaangudd oon
Ġsaan iin
ĠQaall uu
Ġdabarf anna
ĠJe cha
Ġhaadh olii
Ġhall uu
Ġmiliq ee
Ġarih aman
Jaarmay oota
Ġcichoom iina
ĠTel eviz
ĠComm unity
Ġkaamp ii
Ġsaal fii
ĠLeen j
aayir eek
Sim arsan
Ġabuk aat
Mammaak si
istan ce
Ġdheenga dda
Ġcirr acha
ĠYuunib arsii
Ġfollow ing
Ġeessan uu
yssin ia
epart ment
echn ology
ĠGalgal oo
ĠKoso vo
upload s
! ?âĢĿ
D uuti
E CH
F eder
F iil
I rr
L ag
M id
O PH
O DUU
d iyoo
g alli
i ga
i es
Ġ ph
uu q
at na
ti d
Ġg eeff
um e
in x
ch allee
Ġa ka
Ġdh aalee
Ġq ix
Ġkan in
Ġkan nii
is aniiru
oot atu
aal ummaan
ĠOromoo tis
Ġl e
Ġl aach
ann ooleen
aar e
ĠM ayyuu
ĠM eeshaa
or aan
ul ar
raa mp
ĠD es
Ġar f
lee yyan
ĠI tuu
ĠH arree
Ġgo vernment
Ġhund aaye
Ġdur famuu
ĠQ un
ĠQ annoo
Ġyaa Ê¼aa
Ġjech isiisu
Ġmalee yyii
ĠJ en
ĠJ und
Ġdab aan
ĠOromiyaa fi
akka suma
Ġhidh e
Ġdiin oota
Ġdiin nis
Ġdar ab
Ġseen aafi
Ġsab aan
ate tti
Ġso cial
Ġhojj attu
Ġhir amanii
Ġhir aaraa
Ġgodh achuudhaan
Ġdhab eef
ĠdandaÊ¼ aniin
ĠN uu
ĠL ee
Ġmar m
Ġmar een
ĠY eroon
Ġboo k
Ġti m
Ġti yyaa
te rror
Ġfakk aanne
Ġkenn ani
Ġkaraa rraa
Ġkaraa rratti
Ġhaf anis
Ġdhag eenyu
Ġbo f
Ġdarb ame
Ġsoch oon
ĠDh ib
ĠP ho
Ġmil iy
Ġwareeg amuun
Ġwareeg amtootaa
ĠBar een
Ġgabr umma
Ġgabr ummaaf
ĠmulÊ¼ anne
Ġdabal u
ĠItoophiyaa tiin
Wal abummaa
aaw a
Ġhaww ame
ĠMin ist
Ġsalph atti
Ġfalm ataa
Ġdhaq nee
ing v
Ġban tii
Ġfayyad a
Ġjaarm iyaalee
ĠGal aanee
Ġakeek uun
atamu s
Ġgalm eeff
Ġgam n
Ġgam agg
UU S
atam nee
Ġmaq suuf
Ġqabsaaw otni
ent s
ey saa
org ommiin
Ġbaan aan
Ġmirg aan
Ġhang an
Sh are
ĠbalÊ¼ ina
Ġmin ist
ĠJir ti
Ġdhagah ama
ĠGaaf ii
Ġmiid iyaaleen
ĠGar bii
Ġdhaqqab uuf
eed er
Ġdhukkub aan
ff aaf
Ġdhugoom uu
Ġuff atee
Ġuummat icha
Ġtuff atanii
wal abummaa
Ġawwaal ame
Ġnaq an
Ġdagaa gee
Ġcab sa
Ġeer uun
Ġeer ameera
Ġgodin icha
ĠWayyaan otni
Ġolaan aatti
Gaaffii lee
ĠdhagaÊ¼ ama
Ġtarsii m
Ġsodaach isee
gaan daa
Ġrukut taa
Ġcacc abee
Ġqarsh iin
Ġmurannoo dhaan
Ġwor aanaa
Ġjabeeff achaa
Ġsham arr
Ġaraar amuu
Sun is
áį ¡
Ġdoorsis aan
Ach irraa
Ol olli
Ġruku tee
Habash aan
ĠBal aay
Ġqol achuu
Ġgammoo jj
Ġdorgom an
Ġjag ni
ĠFinfinne tti
ĠTigr oota
Ġkubb aan
ĠADO n
Ġqixx ummaa
Ġayy ana
Ġfonqol ch
keess attuu
ĠOd eeffannoo
Ġtorb aat
Qor annoon
ĠHarom ayyaa
Ġlakkof sa
ĠSomal iyaa
ĠAmeerik aatti
Ġsibii la
Ġqur xummii
Ġangaw oonni
Ġwaard iyyaa
Barruu lee
Naann oon
Ġpoliti kaa
ĠObaa maan
ĠHararg e
ĠMog or
Ġkit aabaa
Ġmalaamm altummaa
ĠWaashing itan
ĠHuss een
ĠItiy ophiyaa
iliim ota
Ġkunt aala
Wo yyaan
itiz en
ĠSIYAA SAA
oliberation front
ĠPho enix
4 3
B AR
C arraan
D em
G aadd
I DD
J ijjir
K eenya
O C
W DO
k uf
k umaa
p ir
p oree
q een
r ary
t amaan
t otiin
w all
x ur
Ġ enn
Ġd aww
ar uun
at eefi
Ġg eerr
Ġj achuu
Ġj achaa
Ġj ooll
Ġt aak
kk ee
Ġm imm
Ġm ind
ch as
Ġa faa
Ġdh oh
Ġdh iiroo
Ġq ooll
Ġkan een
Ġjir aadh
aÊ¼ ani
Ġirr een
ĠA baa
Ġy Ã¸
ach aas
ach isuu
bb iin
Ġwal ootti
Ġl iigii
iyy oota
eef ame
Ġc iif
Ġc itee
ayy ii
af oo
as uma
Ġisaa tis
iis e
it taa
it too
ĠS add
ĠS em
Ġtur uuf
Ġgo dhaan
Ġamm umaa
Ġadd aatu
ĠK eelloo
ĠK UTAA
im es
itti n
Ġarg anneef
ĠT ikaa
ĠT aayyee
ĠT arreessaa
Ġdur sitee
tuu s
ĠQ arree
Ġgaaf i
Ġgaaf adhe
eeff annaan
ĠJ ijj
Ġseen aniif
Ġhaa yy
iy ummaa
Ġmur atee
ess ine
Ġhub ataa
Ġgodh in
Ġsir baan
aaÊ¼ aan
aaÊ¼ eera
ĠN aa
ĠN uuf
Ġsh amm
atanii dha
ĠL aatin
Ġmar i
ĠAm s
Ġdhuf tanii
Ġilaal amee
kaan a
Ġdhal chee
Ġp ilaaniin
ĠC aalii
ĠC affeen
Ġku tan
Ġaman uuf
Ġdhag aÊ¼u
Ġu p
Ġe mail
ak uu
Dh ag
Ġkaas uudhaan
Ġqoph eess
ooti s
Ġdirq isiise
Ġhor achaa
Ġraaww atamee
arsii moo
Ġyaada dhaa
Ġjalqab dee
ĠBar entuu
sis eera
Ġeeny umtuu
OO L
Ġlakk isee
Ġmurt een
Ġbaq atoota
Ġod eessu
Ġerg amee
Ġqor ataa
Ġnamaa ti
Ġnag eenyaan
ĠbaÊ¼ aan
ĠQab atee
ĠQab xii
Ġdaan gaan
boon ummaa
Ġ5 2
Ġ5 000
Ġbaaf amee
eey suun
Ġinjif achuuf
ic uu
eet iif
ĠOromummaa tti
ĠOromo tti
Ġtol famu
amuuf ii
Ġhaal duree
Ġdiig an
Ġakeek uu
Ġtaasif aman
Ġdhiyaa teef
ĠBiyy oonni
Ġboon suu
Ġbaan k
Ġdarar amni
Ġqawwee dhaan
Ġbarb adaa
Ġdhiif nu
Ġsuu raan
Ã£ l
Ġreeb ichaan
AL A
okr aasii
Ġdhuunf achuuf
AB AA
Ġdammaq uun
Ġdii ga
Ġdhukk ubbii
Ġmu daa
Ġmogg aase
ĠAs teer
Ġsim atee
Ġgub uun
ĠSabboon totni
Ġafur t
Ġdiinaaf is
Ġbilisoom suuf
Ġtuff atan
Ġdandah uu
gaÊ¼ iin
ĠIj aar
ĠIj ip
Ġpol ice
Ġhiyy eessa
Ġqeeq aa
Fakk eenya
ĠGo chaa
Ġqabsiis an
ĠEe bbaa
Ġful aa
kanaaf uu
Ġraww achaa
Ġmull atu
Bul chaan
Ġdhiib anii
ĠMaa ccaa
ĠSum aaliyaa
ĠqabsaÊ¼ otaa
Ġ!!!! !
ĠDi asp
ĠTasfaa hun
ĠNa irobi
Ġtasgabb eessuu
ĠBer lin
Haww iin
Miid iyaa
ĠWarq in
Ġatt amiin
Fur maatni
Ġcaas aalee
ĠAsoo sama
ĠMaz aam
ĠKirist aana
IB SA
Guyy uma
gab r
Ġdaddaaq amne
ĠHot eela
ĠUl f
ĠWand immuu
Jech oota
ĠHaayil amaariyaam
ĠKonkol aataa
ĠDook tar
ĠHR W
ky pe
ACHII SA
angu age
ĠShaakk isoo
4 1
9 7
F uul
M ay
Q ind
R agaan
W eer
W anneen
a ul
d aatti
f am
l as
s ag
u rraa
w it
w aatti
y iitti
Ġ ,
Ġ atuu
uu uu
Ġd ud
Ġd ameen
at atti
am aas
am aniifi
Ġg aal
Ġg atuuf
um sii
ch ool
Ġdh er
Ġq all
Ġs ol
ĠOrom ticha
Ġis aatuu
Ġn ab
Ġqab ana
Ġqab amtee
Ġqab duun
Ġhin aaf
anii ti
Ġo p
Ġo kk
ĠA I
Ġkeess oo
Ġwal j
Ġwal mar
amm as
ah us
er sii
ĠB iraa
ĠB uz
eeny uma
Ġjedh iin
ĠM AND
ĠM usliimaa
ĠG ob
att eef
att le
ul a
ĠW adaa
as ni
ĠS ay
ĠS tockholm
ot u
Ġbiyy ati
en sa
Ġarg ameef
ĠT oleeraa
Ġdhi dhii
ĠF edh
Ġgaaf atamanii
Ġgal tu
amee ti
ich ill
Ġyeroo s
ĠJ ala
ĠJ ig
oom biin
Ġdiin aggee
Ġr d
Ġmur atnoo
Kan af
Kan arratti
Ġdhab aniif
Ġdubb attu
Ġdubb isan
oof sa
Ġaan suudhaan
oor ii
ĠR aaree
Ġkabaj siif
Ġijaar amnee
Ġinni kkaa
el son
Ġal b
Ġmorm uuf
Ġmorm ina
Ġsag alii
Ġraaww achiiftuu
ggan oota
ĠQeerr an
ĠAdd ee
Ġgaaffii wwan
Ġdhug ee
Ġmurt eessoo
Ġbaq achuuf
Ġdabal uudhaan
Ġif ee
Ġcaal maatti
aaw aan
Ġadeem uun
Ġbad a
em ii
ĠX ii
Ġgamm achiisuu
Ġbuu te
Ġban ameen
Ġtan e
Ġball eessan
Ġtol cha
Ġtol utti
AN EE
Ġdhum iinsa
!!!! !
Ġmad aq
Ġtaasif amuu
Ġamantii lee
Ġirree cha
Ġcuf amuu
Ġdim shaash
Ġdag atu
ĠZ annuun
Ġwall agga
Ġbarsiis aan
Ġboon an
Ġyakk uu
Sh awaa
uni k
Ġbaayy inaan
Ġdid u
Ġsaaxil an
Ġmurteeff atu
Ġmurteeff achuun
Ġgor su
Ġreeb aman
Ġhumn ooti
Ġdhagah ee
Ġwol qabatee
Ġtik su
Ġkak aasuun
Ġkab eeb
Ġgarb ummaan
Ġsirr iin
Ġdhangal aÊ¼u
Ġabd atu
Ġhubachiis uuf
Ġyaadd eessaa
Ġgabaab suuf
Ġobbol oota
Hund umtuu
AD EG
gaaf atam
CH UU
ĠkaaÊ¼ ame
Ġguur anii
Ġmot umma
Ġfashal e
ĠMur na
Ġcich ee
Ġhujii rra
Ġsagan ta
Ġhamb isuun
Ġgalaaf atee
ty le
Ġtajaajil uuf
Ã¼ la
Wan tin
Ġmeesh aatti
Ġbarbaadd i
Ġrukut uun
Waaq a
Ġgadhiis ee
Ġáĭ Ī
Ġleell isuu
ĠVOA f
Ġmaangudd oota
Eeny utu
ĠJun e
Ġxinn aatullee
Ġbobbaaf aman
ĠAjaj aa
UM UR
ĠSii qqee
Ġint alli
Ġdanq uuf
Ġfokk ataa
io us
AAM ADUBBII
Hub adhaa
ĠInjif annoon
ĠNaay ij
Ġmid iyaalee
ĠKAN A
Ġwac aa
ĠBer gen
Ġhed uu
Miid iyaan
ĠMinis tera
Ġxayy aaraa
Ġdigd amii
ĠBitoot essaa
ĠIf tuu
ĠHogg ana
Ergam toonni
Ġsaal f
ĠADD A
Ġminis tera
nol ojii
ĠWalis o
Ġdhidh im
Ġabuk aatoo
Ġculul uq
Maar am
ĠHad iyyaa
out ube
Ġsossoh u
UMN A
ĠQophaaÊ¼ inaa
Ġbiyyal afaa
Ethiop ian
ĠTiwul idda
ingv oll
B ood
B asaas
D ald
I saa
K ir
K HR
M o
O SA
Q aan
Q ub
R abbiin
S uu
T aadd
f ajjii
i en
m uraa
o und
r oon
s aatii
t aas
u y
u cc
y oon
Ã Ń
Ġ oom
Ġ aayyoo
uu mma
ar b
am teen
Ġh ek
Ġh iddi
Ġb alee
Ġb ill
ab d
al cha
al ity
Ġg ate
Ġg eessuuf
Ġj aÊ¼anii
Ġm aj
Ġm anna
um uu
dh aloota
Ġa ss
ĠO P
Ġfi c
is te
Ġjir tuun
ur ity
Ġis aniif
aÊ¼ amaa
Ġbar ameera
Ġl aatee
ra ph
ad ay
ĠB asaas
ĠM AG
ĠM unaa
Ġc iisaa
ĠG argaarsa
Ġtokk ummaaf
ĠH aq
ĠH amb
Ġwar eg
Ġadd eessu
Ġil amaan
Ġof umaan
Ġtokko dha
Ġtokko rraa
Ġdand een
ĠT ingvoll
Ġhar argee
ĠQ ar
eeff annoon
Ġgal teen
Ġgal atoomaa
Ġbeek neen
amuu mm
ars uun
Ġol uu
aay reek
Ġr aasuu
Ġx iyyaa
Ġx ixx
Ġnam i
Ġnam ticha
Ġakk aata
aw uuf
Ġdhab uuf
Ġsir ban
Ġsh alag
âĢ¦ .âĢĿ
ĠY aadd
Ġdeem aniif
Ġdhuf utti
siis eera
Ġyaad uuf
Ġyaad uma
Ġyaad nee
eerr ii
Ġaan a
Ġeeg ne
ri k
Ġibs oota
Ġibs ama
Ġp ers
Ġbaas in
Ġajj e
Ġhaf tu
Ġhim amuu
Ġu j
chis uuf
ĠtaÊ¼ee tti
Ġisin if
Ġkaas aniif
ok sii
Ġfil atamaa
Ġhor atu
Ġraaww atamuu
ĠBar n
Ġjaar tiin
Ġduu m
Ġeeny un
sh inii
Ġdandeeny uu
irr uu
Ġ4 8
Ġbaaf nu
Ġaj aÊ¼
ter s
Ġul een
Ġul fa
Ġgamm achiis
Ġjaal al
Har ki
Ġijool le
Ġtol chuuf
Qab xiin
Ġgalm i
Ġmad eessan
Ġkut atanii
Ġgam na
Ġ6 2
Ġdag atamne
Ġhawaas aatti
ill aaseen
Ġlaaf ee
Ġach irratti
Ġyakk uun
Ġbaayy inni
Ġajaj i
Ġajaj aan
ĠHaw aasi
Ġreeb anii
Ġdu wwaan
Ġtarkaanf achaa
Ġdhibb antaa
Ġhab aab
Ġdug uugaa
Ġaww aall
Ġeebb isee
Ġdhuk aasuu
Ġoof uuf
bul tii
ĠAs mar
ĠSab ummaa
Ġdhaqqab uu
Ġsim atan
Ġsim annaa
ĠGudd oo
oc k
Ġbarbad eessu
Gar b
Ġtokkoom anii
Ġtokkoom suuf
Am er
Ġnaq uu
ĠfeÊ¼ amee
Mis eensi
ĠMur ti
Ġgabb isuu
lamm oota
Ġqun nam
Ġtarsii moon
Ġjee cha
ĠAkk am
Ġqaqqab ee
Jir eenyi
Ġgabaaf amee
Ġsob anii
ĠJal qab
tor y
Al agaan
Ġramad amee
ĠKabaj a
Dargagg ootni
Ġgadhiis an
Ġjum ulaan
Ġweerar toota
Ġobbolee ttii
ĠFal maa
Ġquuf ee
Ġsin iif
ĠMallas aan
ĠYun versiitii
ĠUN ESCO
Ġraab suu
Ġfuldur att
ĠSo ss
Ġkil o
Ġdemokr aat
Ġbaar age
ĠTokko ffaa
Ġakeekkach iif
ĠBo bb
Ġqac alee
OF C
Ġxuu xx
Ġegal an
ĠDuÊ¼ a
Ġlakkoob si
ĠShaa biyaa
Ġkaleess as
Ġciniin n
jechuu dhaan
áĮį áĪµ
Ġaddun y
ĠYuun varsiitii
Ġhubadh utti
Ġwoyyaan ee
Ġwaldhab dee
Ġrukk ut
Ġwer eeg
tik sii
Ġbakkayyuu tti
ĠMIR KAN
qabeess ichi
Tof taan
darg agg
irman s
4 30
5 8
A ugust
B all
E W
H G
I Ê¼
J uly
M oh
Q aall
T EE
X iinx
d annoo
h al
k uma
m aatii
q iin
u xx
w ey
x iqq
x afaa
Ø ±
Ġ ï
an yaa
Ġk aayee
Ġk oollejjii
ar anii
at aatiin
am alee
am en
Ġh absh
ti ttii
Ġb id
Ġg ummaa
Ġg ess
Ġg inni
Ġg ooroo
Ġj aat
Ġj amaa
Ġm ang
Ġw r
ss u
rr oon
is us
ur u
Ġis anitti
dd u
Ġn aam
Ġqab xiin
ĠOromoo dhaaf
ĠA na
ĠA ugust
ach isaa
Ġbar umsi
Ġl o
Ġl ead
amm u
ĠB l
ĠB ay
ĠB aga
ĠB aad
Ġto tt
ĠM ogg
Ġc ac
ĠG r
att onni
Ġirraa yyis
Ġar ar
uf ee
ĠS ee
ĠS iif
ĠH urr
ĠH aqa
ĠH AB
Ġbiyy ootii
Ġadd eessuun
Ġarg amaniiru
ĠT eessoo
ĠT aamm
Ġdhi g
ĠQ arriffaa
Ġgaaf adhu
Ġdha y
Ġbeek e
ĠJ arri
ĠOromiyaa tii
Ġdar aan
Ġr aasee
ĠU g
ĠU LFOn
Ġsab l
Ġsab oon
Ġsab ummaan
Ġsab lam
Ġmir mir
uÊ¼ uu
Ġhir ira
Ġmur uu
Ġgab ir
Ġgab ra
Ġni g
ĠN an
idd ii
AA S
ĠL uba
qab soon
Ġgah iin
Ġti me
Ġbul anii
Ġdhuf ani
Ġjal d
Ġkenn inee
Ġkenn ameefii
ĠE d
Ġaan anii
Ġtaan kii
Ġdhal chaa
Ġsad itti
Ġkanneen ii
Ġdhaab annee
Ġdhaab onni
ĠR ead
Ġfuf nu
Ġijaar tee
Ġwaa jir
id th
Ġdarb eef
Ġjiraat te
Ġsoch i
Ġkaas ne
el aa
Ġal att
Ġoromoo s
Ġtaane tti
saan i
Ġool cha
Ġjalqab aati
Ġdhih aan
Ġdhih ootti
ĠWal gaÊ¼ii
Ġgabr oof
Ġduu baatti
of ne
ĠgaÊ¼ anii
eff atee
Ġbaq a
Ġwajj i
Ġwajj umaan
ĠAf uura
ĠWBO tti
Ġdabal uuf
Ġnyaa ttee
tin is
Ġsaam ichi
Ġdhaam aa
Ġdhaam saa
Ġmirkan eeffachuu
Ġbarbaachis ummaa
Ġxumur uuf
Ġhaww uun
Ġbad aan
áĪ ®
Ġdhaq a
Ġfag eessuu
ĠAl jaziiraa
Ġball eessii
======== ====
Ġgabaas ame
cc ee
Ġlabs anii
Ġiyy annaa
Ġ7 00
Ġbor is
aÊ¼uu di
Ġjibb iinsa
Ġqof arratti
Ġbiratti s
Ġbaan eef
Ġmax an
Ġgurm aaÊ¼
Ġfir ummaa
Ġsuu ra
Ġbay Ê¼ee
Ġmin iliik
Ġmaxxan sa
Ġhumn aatti
AM U
ĠSom alia
Ġkak aÊ¼
Ġfuudh uu
Ġdhugoom u
ĠGudd isaa
ĠSabboon aan
Ġqaan qee
Ġafur iif
Ġuummat aatti
Ġkaaf ame
Ġtoo kk
Ġfaay idaan
Ġdorg omm
Ġdhoo suun
Ar sii
IR A
tr y
Ġbirm annaa
Ġmij eessuu
Ġxiinx alee
Ġxiinx alaa
Kuni mmoo
ĠTV O
Ġut uma
Ġdhaadannoo lee
ĠMo joo
Ġkaa ppit
Ġrukut anii
Ġfakkaat tu
Jaal alli
É¨ n
Mar ch
Ġdull acha
Ġakaak ayyuu
Ġmadaal amu
ĠSal aale
Ġraab saa
ĠBAR A
ĠBak akkoo
ĠFederaal istii
ĠBal aal
ĠSuu raa
Ġhiikk aan
ĠMaq d
AAM SA
Ġqabsiif amee
ĠsossoÊ¼ an
Hub addhaa
ĠSaa xil
Ġfacc isuu
Ġhax xee
Fal maa
ĠShan an
ĠKoon soo
Ġargisiis an
Ġreef u
Ġreef uu
Ġcalqab e
ĠsiÊ¼ anaa
ĠNyaa ta
Ġtin Ê¼
ĠBoon saa
Ġariif achiisaa
Poolis iin
Ġjalee wwan
Ġgaaz zex
Ġculul uqaa
ĠElem o
ĠUni ted
Ġkeeyy ata
ĠIntarnee ta
Ġfayyaale yyii
ĠHirph asaa
ĠMAND IISUU
5 1
A yy
D al
M AA
M ak
M aastar
M aandeel
N an
S ammuu
T E
U Ê¼
W e
c tion
h ama
j eek
k ool
q alaa
t otii
w ummaa
x xee
Ġd ay
at ooti
am ta
Ġh oomaa
Ġh aallii
Ġb af
Ġb aallii
ab aaf
Ġg aab
Ġt eessan
Ġm eet
um u
Ġw axabajjii
Ġdh ir
ss i
eess aaf
ĠO too
Ġn aqaa
Ġirr aattii
Ġhin oolle
Ġo ver
ĠA dii
aas oon
amm ir
ann an
ad is
ĠB aal
ĠB aakk
eef achuun
saa y
ĠM alaa
ĠM es
ĠM ass
ĠM QBO
ĠM ain
ĠG ot
ĠG ala
as uun
ĠD ogogg
ĠD ifaabb
iis anii
ĠS aal
ĠI I
ĠH eeraa
ĠH aalli
ot tan
im oon
Ġarg attanii
ĠF reedom
Ġgaaf uma
Ġbeek amtuu
ummaan ni
Ġdar aaraa
Ġakk anni
Ġmir qaan
aw e
Ġhojj ii
iy aal
Ġmur naa
ess un
ess it
ĠN oor
Ġsh eekk
Ġfudh ataniif
ĠL oon
ĠL amaan
iÊ¼ amee
Ġmar tii
Ġdhaabb annoo
ĠY ug
Ġlaf arratti
Ġdeem tee
Ġjab aatuu
Ġaan icha
Ġibs amaa
Ġdhal ataan
ĠC arraa
abs ee
Ġdhaab atti
Ġdhag eeff
Ġdhag aÊ¼uun
Ġhim ne
aggaa yee
Ġbo h
Ġbo na
Ġbo daa
Ġkabaj ee
Ġe l
Ġe bb
Ġqoph aah
ĠP olis
Ġuum ne
Ġhojje tootni
Ġool tee
Ġool aniiru
Ġjalqab uuf
Ġdhih eeffatan
of te
Ġfedh es
ĠAr t
utti s
Ġdhug u
Ġdhug oo
Ġmurt eessuun
Ġdabars aaf
ĠAf ro
Ġdabal atu
sh aan
sh anee
Ġfur uun
Ġqor atamaa
Ġnyaa ph
Ġcaal aatt
Ġyaal eera
Ġkuf te
Ġkaan itti
Ġmirkan eessina
Ġ? âĢĿ
Ġduul e
ĠMin s
Ġfalm atuu
Ġjijjiir e
eey suuf
Ġbuqq aaf
Ġbuqq aÊ¼u
ĠX iqqaa
Ġqabne tti
Ġxiqq eessee
ĠAl g
Yoo s
AN IIF
ĠGal gala
Ġdhum ne
Ġhirm aachaa
Ġdheer tuu
Ġjett iin
aash in
Ġyoom i
Ġum na
ook sii
Ġboon a
Ġ9 9
omm uu
Ġdhala dhee
Ġsod aatee
Sh anee
Il ma
Ġajaj oota
Ġgay ii
Ġ199 4
AB UT
Ġdii ni
Gal mi
Ġjiranii dha
Ġgarb oomf
ĠGuu taa
Ġgalch ina
Ġdanday ani
AD DA
ĠBilis umaa
Ġbood aatti
ĠEr gam
Ġuummat ichaa
Ġqabsoof ne
Ġtuff atamne
Ġdeddeeb isee
ĠYuniv arsiti
Ġdham sa
Ġgabb ataa
ĠWayyaan otaa
ĠUmmat atti
Ġdhun g
San aan
ĠDab alaa
Ġbaree chee
Ġimpaay arittii
Ġbuqqif amaa
Ã¡ a
Ġqabatamaa tti
Ġdhagees isuuf
Ġleell isan
Ġmilkii dhaan
Ġbiroon is
Ġguddif achuu
Ġwalqixx ummaan
Ġlakka ww
Ġquuq amu
ĠMuk tar
Ġheedd u
Ġst ruggle
buÊ¼ aa
Ġdeebis nee
Gaafii lee
ĠGim iraa
ĠUr g
ĠDhug aan
Ġbadd ee
Ġgaragar ummaa
Ġidd a
Ġmuf ii
Ġmulq ame
Mootumm oonni
Leenc oon
keess attu
Ġbayy an
nyaa taa
ĠMed rek
Ġqophaaw e
ĠFin f
ĠEeny u
ĠEj eree
Ġduun ee
Ġxinx al
Ġdam boo
Ġargin eerra
Ġijibb aata
Ġlammaff aatti
Ġkorm aa
ĠPool isa
Ġcallis nee
Ġhubadh etti
Ġmoggaa tti
Ġfudhatam een
Ġboodd een
Ġtarkan fii
ĠQabsaaw ota
Ġeger een
ĠMiil jalee
Ġhog barruu
Ġbaand iraa
cl ud
Ġbeeyl ad
inf o
ĠDod olaa
ĠGabb isaa
ĠEthi o
ĠGoojj am
ĠJunedd ii
Ġkokk ee
ĠIF LO
ĠQeey roo
minist araa
ĠWF DO
ĠBuz un
Ġtott ol
6 0
A g
D n
J II
M ul
M allatt
N ew
P ire
P ost
Q ooda
S af
S abaa
T his
k in
n iifi
o jiin
q anii
r aaf
r iyaa
s al
s ammuu
w anni
w aggaa
Ġ rom
ii v
Ġk e
Ġk ahe
Ġb anne
Ġb ayaa
Ġg e
Ġg afa
Ġf orm
Ġf ooy
um b
in iis
dh ok
Ġw aat
Ġw ater
Ġdh isee
Ġs ur
Ġs ek
Ġkan allee
is isaa
umm ati
Ġis aafi
Ġn e
Ġn ew
Ġqab adhee
ĠOromoo o
ĠOromoo dhaa
ĠA ammad
aat amaan
il k
Ġl aalee
ad em
ĠB alee
eeny an
Ġjedh am
Ġgar ummaan
ĠG oon
Ġisaan uu
Ġisaan irratti
ĠD ees
Ġar daa
ĠS iyy
Ġgu ca
Ġbiyy aafi
ĠK aas
ĠK aam
ĠK uma
if ii
Ġhund atu
Ġarg is
ĠT ajaajila
Ġisaanii rratti
Ġisaanii llee
ĠQ B
Ġgal leef
ars haa
Ġnam aafi
Ġnam tokk
Ġmoot iin
Ġdeeb itanii
Ġmur ti
Ġgodh ani
Ġdhab uudhaan
Ġdubb atti
ĠdandaÊ¼ ani
ĠdandaÊ¼ ametti
ĠN in
ĠN uur
ĠY ork
ĠY aaÊ¼ii
ĠY UUS
Ġjab eess
ĠtaÊ¼uu tti
dee bii
ĠE EG
ĠE urop
Ġeeg anii
ri b
Ġtaan een
Ġibs itee
Ġp iroo
Ġdir r
Ġdir re
Ġbaas i
Ġsan arraa
Orom ootni
ĠR aab
Ġlamm iif
abb ilee
nu ti
Ġqoph aaye
el f
Ġfil anne
Ġbarbaad aniif
Ġdirq am
Ġkee tti
Ġhidhaa ti
Ġlol tummaa
Ġfayy uu
ĠAb eeb
Ġerg amuu
Ġdabal e
Ġfur mata
Ġabb an
Ġbit atee
Ġbit tootaa
Wal d
Ġsaam sisaa
aaw uu
Ġ4 4
Ġaf raffaa
Ġdadhab ame
ĠHar amm
Ġ5 8
ĠAd maasuu
áĪ °
eey sanii
ĠIn jiin
Waan ti
ic ine
uk aat
Ġtol fachuu
Ġdiig amaa
Ġcarraa qu
Ġmad aay
ĠTokk oo
Ġcuf an
Ġan jaa
Ġum ame
Ġ6 00
Ġlabs u
Ġdeegg arsi
Ġbarsiis otni
ĠIb rahim
ent ral
Ġjibb iinsaa
Ġdub atti
Ġhordof uuf
Ġbil aash
ĠHabash ootaan
Ġargaman is
Ġgoon fachuu
Ġgoon fachuuf
Ġhaas aÊ¼aa
tar oonni
Ġukkaam amee
gal eessaa
Ġwaliigal anii
Ġsabab iin
Ġtarkaanf atee
Ġdhagah amuu
orom oliberationfront
Ġejj ennaa
Ġmak amaa
Gal iin
Ġtaph ate
Ġsirr eessaa
ĠFeder aala
Ġdhuk aas
Ġdedd eem
Ġhind ubb
Ġwaraan atti
Ġmogg aas
Ġwagg ootii
Ġargam siisa
Ġhojjachuu dha
Hund ee
ataman i
Ġkadh achaa
Ġtokkoom an
Ġmas een
Ġquu c
ĠariÊ¼ ee
Ij aarsa
ĠkaaÊ¼ an
Ġweer aree
Ġgodaan ee
Ġdham dh
Ġdubbachuu dhaaf
Ġbarat oonni
Ġcich an
Ġxiinx aluu
Ġdimokr aasiif
zidaan tichi
uum sa
Ġsirb i
Ġxax amaa
Ġqondaal tota
Ġdadd ab
Dhaab oti
ĠDii m
Ġfun aann
Ġkuff isee
Ġhundeeff amee
Ġbaree da
ĠMul ataa
Ġmurtee y
Ġfaash isti
Ġ196 4
Ġdhaw aataan
Ġyomm u
Ġdhabam siisaa
Ġlukk uu
Ġhirmaan ne
ĠYun v
Ġarrab ni
ĠBAR BAA
Ġiti taa
ER ATION
Ġyuniv arsiitii
Ġpr of
Ġdaang eff
Ġadam sanii
Ġfaffac aanee
ĠDi aspora
Ġkaab in
Ġdhaabbat ichaa
Ġsochoo suu
Ġqaxxaam uree
ĠBuÊ¼ aa
Sheek ni
Ġgubb atti
Ġargisiis uun
Yuuniv ersitii
Ġgaag aÊ¼u
Ġbittinn eessaa
ĠSomal iland
Ġjaj ab
ĠGib ee
Ġkorm a
Ġkoot taa
Jun e
Ġhiriyy oota
ĠAraar soo
ĠSoo ddoo
Ġshim ala
:::: ::::
ĠAbdur ah
Ġhalee lee
Ġmakmaak sa
ĠFiil mii
Ġdool ara
Ġelek ti
Baqq alaa
Waaqeff annaan
Ġos oma
Ku taan
ĠIJAAR AME
Ġaga inst
Ġhegar eef
Ġtaakk uu
A raa
A ID
C C
C unqur
H eerri
J ala
M eeqatu
S al
S II
S eptember
T ur
U r
W allee
X iyy
b oota
b ah
c tive
e da
f il
g uun
g af
g aree
k on
k ariim
m ul
o bbo
p aar
q alloo
u tee
Ù Ī
Ġ ~
Ġ ================
an sii
oo p
uu d
Ġk n
Ġk aat
Ġk ootiif
at un
Ġh aallan
Ġb iir
Ġb udd
Ġb aannus
Ġg aala
Ġg ichill
Ġf eÊ¼ee
Ġf reedom
Ġt am
Ġm ay
in jif
ch aas
dh abbii
Ġw ork
Ġw Ã£n
Ġw uyyaan
Ġq adaa
om suu
om eetira
eess o
ĠO bb
ag d
Ġo dd
ĠA pril
Ġje t
aas aatti
Ġwal ittii
Ġl aman
Ġl aannee
ĠB aall
ĠB eg
ĠM ooraan
Ġc ubbuun
ĠG UU
ayy uun
ĠW aggoota
ĠW AAN
ĠD o
ĠD EE
Ġisaa rra
Ġwaan caa
ĠS ammuu
ĠS amb
ĠS aÊ¼uudii
Ġgu ban
ww iin
ĠK if
ĠK ib
ĠK aleessa
ĠK uyyuu
Ġarg atuun
Ġdand eessa
Ġdand eessuu
Ġdur suun
Ġhar awaa
Ġgal fachuu
Ġbeek aas
ĠJ uun
ĠJ ann
Ġab adan
oom aasii
Ġsab i
Ġsab ichaaf
uÊ¼ uun
Ġin naa
Ġgab bar
ess ina
jii ra
ĠN af
Ġra shan
Ġdhaabb adhaa
oof si
Ġbah iinsa
Ġjab ana
Ġjab bii
Ġfakk ataa
Ġdhuf ti
Ġjal aatiin
Ġkenn aman
Ġguu tan
Ġaan gaÊ¼
Ġorom ootiif
Ġibs uudhaan
Ġaman am
Ġajj es
Ġdhaab olee
ĠR u
ĠR agaa
Ġdhag eenya
Ġhim achuun
Ġbaratt ota
ĠOromoon is
Ġu ni
Ġkabaj nu
Ġmis h
ac t
Ġkaas aniin
ĠSh ash
Ġcim nee
Ġmorm i
Ġfil aman
Ġraaww ata
Ġraaww atuuf
Ġool tu
Ġool chan
Ġjalqab uun
Ġgarg araa
ĠWal iig
ish e
Ġfal ma
urr een
Ġeeny uf
ib aluu
Ġqabs ichaaf
atuu s
Ġnyaa tti
Ġbit achuuf
Ġyaal aniiru
Ġbif oota
Ġdhaam ne
Ġgargaar aman
Ġaf oola
Ġmal een
Ġxumur amuu
Ġbuqq isu
Ġinjif atu
ĠX ilaa
Ġham lee
Ġfag eessee
Ġfayyad am
Ġjaal achuu
ĠOromo s
moo raa
Ġgan uu
Ġtol fatee
Ġtol chan
Ġhoj achuu
Ġgadd uu
Ġdhum atee
Ġfac aÊ¼aa
Ġdhok ate
Ġmiidh ee
ĠWall o
ĠWall agaa
ĠZ aw
Ġqabsaaw uun
Ġajjeef amaniif
Ġog eeyyii
Ġdhimm ootii
Ġboon sa
eÊ¼ een
Ġqind ees
ĠGab aasaa
AAN A
Ġhanq inni
Sh aggar
Ġhiriir suu
Ġhaas aan
Ġagarsiis anii
Ġkeen iyaa
ĠbalÊ¼ oo
Hum naan
Ġdhaad atan
Ġreeb ee
Ġjajjab duu
ĠJir aattonni
Ġdeeggar saa
Ġdegg arsa
Ġdhabamsiis u
Ġdhabamsiis anii
Ġtarkaanf achiisuuf
Ġdhagah e
Ġtuq aman
Ġdii gg
ob ile
Ġhinqab du
Ġwaraan aatiin
Ġobbol aan
ĠGar b
Ġang afaa
ĠSab aatti
Ġbuuf at
ĠGudd ina
Ġgub e
Ġjeeq aa
Ġuff achuun
Ġrif ate
Ġkess aatti
Hir maat
ĠkaaÊ¼ anii
Ġlag atee
Ġgoww ummaa
Ġawwaal amee
ec ted
yi dii
Ġgonk uma
Ġtajaajil an
Darg iin
Ġhaarom suu
Ġgabroomf attuu
Ġsodaach isuu
Haw aasti
ĠDar b
Ġsamm uyyaa
Hidh aan
Ġsadd eetii
Ġarrabs uun
Ġhacuu caa
Ġdig rii
Ġliqim s
Ġmurtaa Ê¼e
Ġsee xaa
ĠRaad iyoon
Ġwalga yiin
Ġgalf achuuf
Ġhinbeek amne
ĠJab aatee
Ġkil abii
usti ce
go dh
Ġsukk ann
ĠQan anii
barr uun
ĠJIR U
Ġkunuun sa
Mootumm ootni
ĠMorm iin
Ġxiinxal uun
Ġboqot an
Ġkaadhim amtoota
Ġmirkanaa we
Tig ree
Ġpl aanii
Ġhalag aatti
Gum ii
Ġdoorsif amaa
Ġek eraa
Guyy oota
Erg asii
ĠHO JJ
ĠAK M
ĠCaal tuu
ĠDUR ADUBBII
taay id
Ġqoqqood anii
Ajaj a
Bit tootni
Ġceen e
Ġqabaach u
ĠMumm ee
ĠAss ociation
ĠSolom on
Ġbinee yyii
Ġdiyaasp ooraa
ĠBurr aayyuu
En naa
Tattaaf fiin
Ġwalaab uu
ĠAdee t
ĠLaaf too
ĠMohaamm ed
poree titti
% )
B adh
D i
K ara
L aga
M ii
M at
M uk
N or
T BOJ
Y aanni
b il
b ay
d im
e thiopia
g h
g ad
g or
j aarm
k uu
l ag
m aya
n isaa
q uuf
w o
Ġ Â
Ġ anii
Ġ 00
oo jjii
ii dha
Ġd iqq
am si
Ġh ac
Ġi de
Ġb adde
al iz
Ġf annoo
Ġf alaa
Ġt eenyu
Ġm aayii
Ê¼ inaan
dh iif
dh aafi
Ġa soo
Ġa pp
Ġq alee
Ġkan aatiif
ĠO DUU
is ni
Ġjir eenyaaf
iin uu
dd aan
Ġqab dii
Ġqab ateen
aaf ne
aaf atee
ĠA al
âĢ ³
Ġy oot
il laa
Ġwal Ê¼
Ġwal dura
er ii
er sa
ĠB us
eeny af
iyaa m
saa ti
att oo
att us
or an
ĠW ix
ĠW aaj
ĠD iig
uf is
ĠS c
Ġtur aa
ĠH iyumaan
Ġwar d
Ġbiyy ii
en yaan
if fa
Ġarg een
ĠT aaÊ¼aa
Ġdur s
Ġgal etti
ich aatiin
Ġbeek totaa
ĠJ I
Ġdab ni
oom uun
Ġol oola
Ġr oor
ĠU laa
Ġhaa ww
iy oolee
Ġmur ame
Ġhub ateef
Ġgodh eef
Ġfudh attu
Ġmar raa
Ġbah aan
Ġbul tootni
Ġjal ati
ĠE mbassy
eerr e
Ġorom ummaan
Ġp ass
ĠC aa
ĠC on
ĠC aboo
Ġsad ark
si den
Ġhim nee
Ġu tu
Ġbo k
Ġmis ees
ak e
Ġqoph ee
ĠDh ukk
Ġuum ataa
ĠSh im
Ġaa ddee
Ġbarbaad etti
Ġdirq amu
Ġgur baa
Ġjaar si
Ġlol uuf
Ġlubb uudhaan
Ġeeny umaa
ĠAdd aan
Ġdhug ooma
Ġam ba
Ġam alli
Ġod eessuu
Ġdabars een
ĠHab taamuu
Ġdabal ate
Ġqor attoota
Ġabb ummaa
Ġyaal ame
Ġbulch oota
Ġbulch ina
irr oo
Ġkeeny an
Ġxumur uun
Ġbad anii
ĠQBO tiif
Ġ5 4
Ġsalph isu
Ġfalm annu
Ġbobb ah
ĠX ayy
Ġhal oo
Har argee
Ġball eessanii
Ġgand i
Ġgod an
Ġdiig ame
ĠGal mee
Ġmad aaÊ¼uu
Ġjett a
Ġtaasif atanii
ĠTig ra
ij aar
Ġfac aÊ¼u
Ġdhok saatti
Ġan aann
Ġsaanii ti
Ġmiidh amee
Ġukk aan
Ġwall isaa
Ġmagaal otaa
ĠtaaÊ¼ a
Ġqof as
Ġulf aatu
ĠHo ji
Ġdhiif na
Ġgurgur u
Ġgurgur ee
Isaan iis
Ġsirni chaaf
Ġjabaa dhaan
Ġman aatti
ow aa
ĠqabsaaÊ¼ uuf
atiin aa
Ġ199 5
Ġtuq a
AM EE
ĠSom aal
Ġkak aas
Ġfuudh uun
ĠHay le
ĠBir itaaniyaa
Ġdubbatan itti
Ġob suu
Ġwalt ajjiin
ĠGoot oota
Ġdogogg ore
Ġbaatii wwan
ĠbabalÊ¼ atu
Ġjeeq uu
Ġgeggeeff ameen
Ġmas aanuu
Ġdhaggeeff atee
Ġdhaggeeff achuun
oos haa
Ġtasg abii
gaaf a
Ġqabsoof nu
Ġkaf alee
ĠYuniv arsii
Ġnaq uun
beek aa
Ġdham aÊ¼u
Ġgaraagar aan
him aan
áĮ ĭ
DH AA
Ġbarat ooti
Ġjedhuu ni
Ġduratti s
Ġhindand eeny
har ka
ĠhirÊ¼ isuu
Ġhaarom s
Ġlakkaaw amee
ĠqophaaÊ¼ uu
Ġkallattii dhaan
Ġjiraan nee
ĠAB D
Ġjedhamtu tti
ian s
Ġkumaat amni
ĠBaq alaa
Ġgeggeess een
Ġqaanii dha
ĠmilkaaÊ¼ u
Ġdamee lee
Beek toonni
Ġtiif ii
Ġliqim see
Ġnuf fii
Ġsablamm ootaa
Ġbobbaaf tee
Ġhindh ibu
Od eessa
pr ess
Ġwaal taa
ĠolÊ¼aan aan
ĠSii daan
ĠRakk oon
Baq attoota
Ġharra s
Ġfuu tee
Ġfo xx
ĠHaay ile
ĠHaay iluu
Ġ!!!! !!
Ġhom aayyuu
Ġfuun dura
Ġdhukkubs atee
Ġinter net
Ġgaafat na
Ġgaafat amni
hoo gganni
Ġgudee d
ĠSaam uÊ¼eel
ĠlakkaÊ¼ amu
Miid iyaaleen
gen ocide
Ġxum urri
âĢĶâĢĶâĢĶâĢĶâĢĶâĢĶâĢĶâĢĶ âĢĶâĢĶâĢĶâĢĶâĢĶâĢĶâĢĶâĢĶ
ĠMuu ssaa
ĠFed araalaa
Ġigg it
Ġwh ere
Ġgorr aÊ¼
ubli ka
Ġukkaams aman
Fedh iin
Ġkoot tu
Ġsurr ii
PH IYAA
Waajj ira
Warraaq sa
ĠBall aammii
ĠItt aanaa
ĠDammaq saa
Dabalee s
Pr of
Ġkool uu
ĠGamtoom anii
Dhukk ub
Dhukk uba
Muu xannoo
Ġjilbiif f
Gaash uu
Kolon eeff
ĠILAAL CHIS
erv ice
ĠIraa q
Ġgadif ageenyaan
ĠDess aal
ĠAmeric a
Get achew
ĠMazaam ir
wit ter
ĠWadaa joo
ĠDees kii
ĠILAALCHIS EE
5 7
5 00
6 8
G aa
H eera
K om
L iyyuu
L afee
M ud
Q ormaata
S aÊ¼aa
S ob
W H
W On
b soo
e rraa
h aw
k s
m aqaan
r ed
Ġk ootu
ar u
ar een
at amaniiru
Ġh aatii
Ġb aall
Ġg ey
Ġj imaa
Ġj ahan
Ġf am
Ġt ran
Ġm iya
in too
Ê¼ in
Ġq ehee
Ġs eek
een ii
om suuf
ĠO B
yy een
Ġqab aatiin
Ġqab aataa
Ġqab uudhaan
Ġbar um
Ġl oq
er t
ad u
ĠB un
ĠB aatuu
ĠB akki
ĠB IYYAA
iyaa ssaa
ĠM O
ĠM aay
ĠM aand
Ġc iisa
ĠG ool
ĠG alaa
ĠG amni
ĠG ootummaan
ĠG idaa
ĠG AD
ĠG eneral
Ġtokk ooti
Ġtokk eessoo
ĠW or
as uuf
ĠD iyaasp
aq ii
it si
it ary
ĠS iir
ĠS iree
ĠI cc
ĠH ala
ĠH arg
Ġho kk
ĠK uul
ĠK umsaa
ĠK UN
im iin
Ġtokko ffaatti
Ġhund aatuu
Ġarg ataniif
ĠT raamp
ĠQ ond
ĠJ oon
Ġgudd isan
Ġdiin otni
Ġseen nu
Ġx ir
ĠâĢľ ),
iy atti
ĠABO s
jii b
Ġdhab d
ĠdandaÊ¼ amee
ĠN o
ĠN ig
ĠN elson
Ġfudh annaa
Ġmar iitti
Ġmar qaa
Ġmar aatuu
Ġdhaabb attee
Ġdhaabb ateef
oof eesar
ĠAm ar
Ġjab aadhu
Ġkenn eefii
ĠE mpayera
ĠE gypt
Ġyaad aatti
Ġyaad amuu
Ġtaan es
Ġp er
Ġp altalk
Ġdir a
Ġdir oo
ĠbuÊ¼ uuf
ĠbuÊ¼ insa
ĠC aqasaa
Ġaman siis
kan an
isuu tti
ĠR oomaa
Ġhim nu
Ġijaar amne
Ġmul iÊ¼
Ġbal aaf
Ġbal aall
Dh uk
ĠDh ibbaa
Ġummat ii
Ġhor uu
Ġbiraa tin
Ġjedhanii ti
ang aan
li ament
EE L
Ġam n
Ġdabal amuu
Ġqor annaan
Ġdan quu
Ġnyaa chuun
Ġnyaa ttu
Ġnagaa dhaan
Ġ4 1
Ġ4 2
Ġ? ????
Ġgargaar amuu
Ġgargaar amuun
Ġbarbaachis an
Ġkeeny i
Ġdhiy ees
ĠWaaq o
Ġbuqq aasaa
Ġgamm add
Ġbarbaach ifne
Ġgan e
attee tti
AN C
Ġkuni mmoo
Ġdheer ina
Ġsagalee wwan
Ġhoggan u
Ġcunqur sa
Ġdhiyaa ta
Ġdag annee
ĠWall isaa
Ġwarraa qaa
Ġqabsaaw oti
Ġ7 1
Ġbarsiis otaa
Ġlaaf u
Ġmagaal onni
Ġmagaal mataa
Ġshakk uu
Ġtaj ajii
Ġdargagg eessa
ĠAfri kaan
ĠWar quu
Ġbarreeff amu
ĠBul tii
Ġdalag amu
ĠMinilik itti
Ġdhaad ataa
Ġjaarmay ootaa
Ġjaarmay aalee
Ġdeeggar tootni
Ġtattaaf achuu
Ġdhibb atti
Ġmak amu
Ġtik san
ĠMar tuu
Ġtuq an
Ġbas aasuu
Ġras aasni
Ġdhageess isuuf
Ġfeder aalaan
Ġgabaab see
Ġdhaqqab u
Ġdhukkub ni
ĠJaal ala
Ġwallaal lee
Ġfaall essu
Ġafur tamaa
ĠOn nee
Ġmallatt oolee
ĠariÊ¼ uu
Ġofiif is
beek toonni
Ġijaarr achuuf
Dubb iftoota
Ġoo Ê¼
Ġmaraa ti
ĠWayyaan onni
iss ee
Ġwalfakk aat
roo bii
Ġkoph atti
Ġdhaadannoo wwan
Ġhintaan ee
Ġsob uun
ĠEe bba
Ġ196 8
Ġkat abee
Ġmudd amaa
Ġkaffal an
ĠhundaaÊ¼ u
Ġdirm annaa
jaa jii
Ġgammad e
Ġibsame ra
Ġro rroo
Ġrag aatti
Ġtikf achuu
Ġqoqq o
biyy oota
Ġqu x
Ġqaqq aaliin
Ġjag na
Ġsoor essa
Ġdidd ee
ĠHoo ggana
ĠWaajj irri
ĠBadh aanee
ĠJIR A
Ġhom tuu
Ġsuni tti
Ġgib iraa
Jal qab
ĠBakk oota
Ġgudee duu
ĠKoon g
Ġbadhaadh inaa
Ġlakkoob saan
Ġsass aabb
ĠPre zidaantii
ĠHogg anaa
ĠMaz ammir
ĠHAR R
ĠBilisoom ti
ĠGU DD
Ġnyaan nee
ĠAR G
Ġwaraq aalee
ĠFaranj oota
Humn ootni
Ġbac anc
Qal biin
Ġalbuu da
Ġilaamee dhaan
Ġabsh aalummaa
ĠáĬ¨ áī°áĪĽ
ĠPh D
Ameer ikaan
ĠDee maa
ĠJuneey dii
Ġhatt att
Ġabda dha
ĠBirbir sa
ĠWARAABEESS I
Ġkaba jj
Ġdudh ama
Ġkamirra yyuu
ĠIjip t
Ġoom ishaa
ĠYUUS U
5 9
A si
B eel
D ammaq
F II
M aayyii
N uu
R II
S OON
b on
f aran
l o
m aach
t ul
v ersity
w ud
y outube
z aan
Ġk oor
Ġk uus
Ġd ogg
am soo
Ġh ur
Ġh and
Ġh udd
Ġi c
Ġb iiftuu
Ġj een
Ġj arii
Ġm ol
Ġm anneetii
Ġq alloo
Ġq aadhim
Ġs or
Ġs if
Ġs Ã©nÃ£
oot iis
umm as
umm aatiif
Ġn att
Ġn aatoo
yaa tti
Ġo toon
Ġbar raa
Ġbar adhe
Ġl aala
Ġl anguage
ann es
ĠB axter
eeny ii
ĠM at
ĠM aad
ĠM ammaak
ĠM allattoo
Ġc idha
ĠW B
ĠW eer
ĠW ak
ĠW axaba
raa ww
ĠD AR
and er
ĠH eer
ĠH amma
Ġamm Ã¸
Ġwar ii
ol ojii
ĠK aamp
ĠK ubbaa
Ġumm aata
gg ee
Ġhund u
Ġhund eessan
Ġhund eesse
Ġarg amaan
Ġarg ameen
Ġdand eey
ĠT aayitaa
ĠF aaruu
ĠQ arshii
Ġjech uufi
Ġjech udhan
Ġjech isiisa
Ġbeek tanii
Ġbeek nuu
all is
Ġbir ra
Ġbir aatii
ala yaan
taa yidii
oom inni
oom su
ay een
Ġgudd achuun
ars tii
Ġhidh annee
Ġol tu
Ġdiin arraa
Ġx iy
Ġnam ummaan
Ġnam onni
adh aatii
aw an
Ġdeeb ite
ess or
Ġsir buu
ĠdandaÊ¼ aniif
aall u
Ġra di
AA Y
ĠL ukk
ĠL IB
iÊ¼ uun
ĠY asuus
oof an
Ġdeem ti
Ġdeem in
Ġgad iin
Ġbul maata
Ġbul tootaa
Ġdhuf aatii
Ġkenn ameera
Ġyaad amne
Ġmaal itti
Ġeeg sisuuf
Ġrakk on
Ġrakk atan
Ġrakk inaa
ĠC aan
Ġbaas uf
Ġaman ama
Ġjedhu rraa
kan aan
achuuf ii
Ġdhaab achuuf
Ġhaf eef
Ġhaf eera
Ġbarr eessa
ĠtaÊ¼u tu
Ġe mbaasii
Ġsoch aÊ¼u
Ġafaan uma
Ġkaas eef
Ġqoph aay
Ġummat ootaaf
Ġbarbaad anis
Ġgur aar
Ġraaww atanii
Ġool che
Ġwareeg an
Ġhamm ayy
Ġfii lm
ĠWal aayit
Ġqoo du
Ġduu bb
Ġfedh etti
Ġeeny uufuu
Ġas irraa
ib le
aga yaa
Ġdhug eessuuf
Ġgoot o
Ġam aar
Ġam boo
Ġbaq atu
ĠAb du
Ġqor annee
Ġdan saatti
Ġif oom
Ġdandeeny etti
Ġdadhab eef
Ġdadhab de
Akk aataan
Akk amiin
Ġxumur aatti
ĠItiyoo ph
Ġfalm uun
áĪ ³
Ġjijjiir an
Ġhii tee
Ġeegal tee
Ġbuqq aÊ¼uu
Ġbuqq aasuun
Ġthe m
Ġfayyad amtee
Ġtan uma
Ġjaal alli
Ġball inaan
Ġsabboon oo
eessit anii
Ġuf iin
ibb aan
Ġkut achuu
Ġroo bee
Ġtaasif amuun
Ġhoggan ootni
Ġfac aasanii
Ġyoom ii
Ġmud ateef
Ġcuf amu
ĠIs p
Ġfix aan
Ġfix atee
Ġgaarii dhaan
Ġiyy aannoo
ĠZ iw
Ġwayy abni
Ġwalg aÊ¼iin
Nam tichi
Ġjibb isiisaa
AR TOO
Ġhark isu
ĠSad een
Ġeegg atan
Ġhiriir u
Ġfinc aan
Ġgurgur an
Ġmurteeff ame
Ġmurteeff annee
Ġ- -
Ġqeerr ans
Ġdalag ee
Ġdalag uuf
Ġdalag ame
Ġhu baa
Ġcall aan
Ġmaxxan sanii
ĠJir aachuu
Ġsar ar
Uumm ati
Ġtarkaanf ataa
Ġtarkaanf ate
Ġdhibb ayyaa
Ġdhibb eentaa
Ġdhagah uun
Ġ199 3
ĠV er
Ġshan tamaa
ĠOROMOO F
Ġjiranii s
Rakk inni
Ġhubachiis u
Ġoof anii
Ġdegger saa
ĠGoot owwan
Ġargam aniif
gudd aa
nam oonni
Wayyaaneen is
Ġkadh aan
Ġkadh ataa
Ġqaan iin
ĠEr t
Ġdhiph isaa
Ġwallaal aan
Ġmas jii
Abb ootii
Ġkaaf tee
Ij oo
chiis uuf
isi on
ĠDaan iyaan
ĠfeÊ¼ ii
Ġth an
ilii maa
Ġolol aan
ĠIj oo
Ġgalaaf atame
Ġat lee
Mag aala
Ġfiig an
Ġqood uuf
Ġdhah ee
Ã¼ f
Ã¼ r
ĠQoph aÊ¼inaa
Ġmoor ichaa
Ġqus annoo
Ġtilmaam amu
eett iin
Ġhabash otaa
An aaf
Ġ196 2
Miseens oonni
ĠArab ia
Ġkat abuu
Ġgadhiis uun
Jaal ala
Ġugg ura
Ġmangudd oonni
Sabboon aan
ĠFal as
ĠAlii boo
ĠjiÊ¼ aa
ĠAt leet
ĠSulul a
Od eeffannoo
Ġutub ame
ĠDiin agdee
Ġjag noota
Ġjag nummaa
ĠGim b
Ġgos ummaa
ĠDin q
Ġhaadh oo
Ġsagant eeff
Ġáī °
Ġmiliq uu
Ġsaf uun
ĠKut aalee
Ġdhiyeess een
Ġboson atti
por t
Ġwalaboom suu
OOT AA
Ġfacc isuuf
ĠNa jiib
Ġcees isuuf
Ġeess allee
Ġqabd anii
Ġsen aa
Ġbarreef ama
Ġgaggeef amaa
Ġjaalatam tuu
Tor baan
Ġabaab oo
Ġcee ph
Hogg ana
Sii daan
ĠDald al
ĠAmb aasaadd
Ġba ka
Ġmog olee
Ġqabb ana
mis eens
ĠSeer aan
Ġay id
Ġgeejj ibaa
ĠCunqur famoo
TOKK UMMAAN
âĢľâĢľ âĢľâĢľ
Bur qaa
Maall aqa
ĠImpay eera
Ġhobb aaf
áīħ áĪŃ
mag aalaa
áįį áīħáĪŃ
Ġdippil omaasii
Ġrel ig
Ġkirist aanaa
ĠTr ump
ĠBach o
AAYY OO
ĠTesf aye
Daaw ud
Tasf ahuun
KS FO
ĠXiq ur
ĠTarra faa
AAMM ARTOO
ĠBuruu y
Woyyaan een
chas tar
, "
9 0
? âĢĻ
A maa
B okk
B arsiisaa
C D
D uree
E T
G anda
H aasaa
J iÊ¼
J iituu
J immaa
J ECH
O ctober
T af
b y
b in
b us
b urg
c o
c uf
h aat
i pp
m o
s ch
w un
w aaq
aan goo
ar oon
at ur
at ummaan
Ġh asa
ti raan
al chaa
Ġf oolis
Ġf iinx
Ġt af
Ġt eessee
Ġm un
Ġm ass
Ġm iÊ¼a
Ê¼ anii
dh ukk
dh ih
Ġdh af
Ġq aÊ¼ee
Ġs amuu
Ġis atu
Ġn amm
Ġn etwork
Ġqab aannaan
ag n
Ġhin baan
aaf atan
un e
Ġo ther
ĠA gaaziin
ach ise
Ġbar umsaaf
oon is
Ġwal da
Ġl uk
Ġl aatanii
er laand
ĠB aasaa
ĠtaÊ¼ aniiru
ĠM r
ĠM ich
ĠM UR
ĠM iidhaa
Ġc ill
Ġc aayaa
ĠG en
Ġtokk ichaa
ĠD u
ĠD ajj
ĠD uk
ĠD ooyy
ĠD evelopment
Ġar ba
ĠS ukk
ĠI TOO
ĠH e
Ġgu ba
Ġgu bbaan
akk aan
ga waan
Ġof aa
Ġkun ooti
ub lish
Ġhund arratti
ĠT uraa
ĠQ aroo
Ġgaaf ataniiru
Ġgal atni
ich uma
Ġjech ootaa
agg oo
Ġbir aatu
ala y
araa ra
ay oo
Ġgudd inaafi
Ġhidh anno
Ġnam nii
Ġakk ataa
adh aab
Ġin g
Ġin clud
Ġgara jab
Ġhir iÊ¼
ess ituu
Ġhub achiif
Kan an
aann een
Ġsh iftoota
Ġfudh achiisuu
ĠL aatiin
Ġmar aat
ĠY ER
Ġboo yaa
Ġti ruu
Ġkenn ate
ĠE L
Ġyaad ataman
Ġaan suu
Ġdhal aan
Ġdhal ateen
Ġp os
abs i
abs haa
Ġdhag aÊ¼an
Ġhim ate
Ġlamm eessoo
Ġbarr eessitoota
abb aarii
ĠkaÊ¼ ii
Ġjiraat onni
Ġafaan fajj
Ġmoo k
Ġdhii tamaa
Ġaddaa ti
ĠDh aam
Ġummat ichi
Ġee lee
Ġhor atanii
Ġool chi
Ġjalqab nee
Ġalaa ti
ĠAb yssinia
Ġqor achuun
Ġdan uudha
Ġbit taan
Ġkuf u
Ġkaan eef
Ġmirkan eeffachuuf
Ġta Ã©
ĠtaÊ¼an is
ĠHar mee
Ġbobb ahan
Ġjirtu s
Ġdhaq abe
Ġad abbiin
Ġbuu tu
ĠtaÊ¼eef is
Ġlama ffaa
Ġhoj iif
Ġhirm aatuun
atam in
Ġmaq uma
Ġan uu
Ġdag atinaa
ĠZ uw
Ġseera waa
Ġdabr eef
Ġbarsiis onni
Ġog eessota
Ġdhimm icha
Ġhayy u
Ġdargagg eessi
áī ±
Ġbarreeff aman
áĬ Ń
Ġbaan nee
Ġfiniin see
ĠGab ra
ĠBul chaan
se c
Ġgurgur anii
Ġtor tor
ist ootaa
Ġreeb uun
ĠJir eenyaa
Ġdeeggar uun
gal tee
Ġhaar aaf
Ġhaar of
Ġtum amee
Ġshan een
ass a
ĠMis raa
Rakk ina
ĠOl laa
Ġcal anq
Ġkolon el
Ġdegger an
uur uu
ĠmariÊ¼ atu
Ġargamsiis uun
Ġdhiig i
Ġqabee yyii
RR AA
Ġfaay a
Ġgool tuu
ĠYuniv ersiitii
tokk ummaan
ĠLeenc a
ver y
Ġbirm atu
Ġlaaff isan
ĠKon yaan
Ġwalfakk aataan
Ee bb
Ġkeessum aayyuu
ĠPoolis iin
ĠAwur op
Ġsak aal
ĠSBO f
On nee
Ġeebbif aman
ĠyaaÊ¼ an
Ġkitaab ee
ĠKir istiy
Ġ196 9
ĠáĪ Ī
Ġ198 4
Beek umsi
Ġkafal an
Ġmisoom aan
ĠBish aanii
ĠceÊ¼ uun
Ġfinfinnee tti
ĠMan jee
Ġbash an
Ġmadaal uu
ĠmoÊ¼ achuuf
onn aaf
Ġbobbaaf ame
aamp iyoonaa
Ġur gaa
Ġqabaat us
Kabaj aan
ĠolÊ¼aan oo
Hoggan ooti
TV O
Ġpr op
Ġsiyaas aas
ĠMel es
Wall aggaa
ĠKom aand
Jedh ee
Ġwalaboom te
Ġhax aaw
Ġsodaat amaa
Ġlakkaaww amu
ct ri
nool oojii
Paar tii
Gudd ina
Ġaddadd aatiin
Ġwalakk aan
ĠGoob ana
Ġficc isiisaa
Waajj ir
ADH AA
Ġind ustirii
Ġxiiq iin
ĠRabb irraa
Ġjenn uun
Ġwaltajj iitti
Garaagar ummaa
Ġdhee dhii
ĠWM T
rakk oon
likk iitti
ĠWay aanee
Mall as
Ġinvest men
ĠMen elik
Ġbiyyatt iif
Ġfalaas ama
Kut aalee
ĠHaac aaluu
ĠXil ahuun
terror ist
ĠAlg eeriyaa
= "
C aasaa
D R
D amee
G ud
G enocide
I to
I mpaayera
J an
K ur
K aar
K ees
M ala
M uc
M ammoon
Q AAMADUBBII
R as
S iÊ¼
T O
T akka
U laa
Y uu
e wwan
g idduu
h anq
i ol
l oad
p m
s inaa
s agalee
s eenaan
t umma
w arr
w araan
w atch
y ch
y suu
z ee
Ġk oomish
Ġk itaabban
Ġd ec
at iinsa
at ure
ti m
Ġb ee
al aatti
Ġj idd
Ġj arraa
Ġf iin
Ġm ach
Ê¼ uuf
dh i
ss aan
Ġs aas
Ġs ila
Ġs aÊ¼uudi
is oon
Ġirr at
Ġhin jedh
Ġo t
ĠA ANAA
aat ota
bb uu
Ġbar amee
il m
il oonni
Ġwal uma
Ġl oc
er k
er ga
ĠB iiroon
ĠtaÊ¼ ees
eef achuuf
ĠM ED
Ġc la
Ġgar as
ĠG ah
ĠG ut
ĠG ola
ĠW aq
ĠW aamii
Ġjiru tt
ĠS aab
Ġtur aniifi
ĠH ac
ĠH idha
Ġamm am
akk iin
Ġbiyy ichaa
Ġbiyy ooless
en ni
ĠK M
ĠK ij
im an
Ġhund eessuu
Ġarg attee
ĠT B
ĠT ophiyaa
ĠT echnology
Ġdhi quu
ĠF idaa
eeff anna
Ġgal attii
Ġgal utti
Ġbeek totni
agg eeff
ĠJ irruu
oom ti
Ġhidh ataa
Ġr im
Ġr ef
ĠU gaandaa
Ġnam uma
Ġnam aatiif
ĠâĢľ .
Ġdeeb ineef
Ġhir uun
Ġqabu dha
ĠN eg
Ġsh eex
add een
ĠY ou
Ġdeem te
Ġbilisummaa ti
Ġp iro
ĠC oqor
Ġsan yi
Ġhojii leen
ĠR es
ĠR oms
Ġbaratt ee
Ġbarr ee
es ed
Ġkabaj achuuf
Ġsoch aÊ¼aa
ash aan
Ġqoph eessa
ĠP M
ĠP eople
Ġuum uudhaan
Ġcim san
Ġummat ootaan
Ġmorm itoot
Ġhor uun
Ġool leef
Ġhamm ate
ĠBar ataan
ang ee
Ġgarg al
Ġdhih eessee
Ġtaasis een
Ġbu tuu
Ġlakk aay
Ġdhug an
Ġam annu
ĠAb iy
Ġdabal aman
Ġjiraachuu dha
Ġyaal amee
Ġxumur atee
Ġdhiy eeffatan
Ġsalph atanii
Ġjijjiir amne
Ġkam ittuu
Ġbuqq aÊ¼an
ic t
Ġhal kaan
ĠAl buu
etti s
Ġtan arraa
Ġdhaan is
Ġtol fatanii
Qab eenyaan
Ġmad aallii
Ġamantii tiin
Ġfac aÊ¼uu
Ġguut amuu
ĠTokk icha
Ġum amu
Ġ6 6
Ġmiidh amu
Ġlabs i
Ġwalg aÊ¼
Ġjedheen i
ĠAfri ka
Ġjibb anis
Ġboon saan
Ġdabar fachuu
Ġdabar fame
Ġqind eessu
Ġmirg aafi
Ġhordof amaa
Ġdarar uun
Ġsaaxil amu
Ġgurm eessanii
Ġajaj u
Maal oo
Ġfaar sa
Ġqajeel ch
Ġqajeel atti
Ġbay uun
Ġreeb amanii
sit anii
Ġtattaaf achuun
Ġwaliigal uun
Ġdhibb en
ĠAw rop
Ġejj annoon
Ġtum sanii
Ġtik saa
Ġbeekk amne
ĠMar ch
Ġkab achiis
ĠOROMOO TI
Rakk ooleen
Ġhaq uu
ĠOl ola
Injif atnoo
Ġmeeq aan
Ġdhaabbachuu dhaan
Ġlaal amu
Ġlaal essaa
Ġyaadd essu
Ġhaara y
Ġdegger tootni
Ġtarr eessuun
Ġargam siisaa
Ġbuuf ne
Ġsim ate
Ġargamsiis ee
Ġuff atan
Ġtokkoom nee
aah u
Ġdhork e
ĠariÊ¼ amanii
Ġqalb ifachuun
Ġkaroor famee
Ġwaar shaa
Ġijaarr atanii
amin i
ĠAmaar atiin
ĠGull isoo
ĠFinfin neef
Ġshorork eessummaan
Ġqabxii leen
Ġgurr aan
eesh in
ton nii
umaaf an
ĠMaal tu
ĠDhaabb anni
âĢĶâĢĶâĢĶâĢĶ âĢĶâĢĶ
Ġiss aan
OPDO Ê¼n
AAL A
Ġsarb amaa
Ġkaa sse
Al aabaan
ĠFuf uun
Hidh attoonni
ĠAmm aa
Ġmudd amsuu
Ġkaffal anii
ĠhundaaÊ¼ a
ire sa
Ġdhiyoo tti
áĬķ áĮįáĪµ
Ġdabball ootaa
Ġbun ni
Ġmull ate
ĠSheek ni
Ġgammad uu
ĠDaaw it
Ġakkamii tu
jje chaa
Ġbarbaan nee
Daan gaa
ĠMootumm an
Dhimm oota
ĠraawÊ¼ atame
ĠGan amaa
Ġdandam atee
UM A
OON NI
ĠUr gee
AAT TI
ĠDem ocracy
Ġdad ammaq
ĠsaÊ¼ atii
Ġhidham tootaa
Ġhaasaw uu
Dhii bbaa
Ġhangaf oota
Ġtak aal
Ġhinf een
Ġhinf udh
Ġbiqil tuu
ĠMinisti rri
pd f
Ġharr een
ĠEb laa
Ġmirkaneess eera
ACH UU
Ġuniv ersitii
ĠKoon gir
ĠSil asee
ĠHayil asil
Ġsossoo ha
ĠJijjiir ama
Ġsirn uma
ĠsiÊ¼ ana
ĠMuu d
ĠIyy aasuu
Ġqond aalli
Ġnug us
ĠQind eessituu
Ġcarraaqq iin
Gum iin
jak tiin
ĠArs en
Ġxala y
Im immaan
Qoo di
Ġbub uu
Ġfakkeeny ota
ĠRaaww achiiftuu
ĠRas aasa
Ġpoliti cal
Ġyaabb atee
Ġbaati lee
err or
ĠKiristaan ummaa
Ġhaaw aasa
ĠImpaayer attii
Ġteeknool ojii
Ġafanfaa jj
Ġwalqun namtii
ĠAdeem sa
ĠZen awi
RE K
ĠAkeek a
ĠDhiig ni
ĠKaay iroo
ĠIngli zii
tudi es
oorg is
Ġjener aal
ĠShagg arii
Maandeel laan
ĠRoms dal
. "
9 2
A Y
A lem
B itoot
C aasaan
F ayy
G OOTUMMAA
H an
I G
J eeq
J arii
S um
S abb
S UUN
d oc
j oon
j alaa
m y
n d
o jjii
p ar
q o
q or
x iq
aa jjii
ee dha
an atti
ar toota
at uf
Ġh ij
Ġh amuumm
Ġb et
al i
Ġt ab
Ġm ash
Ġm ichuu
Ġm anniin
in uuf
in sii
in nis
Ġa cc
Ġdh oofne
Ġdh ima
ss oo
Ġs ub
Ġs por
Ġs tudent
om uu
om in
ĠO duun
ĠO ctober
oot oo
oot uu
oot arraa
Ġqab atam
ĠA gg
aat oota
Ġbar oo
Ġbar anii
Ġwal if
Ġwal tajii
ama yyoo
ĠB ut
ĠM OO
ĠM ooyy
ĠM ALEE
ĠM usliim
Ġc ic
Ġc anc
as anuu
Ġwaan tota
ot t
ot aafi
Ġil aacha
ph p
ĠK as
ĠK iiloo
ub aan
Ġumm annii
Ġnu rraan
Ġhund eef
ĠF oon
ĠF ull
ĠQ aan
ĠQ abb
Ġgal fatan
ĠJ iÊ¼a
kaa yyoon
Ġgudd isa
Ġnam ooni
iy an
Ġmur e
Ġhub atiin
ĠN AMA
Ġsh aggaa
Ġfudh atte
ĠL axx
ĠY em
Ġbah aniin
ĠAm ajji
Ġjab inni
te m
aayy aan
Ġdhuf aniin
ĠE x
Ġyaad atan
Ġyaad achiisan
Ġguu ta
Ġilaal ani
Ġibs ine
Ġdhal ateef
Ġbaas aniif
Ġsan an
Ġaman siisee
Ġraa g
Ġgagg eff
ĠUmm ani
Ġbaratt ootnii
Ġijaar uudhaan
Ġdarb amee
Ġdarb achuun
Ġjiraat ullee
Ġtar k
Ġtar kaaf
Ġdhii rri
Ġdhii chisaa
el laan
ĠDh um
ĠDh ok
ĠFinfinnee rraa
Ġfil ame
Ġsag lan
Ġraaww ateen
Ġkee ttoo
Ġdhih aata
Ġdhih aachaa
Ġjaar amee
ig gaa
Ġjijj irr
Ġlubb un
Ġbu k
ĠAr si
ĠgaÊ¼ iin
Ġam anneef
taan e
Ġfayy ee
Ġag r
Ġdabal amu
Ġdhiis uuf
Ġbit achuu
Wal iif
tin naa
Ġwaam aman
Ġsun ii
boon tota
Ġhaww aasa
II R
Ġbad uuf
Ġdhiy eenyaan
Ġdhiy eessina
ĠWaaq atti
Ġsalph inni
ĠAd ooleessa
eey f
Ġhii dh
Ġinjif ate
Ġinjif achuun
Ġinjif annee
Bar atoota
Ġad aamaa
Ġwan tee
Ġfayyad amne
Ġjaarm iy
Ġjaal atan
ĠJimm aan
ĠKan aafuu
Ġtol lee
ut tii
ĠGal aanni
Ġdhum arratti
Ġtaasif ate
Ġtaasif achuun
Ġhoggan uu
Ġguut umaan
ĠQabsoo f
Ġsaanii tt
Ġiyy achuu
ĠZ iyaad
Ġwalg aaf
Ġwall aala
Ġhawaas aaf
Ġdargagg ooti
âĢĶ -
Ġmee d
áī Ģ
áĭ ³
isan is
Ġifa dha
Ġfinc ile
Il aamee
Ġajaj uu
Ġxiyyeeff annaan
ist ootni
Ġmaxxan see
Ġgay uun
Ġisii ti
Ġhiik uun
Ġhiik anii
War aqaa
Ġhumn ota
ON T
orom iyaa
Ġtum san
Er gan
Ġ) ,
ĠSom alee
Ġmu z
ĠMis oomaa
Ġqot eeb
Ġtaph achuun
Ġguf achiisuu
Ġdhangal aasuun
Ġabd atan
Ġeegalee ra
Ġargam nu
ĠSab abaa
Ġdhaqqab aa
Ġsim achuun
ĠJaal ataa
oc ess
Ġbarbad eessee
Ġhol l
Ġhol olli
Ġargame tti
ĠkaaÊ¼ a
Ġtuff achuun
Ġdhagay ama
Ġwalq o
Ġnaq anii
Ġfashal u
Ġ197 5
ĠFinfin ee
ĠMur ni
Ġdabb al
Ġdimokr aat
Ġpol isiin
Ġergam tuun
Ġgabb isuuf
Ġmaraa mmartoo
Ġbur kutaa
ĠdhagaÊ¼ amee
Ġjaarmayaa tti
Ġxax amee
Ġwalfakk aatu
Ġwo rr
Ġwo rri
Ġwo uld
Ġhaarom suun
Ġqaqqab u
Ġv ideo
Ġdagaag uu
ĠDab basaa
Ġmoor aalee
Ġmeesh aaleen
ĠDar aaraa
Ã¸ ta
Ġqindaa Ê¼e
Ġbuqqif ama
Ġmat aasaa
Ġwaaq ayyoo
Ġsadd eeti
Ġkaffal uuf
Ġhacuu cc
Ġalag aatiin
Ġmisoom ni
Ġmangudd oon
Ġgammad anii
Ġkamii tu
Ġmuud ama
ĠTigraay itti
ĠSal aam
QBO n
ber g
ĠGurr aacha
Ġhirmaach isu
ĠFederaal is
Ġbeekanii s
Ġsu kan
Ġdandam achuu
Ġcalaqq isan
Ġgos ti
ĠKabb adaan
Ġempay eraa
ĠTigr ootaa
Ġnagayaa tiin
Ġraf e
Ġraf uu
fal m
IT II
Ġfuun e
Ġkenni te
Ġfonqol chuuf
Ġdogoggor aan
ĠAad aafi
gii da
Ġdimookr aatawaa
Jaar s
ĠIS IS
Ġmiin daan
Ġweell isaa
Ġdo rro
Ġdagg alaa
ĠKEEN YAA
Ġrifaas isaa
jak tii
Ġwarraq sa
Jaall annee
Jaall annus
Ġachumaan is
Ġmuux annoon
own load
ĠáĬ¥ áĬķ
QabsaaÊ¼ oonni
Qondaal onni
ĠSolom oon
Ġcubb amaa
Nafxan yoonni
ĠFay isaa
Ġlu ka
Ġofitt ummaan
ĠIshee tuu
Ġtajaj ila
Jaw aar
ĠZeenaa wwii
Ġaann anii
Raad iyoo
Hat aÊ¼u
Araar so
Bad iin
Ġdhugoomf achuuf
Ġnagah aan
ĠTse h
ĠDIIG AMA
ĠLaxx ibaluu
7 4
B M
F ira
F alli
F ebruary
G GO
G adi
H D
H iwaatoonni
L ixa
L absa
O daa
Q aaww
S eena
T eessoo
T ER
W aaÊ¼een
d agaa
l ummaan
l amaan
m sa
n nu
r es
u tuu
u rra
w eb
w ord
y o
Ġ <
Ġ uuf
Ġ essa
Ġ ********
ee ta
aan di
ar ch
at h
Ġb iya
Ġb awuu
al s
al abb
al ist
Ġg ataa
Ġg atuu
Ġj eey
Ġf all
Ġf agaa
Ġt ook
Ġt uur
Ġm a
Ġm itti
um tii
Ê¼ rraa
Ġw ann
Ġq aj
ĠOrom moo
Ġn ation
Ġqab atte
Ġirr atii
Ġirr iiba
ĠA ang
ĠA bboo
aat ama
Ġbar u
Ġbar ar
Ġbar ru
ummaa dha
Ġl en
Ġl im
ĠB O
ĠB iy
ĠB IR
ĠB aalchaa
ĠM addaa
Ġc oph
Ġc amadaa
Ġgar af
ĠG eb
ĠG GO
att aniif
Ġtokk olle
ĠW est
Ġjiru rraa
uf uun
it ootni
ĠS is
ĠS aay
Ġtur ban
ĠH arris
ot taa
ot nii
Ġamm ammoo
akk amiin
Ġwar qii
Ġadd att
Ġof tuulummaa
ĠK enyaa
ĠK IBB
Ġtokko rra
Ġnu tii
Ġarg ameera
Ġarg amte
Ġarg itu
Ġdand aaÊ¼
ĠT uree
ĠT ure
ĠT aakk
Ġdur oomaa
Ġdur san
tuu dha
ĠF ilis
ĠF irr
ĠQ OPH
Ġdha waa
Ġbeek amnee
ĠJ iddu
oom ni
Ġgudd atanii
Ġgudd ise
Ġuumm annii
Ġdiin atu
Ġdar ee
Ġnam ootuma
tt een
Ġsab atti
Ġdeeb ih
Ġhaa b
ĠABO dhaan
tee tee
Ġgodh annee
Ġdubb atte
Ġdubb atani
Ġdubb annuu
Ġfudh attan
Ġfudh achu
Ġfudh attanii
ĠY AA
ĠY akkaa
eer aal
Ġdeem ani
Ġdeem aniin
us uu
Ġkenn aan
Ġilaal tu
ĠC alii
Ġdhaab nu
Ġdhaab atuu
ĠR aa
Ġhim ataman
amanii s
Ġfuf ne
Ġbo da
Ġe ven
Ġofii tt
dhaa ba
Ġqoph eessite
ĠP oostii
ĠSh aneen
ĠSh are
Ġummat aatiin
Ġummat ooti
ix ee
chuu dhaan
inaa ra
Ġraaww atuu
Ġwareeg anii
ĠBar umsa
Ġdhih aachuun
Ġqoo q
Ġaddunyaa rraa
Ġaddunyaa rratti
ib ni
eeb uu
Ġqabs ichi
li ance
Ġlakk ooy
Ġtokkummaa tti
Ġdabars itee
ĠduÊ¼ uuf
ĠAf roo
Ġfin naan
Ġfin iinsa
Ġdabal ataaf
Ġnyaa taan
Ġnyaa dhu
Ġif aatti
Ġabb ooti
Ġcaal chif
Ġyaal etti
Ġwaam ame
Ġmal es
Ġxumur anii
Ġxumur ama
Ġgaar ummaa
Ġmiseens ootni
Ġjiraach isaa
Ġdhiy eeffachuun
Ġ5 3
Ġsalph isuuf
ĠAd em
Ġguutuu dhaan
ĠIn xooxxoo
Ġbuqq ise
Ġul aag
Ġham aaf
Ġfag ootti
Ġhal aalaa
Ġxiqq eessuun
ĠAl b
Ġgaa zii
Ġka dha
com e
ĠJimm atti
Ġhoj achaa
Ġgand aatti
Ġgadd ee
Ġgalm eeffame
Ġkuni llee
Ġdheer atee
Ġkut uuf
Ġgam t
Ġguut anii
Ġcuf anii
Ġxiyy aaraa
Ġwayy u
Ġakkan aatiin
Ġjibb insa
Ġbarreeff am
Ġdabar fatan
áĬ ¨
Ġqind eessanii
Ġfiniin uu
ĠBul bulaa
Ġsaaxil uuf
Ġgochuu dha
Hum noota
Ġqajeel chaa
Gab aas
Ġjajjab eessa
Ġdhuunf aattis
Ġdammaq e
Ġmak ame
Gal ii
Ġdald alaan
ĠFeder alaa
Ġhinqab nee
Ġkolon eef
Ġjedhaman i
Ġdegger si
Ġfar di
ĠOr d
Ġdanday uu
aah uu
Ġdhaal lee
Ġuummat ootaa
Ġkess aan
CH AA
ĠDH AL
Ġwalqab ate
Ġgodaan tota
Ġnaq e
Ġmuldh isu
amin iif
Haat ahuu
aanis taan
Ġxur eessuuf
Ġlaaff isuun
Ġeer anii
Ġgonf atu
Ġhiraar suun
Ġjiraniif i
Ġhiyy eessaa
ĠdhagaÊ¼ amuu
ĠUmmat aatti
iss ummaa
oll ii
ĠmulÊ¼atu tti
Ġtajaajil tuu
Ġgeess isuu
ĠGo sa
ĠIrr echaa
Ġdhah u
Ġid ila
Ġsak at
Ġrukut ame
Ġalaatti s
Ġgeggeess amu
Ġjijjii raa
Ġadab aman
Ġadab ame
Ġaang orra
Fil maata
Ad aamaa
Ġsee tee
Ġmaangudd oonni
Ġhe rre
Ġmadaal awaa
Ġquuq aman
Ġgaggeess een
ĠAt omsa
Ġfuldur a
Ġwalgah icha
Ġhinb anne
Ġfincil uun
ĠTigr een
ĠDem ocratic
Ġfo ddaa
ĠUum ata
Hub achiisa
hum ni
Jedh anii
Ġcon f
Ġhangaf ni
mu ka
keess umaa
Ġbeekamne tti
Ġedd a
Jaar mayaa
Ġtel ev
ĠInj iner
ĠIS AAN
ĠFaransaa y
Ġtaa ss
Ġdirqii dhaan
================================ ================================
ĠPl ay
Ġsom aalee
Ġlakkof saan
Ummat ootni
Ġjann ata
Artis toonni
Ġdhad annoo
ĠIL MAAN
Ġduww aatu
Ġkot tee
Ġbaab uraa
Mal kaa
amp us
Dubar tiin
Ġminis ter
ĠQulqull uu
Ġhalk aniif
Ġraadiyoon ii
ĠDeegg arsa
ĠNug usee
Ameer ikaa
ĠShaam buu
Ġnutt y
ĠAraa ra
ĠBaah ir
ĠGaach anni
ĠtaÃº u
Ġdook tor
ĠDuub isuuf
Ġorgani zation
Ġcoun try
ĠAI BO
D U
E ng
H aleellaa
I CHA
J arm
J eneraal
J ennaan
L aaf
L oon
M idhaan
P A
S i
S oom
b aas
c ol
e rroo
f ur
f ag
g adi
h akim
k uni
m on
n iis
o bboo
s abboon
s foormeeshinii
w ajj
x anii
Ġ ****************
oo saa
uu tii
Ġk eef
Ġk aatanii
Ġk ichuu
Ġd idh
Ġd awoo
Ġd evelopment
ar baa
am ana
am tooti
Ġh uun
Ġb onaa
al amee
al em
Ġg eeffaman
Ġj aalaa
Ġj oolleen
Ġj iidhaa
Ġf aatu
Ġf uudha
Ġm ig
Ġm aatiif
Ġm acc
in b
in ara
dh umatti
Ġdh arr
Ġdh aalle
Ġq am
Ġs aatiin
Ġs aatt
een naan
om an
Ġkan k
Ġkan nee
Ġkan ati
oot taa
Ġjir t
ni kaa
Ġis ana
uun f
uun faa
Ġn ah
Ġqab attanii
Ġirr iba
un g
un kur
Ġo ut
Ġwal duraa
Ġl aatiin
Ġl aayyoo
ĠtaÊ¼ inaa
jj oo
Ġjedh amti
ĠM aree
ĠM Ã¸
ĠM aadhee
Ġc aa
ĠW aabee
ĠD j
ĠD ol
Ġar tiis
it ooti
ĠS och
baa daa
Ġtur tanii
ĠI faa
ĠH aas
ĠH aara
ĠH UB
Ġgu tummaa
soo lii
Ġwar aanii
Ġil il
ol essa
ĠK S
ĠK WO
if atu
Ġhund e
Ġarg annaan
Ġarg attan
Ġarg itee
Ġarg ataniiru
Ġdand eetii
ĠT aÊ¼e
ĠT ika
Ġdur ummaa
Ġhar g
Ġtah eera
ĠF ax
ĠJ eneral
Ġbir as
faa yee
Ġgudd annee
Ġhidh achiisuun
Ġdiin agdeen
aay inii
aw ii
Ġhojj anna
Ġhub atani
ees itoota
Ġdhab amne
ĠdandaÊ¼ utti
ĠdandaÊ¼ amneef
aaÊ¼ el
ĠN uun
AA BB
ĠL akkii
Ġdhaabb atte
Ġdeem tota
Ġgad ootti
Ġdhuf us
Ġdhuf naan
Ġkenn achuu
Ġkenn ameen
too s
Ġyaad achiisu
Ġmaal irra
Ġkaraa rra
Ġdhal annee
Ġp m
Ġbaas aniin
orm aa
Ġsan bata
Ġaman e
Ġji jir
Ġhaf ani
Ġnaann aÊ¼ee
Ġdhag aaÊ¼
Ġdarb anitti
ĠkaÊ¼ eera
Ġjiraat toonni
Ġsoch aÊ¼an
ef ama
ĠSh orork
Ġee wal
ree t
Ġmil l
Ġfil amuu
Ġfil mii
ax any
Ġdirq is
Ġool te
aaq uu
Ġhamm aa
Ġfii ga
anne tti
of tuu
Ġlol aaf
Ġeeny uummaa
Ġbaq atani
Ġerg amu
Ġerg itan
Ġdabal amanii
Ġqaam onni
sh ira
ĠItoophiyaa wwii
Ġcaal uun
Ġbit oot
Ġsaam a
Ġdhaam aniiru
Ġgargaar amee
Ġgegg eff
Ġbarbaachis eef
Ġwaam amee
Ġmal tu
ĠHar aam
Ġhaww anii
Ġhaww asa
Ġbad iisa
Ġ5 7
Ġkam iyyu
ĠX iqq
Ġban atee
Ġjaarm oleen
Ġgaggeeff ameen
Ġtol fatan
Ġgabaas uuf
Ġmad aaye
ĠUumm ataaf
Ġkut ate
Ġguut amu
Ġmud atte
Ġdhok suun
Ġdhok sanii
Ġfix a
Ġlabs ite
Ġiyy atu
ĠZ eal
ill aas
Ġog uma
Ġlaaf uu
Ġdhimm ichi
Ġshakk isiisuu
Ġhayy ummaa
áī ¸
Ġsabaa ba
eÊ¼ e
Ġgumaach itan
Ġhang afti
ĠBul cha
Ġeegg atanii
Ġdalag uun
Ġfaar famaa
Ġgor aa
Ġjajjab eessuuf
Ġsar baa
Ġdhuunf aaf
Ġdhuunf atan
Ġdhuunf aatiif
Ġhiik ni
Ġaar e
Ġwarraaq saan
Ġarr absoon
Ġtum s
Ġbeekk aman
atani dha
Ġmilkaa yuu
Ġkab j
Ġdubar tootni
Ġmu cha
Ġhaq ee
Injif atnoon
Ġtaph atu
Ġsirr atti
Ġboq ochuu
Ġbalaaleff annaa
Ġfeder esh
Ġdhuk aasni
Ġjirr een
Ġmogg aasuun
ĠâĢ¦ âĢ¦
Ġdhukkub sa
ĠArsii tti
Gar u
Ġdabree yyuu
Ġbiraatiin is
Am alli
âĸ ł
Ġjijjir uun
Ġjijjir uuf
ĠariÊ¼ e
Ġhojjet aniif
Ġkaf allee
ĠDH AB
ĠDH UG
Barr uuleen
ĠNam oomaa
chiis e
Ġdhagay an
Ar t
ĠHir iirri
Ġliq ii
Ġdem ookr
19 76
ĠIng il
Ġqun c
ĠFXG n
Ġwalfakk aata
Ġgeess ise
San yii
Ġgaazex aan
Ġjee dhan
Ġjee chun
Ġsodaach isa
umaaf uu
ĠAwur oppaa
eett a
Ġrukut amanii
Ġkuff isaa
ho jiin
Ġdhabb atanii
ĠFI DO
Ġdeebif na
Ġ198 2
Ġdhaw aata
Ġoll aalee
Ġyomm uun
Ġarrabs u
Ġdhagees isan
ĠceÊ¼ uuf
ĠWayy ane
Ġhirmaan naan
Ġgammad an
ĠSoom aalii
ĠXaal y
ANN OON
Ġgee ba
Ġch ang
ong ress
Ġwalga y
ĠSH ANEE
maal tu
Ġharc aÊ¼aa
ĠQor ichaa
ĠSid aam
Ġrag aaleen
ĠAt lan
ĠAjaj a
ĠQAB A
Ġsadeen uu
UM AA
Hoggan oonni
Ġqunn amuu
Ġyuniv ersitii
ĠDem ookr
ord of
ĠDin qaa
Ġwallee lee
Dhii bbaan
Ġkenni tu
Ġbut amanii
ĠDubar tootaa
Ġbattal atti
ĠOd oo
ĠGeet achoo
AAB AA
Ġsen aan
Ġduun e
ĠDuÊ¼ aan
ĠNyaa taa
mmar toon
ĠHarom aya
Ġinv ees
ĠMus xafaa
Ġgud un
Ġdimokir aatawaa
Hooggan oota
ĠKor poreetitti
baay ilaa
Im ala
ĠHub achiisa
ĠMulÊ¼ is
Ġex p
ĠGU YYAA
Ġdhihaat eef
ĠHal kan
Ġmurteessa dha
ument arii
ĠObaa maa
ĠQabs aÊ¼
ĠHospit aal
Ġfuullee tti
Ġhalk ani
Ġqeerran saa
Ġafanfaa jjii
Gaash uun
Ġgogg og
Ġgamtoom anii
Ġgeej ibaa
Ġwag oota
ys tem
ĠGub irmans
Dogogg ora
Ġtinn isa
dhib dee
Ġnamoom aaf
Gurm uun
Meesh aan
buÊ¼ur eessitootaa
ĠAhb aash
Ġbiil iyoona
Ġkul k
ĠNaas ir
ĠMAG AALAA
Ġide ology
JECH OOTA
ĠMÃ¸ re
ĠZeal and
, âĢ¦.
. ?
5 2
A duun
A ng
B att
B II
G ir
G ad
G ul
G id
I Z
I DO
K ij
K ibba
M AR
M uslim
Q un
T add
W AL
Y aalii
b s
b adii
d o
d ni
e tu
k at
q oon
q ixa
r d
w or
Ã Ĥ
Ġ Ã
Ġ aal
Ġ ==
aan daa
Ġh ate
Ġh eed
ti yuu
Ġb aalli
Ġb oombiin
Ġg ootni
Ġg eenne
Ġj attee
ir rii
Ġm akk
Ġm ain
Ġm ukkeen
in noo
Ġw oo
Ġw agaa
Ġdh isuu
ss uun
Ġq arr
om ina
Ġkan arr
ĠO orm
is tuun
yy iitti
Ġjir amu
aal d
aal i
Ġis iitti
Ġis Ã£
Ġis laam
Ġqab at
Ġhin Ê¼
ĠA x
ĠA adaan
aat tan
Ġy amuu
Ġy aanne
il iin
Ġl ixx
ad dhee
ad dhe
ĠB uufata
ĠM ammoon
Ġc ob
ĠG aroo
att ummaan
Ġisaan in
ĠW och
ĠW anc
ĠD AB
ĠD AND
ĠD egger
Ġar iis
ĠS aÊ¼a
ĠS afuu
ĠH AN
ĠH IV
Ġgo yy
Ġadd eessanii
Ġdee maan
ĠK o
im in
Ġnu rraatti
Ġhund oofnee
ĠT O
ĠT o
Ġtah aniin
ĠF ul
ĠF it
ĠF ulb
ĠQ amar
Ġgaaf atte
Ġdha yi
idh an
all an
Ġqo cc
ay anii
ay ama
ĠOromiyaa rraa
Ġgudd ichaa
Ġhidh aafi
Ġol aa
Ġol chuuf
Ġr aafuu
Ġseen sisee
Ġakk eek
Ġsab ooti
Ġin depend
Ġmur ate
Ġgab rr
ess ummaa
ess uf
ess itoonni
Ġni beek
Ġgodh i
Ġgodh atuu
Ġsir iidhaa
ĠdandaÊ¼ amuu
aall a
Ġfudh atin
Ġfudh ataniiru
ĠL eeqaa
eer oon
Ġlaf uma
ani cal
Ġjab oo
Ġjab aata
Ġjab eesinee
ĠtaÊ¼uu tii
te rri
Ġbul lee
Ġfakk eessa
Ġfakk aachaa
ĠE conom
Ġyaad ataa
Ġyaad ota
Ġyaad anne
Ġyaad achiise
Ġdir aamaan
Ġkeenyaa fi
ĠC uq
ĠC har
Ġku te
Ġaman amtoota
ĠR ev
Ġdhag ess
Ġbaratt ootatti
Ġmii rri
Ġbarr oo
es u
Ġdarb achuu
Ġdarb atan
Ġdarb atamu
Ġdarb ite
Ġmis ens
Ġe mpaayer
Ġsoch ow
Ġitt aanu
ĠtaÊ¼ee tu
ash a
amuun is
Ġqoph iitti
Ġqoph aawaa
ĠP osted
Ġuum aafi
ĠSh e
Ġmorm atti
Ġfil atuu
Ġaa bba
Ġbarbaad us
rii d
Ġhor u
Ġhor an
arg e
Ġgaraa gara
Ġhamm aachuu
Ġfii xee
sis aan
Ġqoo daa
Ġjaar tii
ĠmulÊ¼ achuun
ĠmulÊ¼ isee
of tee
Ġfal am
Ġfedh iifi
Ġeeny uuf
ĠAr joo
Ġqabs aÊ¼aa
Ġgoot anii
ĠAf raffaa
Ġdabal tee
Ġfur amuu
Ġqor atamu
Ġdan dd
Ġjiraachuu s
In foo
Ġyaal us
Ġnuuf is
Ġmal oota
Ġgaar atti
Ġdarg iin
Ġjiraach isu
ĠQBO tti
eey se
Ġbuqq aÊ¼
Ġad abuu
Ġxiqq eessu
Ġban een
Ġgaggeeff aman
Ġgan uun
eessit uun
Ġtol chaa
ĠTPLF f
Ġgabaas uu
Ġgalm aaÊ¼
Ġgalm aaÊ¼ee
Ġdhum aaf
Ġdheer achuu
Ġgam atti
ĠItiyoophiyaa f
Ġmuu duu
ĠIl mi
ĠTokk ee
Ġum amaan
Sab oonni
ĠZ ar
Ġtuf aa
Ġajjee chis
Ġshakk aman
Ġhayy amuu
Ġmee diyaa
Ġcimaa dhaan
áĭ ĭ
Ġqind eeffachuu
Ġbil summaa
Ġhiriir e
Ġmarii Ê¼
Ġgurgur ataa
Ġhooggan amuu
Ġkeen ne
ĠLamm ummaa
Ġjiraachuun is
ih aan
Ġmaxxan san
Ġdhuunf achuun
Ġhiik u
Ġhiik amee
Ġhumn na
Sir ba
Ġtik isuu
Ġtik see
Ġguyy u
Ġturte tti
Ġdii maan
ĠAn d
eb e
eb el
Ġbas uuf
Ġhaq ummaa
Ġqot anii
Ġdhageess ise
Ġkum ni
Ġbalaaleff achaa
ĠAbd iisaan
Ġayyaan laall
Ġgabaab sa
Ġmogg aasa
Ġdegger aa
Ġang afa
Ġifaa jj
ĠAs ter
gudd oo
ff aafi
ĠOr o
Gar tuu
Ġkadh ata
Ġdhork amee
Ġqabsoof nee
Ġargatan is
wal ii
Ġdandah amu
ĠNag aasoon
ĠLeenc o
Ġijaarr u
ĠHund i
ĠAmaar tota
tr ate
ĠDaan iÊ¼eel
ĠfeÊ¼ uuf
Ġth en
Ġth ese
ĠHir iir
ulb as
Ġolol uu
Dubb i
Ġgabb aarii
Ġrakkisaa dha
Ġhiyy eeyyii
ĠtoÊ¼ achuuf
ĠHaa romsaa
Ġdhah uu
Ġargamuu dha
Ġsalphaa dha
Ġdagaag suu
Ġkunneen is
ĠWarraaq sii
ĠJal qaba
Ġdaaww annaa
Ġhabash aan
Ġkumaat amatti
ĠJedh e
ĠdaaÊ¼ immanii
Dhaabb atichi
ĠFil itsi
Ġramad amanii
Ġjabeeff atanii
Ġtams aasaa
Ġyer ootu
Ġsee x
Ġlallab uun
Ġmuud aman
Ġdubbif ne
Ġdubbif nee
Ġheer um
Ġadeemsis u
ĠMil keessaa
Ġcir uun
Ġcir anii
tion s
Habash ootni
Af ri
Ġun k
Od eessi
toon nis
Ġceh uun
Ġdemokr aatawaa
Ġdidd e
ĠDuu kam
Ġdanq araa
eegg annoo
Ġhaasof siis
war eegama
Ġhaat ahu
Ġdhoksaa dhaan
Ġsiy asa
Ġbaar gama
Ġfudha dhu
ĠMinistee raa
Ġimal tuu
Ġwaldhaan sa
ugg u
Ġdeegar toota
ĠNe q
Lol toonni
Fur maati
Ġhoon ga
ĠFed araal
Ġhiis isuu
ĠEjj annoo
ĠSomal i
OROM OO
ĠDam isee
Ġmuc uc
ĠTel ev
Wagg aan
ĠBarsiis ota
Ġwalf aall
ĠGAB R
ĠGAB UO
Bor u
Ġdhunf aatti
dhaab ni
Ġgaaz eex
Sar een
Ġyaadatamuu dha
ĠQabsaaÊ¼ oota
nol oojii
Ġbelbel aa
ĠDaaww ee
........ ........
ĠmuulÊ¼ ata
Ġamal uma
Ġmankar aar
Ġash kar
ABA J
Ġnadh ib
Dand eettii
Ġkash alabb
Ġshubb isaa
Ġhordo fa
ĠAsab oot
Ġcuu ph
Baan kiin
Kall attii
ĠIH ADEG
Ġqaph xii
riz imii
Ġodeef annoo
Dirq amni
ĠEeb la
Tuf fii
ĠDIIN AA
Ġsuk anneessaa
ĠkÃ©ss atti
Ġgeett e
ĠFR ONT
ĠHur ufa
Angaw oonni
Ġilii tonni
unik eeshinii
ĠNaayij eeriyaa
ĠMIRKAN EESSA
ĠHAB ASH
Ġbok ok
ĠHARR EEN
ctri cal
B aayy
E daa
E DH
F uula
I yaa
I mpaay
K ann
K oomish
M ah
O tuma
P L
Q ote
S ib
S em
T UM
U gg
U Of
W M
W oma
a ziiz
b l
b iyaan
c aan
c inaa
d ig
d iddaa
d ald
g alaa
h edd
h ara
l li
m atti
m ne
r kaa
r os
s aba
s ota
x xan
İ áī½
oo mm
ii xata
Ġk uul
Ġd er
Ġh oof
ti faa
ti nu
Ġb at
Ġb uf
Ġg eenyaan
Ġf oolii
Ġm usliimaa
in itti
in ess
ch aafi
ch inee
dh eeraa
dh umaan
Ġa h
Ġdh iyy
Ġdh aqaa
Ġdh ow
ss ii
Ġq allee
Ġq aaliin
Ġs uuf
Ġs iyya
Ġs ij
Ġs eÊ¼ee
ĠO naa
ĠO BS
Ġfi dde
is al
is is
Ġjir tani
iin iin
Ġqab aniifi
Ġirr eef
Ġirr attuu
ĠOromoo llee
Ġo ddo
ĠA artii
Ġkeess aafi
aas aanii
Ġy araa
Ġy ogg
ĠB araa
ĠB eeg
Ġjedh ii
Ġjedh ees
Ġjedh aanii
ĠM aati
ĠM IS
ĠM ANNI
ĠM INILIKOOTA
ĠM AQAA
Ġc oqor
Ġgar iitti
ĠG ood
ĠG UR
ĠG ishe
ĠW aal
ĠW araa
ĠW ell
ĠD aam
Ġar ticle
ĠS y
ĠS er
ĠS uufii
ĠS ummii
ĠS eptember
Ġtur teef
ĠI laa
ĠI mp
ĠH IR
ww ee
Ġbiyy een
Ġbiyy as
ĠK ee
ĠK uusaa
ub akar
Ġumm attoonni
Ġnu t
Ġhund umaan
Ġarg isiisaa
Ġarg inuu
Ġdand eessee
ĠT H
Ġyoo kaa
Ġdhi Ê¼
ĠF UF
ĠF adis
Ġyaa chisaa
ich as
ool aan
all uu
ĠJ all
ĠJ iraa
ĠJ aarr
ĠJ imaa
ĠJ iituu
ĠJ ifaar
Ġab aluu
taa Ê¼aa
Ġqo da
ars uuf
aay inaan
Ġx uxx
Ġjiran tu
maan naa
Ġij uma
Ġin nuu
Ġhub attee
Ġgodh ameera
Ġgodh amtu
Ġgodh amte
aaÊ¼ iba
Ġsh ow
âĢ¦ !
ĠL afaa
ĠL iyuu
ĠL AMM
Ġhan aga
qab eenya
Ġbah achuuf
Ġlaf f
Ġdeem uudhaan
ĠAm ala
ĠAm iir
Ġjab aannu
Ġgah aniif
Ġgad ittan
te gr
Ġbul tee
Ġfakk eessu
ĠE PR
Ġilaal utti
ri h
ĠharÊ¼ ayyuu
Ġibs atu
Ġdhal otaa
Ġp oos
ĠbuÊ¼ oonni
ĠC oun
Ġsan att
Ġaman aa
ka saa
eel le
Ġhedduu dhaaf
Ġgagg eeysaa
ĠR aay
Ġdhag eessan
Ġhim etti
Ġlamm umma
es uun
ĠtaÊ¼u yyuu
id u
Ġbal f
Ġdhii bb
ma jii
Ġcim a
Ġhojje taan
Ġmil iyoonni
Ġfil ata
ĠAfaan uma
ull aa
Ġraaww atuun
Ġhamm aat
ĠWal qixx
ĠmulÊ¼ isutti
Ġaddunyaa s
Ġduu te
Ġlol tootaa
Ġ19 36
Ġfedh uu
Ġish ees
ĠAr j
ĠAr gaa
Ġhoo daa
ib sa
Ġam bummaa
Ġmurt eessaan
Ġbaq annee
ik elaawwii
ĠOromoof an
Ġerg amaan
Ġag ab
Ġag uug
Ġqaam uma
sh am
Ġfur achuu
Ġnyaa phaa
Ġif iif
In j
Ġbif ti
ĠOPDO f
aaw u
Ġbulch iinsii
Ġ4 3
Ġgargaar anii
Ġduul u
Ġkeeny af
Ġkeeny allee
og raph
ĠHar ki
aad ir
ĠWaaq aan
ĠWaaq eef
Ġsalph aan
Ġbobb aasaa
ĠAd aÊ¼aa
ĠX ur
Ġham tuun
Gaaf iif
ĠAl aabaan
ĠAl amayyoo
ind er
Ġsabboon aan
ĠKan tii
ibb oo
ine t
Ġakeek an
Ġgalm eessan
Ġmad aan
Ġway w
Ġway aanee
ĠYuuniv ersiti
Ġguut amtee
Ġmud ata
Ġdhok achuu
Ġdhiyaa taa
ĠAbb aas
Ġfix xee
Ġqabsaaw a
Ġdabr uuf
Ġbor i
ĠIb s
Ġhayy aman
Ġakkan umaan
eell am
ey a
Ġqind eessa
Ġgumaach inu
Ġseer uma
Ġdarar amuun
Ġdid eef
Ġgurm aaÊ¼anii
Ġpoolis ootni
Ġdalag anii
Keess uma
Ġreeb amee
Ġbeeksis u
Ġmaxxan famu
achiif te
Ġsar bee
je tte
Ġgay in
AT U
Ġaar tis
Ġhumn eessuu
orom oprotests
Ġhab juu
ĠV e
Ġdhib uun
Ġshor oor
ĠAkka s
ĠGuu too
Ġjirr us
Ġbishaan iin
Ġcunqurf amtoota
Ġtarr eessuu
Ġtarr eeffaman
Ġdhaqqab an
Ġgalch ine
Ġhag uugg
ĠGudd aan
Ġgub achuu
Ġgub ate
ĠOr maa
ĠSir aaj
Ġbarbad eessuun
ĠbabalÊ¼ achuu
Ġqalbii tti
Ġhol qa
Ġkaaf aman
ĠariÊ¼ ame
ĠDH AG
Ġgodaan e
ĠNam arraa
Ġgoww aan
Ġgoo cha
Ġdhagay amee
Ġnaq uuf
Ġmuldh ataa
ĠAmaar inyaa
áĮ ł
Ġhujii tti
Ġshorork eess
Ġolaan tummaan
San aaf
Ġqaqqab aa
Ġraaw atamaa
ĠGad itti
Ġmoor atti
Ġsak atta
Ġdaaww achaa
ĠyaaÊ¼ anii
ĠMul ugee
ĠJaar tee
esh a
Ġkees ati
Ġwaraab essaa
ĠDubb iftoota
Ġgowwoom sanii
Ġjabeeff annu
Sabboon tonni
Ġtams aasuu
ĠSoom alii
Ġdull oom
Ġleenj isee
Ġmadaal u
Ġmadaal uun
Ġwalga ii
ĠWarra q
Ġgalf ata
ĠUSA ID
Ġaad effate
ĠmooÊ¼ achuu
Ġdhoor kaa
ĠQaall itti
Af raffaa
ĠSum aal
Ġinves timentii
Akkan atti
Ġraf ee
Ġbool laa
Ġbaadh atee
Ġfaffac aÊ¼ee
Ġukkam suu
Ġtaajj abaa
AAM A
enyaa f
ĠboojiÊ¼ uun
ĠKom bol
ĠJIR UU
Ġfonqol cha
eop les
Ġfaran jiin
Ġcomm unity
Ġall aattii
kaar oo
ĠDimook r
Ġittifuf e
ĠMinistee rri
Ġ!!!!!!!! !!
Fal mii
quun namtii
Qor annoo
ĠShan affaa
ACH UUN
Ġsiq ee
Qabxii leen
Ġdeebiy uun
iigal tee
Ġpl anii
OROM IYAAN
timan tiin
Ġfund ura
ĠLol tuu
ĠMus ic
Ġhalag aaf
ĠDassaal eny
Ġkaamp aan
Ġek eraan
ĠFaax uma
Ġhaguug uuf
Ġherr eeg
ĠDabb all
Ġdhandh am
Ġgaww am
Ġwaah el
Ġgadaan tummaa
ĠCim deessaa
Waliigal tee
Ġqoqqoo duu
sir na
Ġarree daa
ĠOgad en
AAD ANNOO
áĭ¨ áįįáīħáĪŃ
Garg aarsi
ĠOrtod oksii
Fak eenyaaf
Ġtaab ota
ĠTull uun
fer ence
++ ++
ĠMaaÊ¼ikalaa wii
zid antii
Ġimaam ata
ĠBook ee
ĠQOF AATU
Ġqaamm i
Ġnaam us
ĠHala kee
ĠLIB ERATION
ĠDooyy oo
Ġulaag aalee
ĠWanc ii
5 3
A naan
C OM
D P
D ub
D ug
D adhab
G af
K WO
M II
M ATAA
N N
Q eÊ¼ee
S eensa
U ff
X ii
X iqq
Y AAN
Y aaÊ¼iin
Y ommuu
b ana
b araa
b arsiis
b icuu
f o
h ag
j irraa
k ara
k olee
k aleessa
l ine
s amuu
t ummaaf
u te
w eer
x annoon
Â ¬
Ġ aayy
Ġ Ã¸
Ĺ ı
an ti
oo sh
Ġk oolleejjii
Ġd r
Ġd iq
at nu
am tuun
am teef
Ġh aj
Ġh el
Ġh omish
Ġh ulaa
Ġb aalaa
Ġb aata
Ġb aaq
Ġb ass
al uma
Ġg annee
Ġg afaa
Ġg roup
Ġj annee
Ġj allaa
Ġf iis
Ġf arraa
Ġf irr
Ġm i
Ġm ob
Ġdh aha
ss uuf
om aan
Ġkan attii
rr an
oot nis
aal an
aal aqaa
Ġis as
dd i
Ġn amu
Ġn atu
Ġn afa
aÊ¼ eef
aÊ¼ amne
Ġqab ataa
Ġqab siisaa
Ġqab isoo
Ġqab achuudhaan
Ġqab aachuuf
aaf tee
Ġkeess tti
aas iitti
ach ee
il uun
Ġl aannu
ann aafi
ĠB adhaa
ĠB arree
ĠB una
Ġjedh amtee
eef atan
ĠM A
ĠM addi
ĠM uslii
ĠM UK
Ġc ar
Ġc itiin
Ġc ase
Ġc olle
ĠG aanaa
ĠG os
ĠG adda
ĠG aamoo
Ġtokk umm
ĠD on
Ġar aa
Ġar add
uf an
ĠS uur
ĠH ass
ĠH iik
ĠâĢ ŀ
ot o
ot uu
Ġho dh
Ġgo chu
Ġbiyy ambaa
ĠK G
ĠK aÊ¼een
im aata
Ġdur fame
Ġhar meen
ĠQ ac
Ġgaaf ateera
Ġgal l
ich arraa
all aqaa
aach u
oom inaa
ay iin
Ġhidh attoonni
Ġdiin uma
Ġr abb
tt iis
Ġsab ota
Ġjiran irratti
Ġbarbaa chuu
ĠABO tu
Ġgab raa
Ġgodh us
Ġgodh achuuf
Ġgodh es
Ġgodh ameef
Ġdhab siisu
aaÊ¼ ol
ĠN ovember
iti es
Ġmar k
add atti
Ġdhaabb adhu
ĠY u
ĠY es
ĠY aaÊ¼iin
Ġbah iin
Ġbah utti
Ġdeem tuu
Ġjab eenyaa
Ġjab iinaan
Ġgah ani
Ġgad am
Ġdhuf aan
ĠE mpaayera
ĠE mbaasii
Ġorom iya
Ġeeg e
Ġeeg amne
ed ian
Ġp il
Ġdir reen
Ġaman tiifi
oor mii
ĠUmm ataan
Ġnaann ummaa
Ġhim te
Ġbaratt ooni
Ġbarr e
Ġfuf tee
Ġfuf insa
Ġbo kkuu
Ġkabaj ne
Ġkabaj amtuu
Ġijaar ama
Ġijaar ameef
Ġofii rratti
Ġisin irraa
Ġkaas nee
Ġaddaa rra
ĠP al
ĠP altalk
ĠSh ek
ĠFinfinnee rratti
Ġfil adhaa
Ġfil atame
Ġhor aa
Ġhamm aatu
Ġdhih eessanii
ĠWal gargaarsa
Ġqoo di
Ġgabr oon
Ġtahuu tu
ish ii
Ġjijj iira
Ġjedhee too
âĢľ âĢ¦
EE F
Ġlakk uu
Ġbaq achiisaa
Ġbaq atummaa
Ġfayy a
Ġdabars eera
Ġerg een
Ġbiyyaa ti
Ġcaal uuf
Ġcaal ayyuu
Ġbit t
Ġsochii tti
Ġgargaar amaa
Ġta p
ĠtaÊ¼an itti
ĠHar buu
Ġjiraach un
Ġkam p
Waan an
ĠX ahaa
Ġgamm achuudhaan
Ġad aam
Ġad em
Ġfag aatu
Ġfag aachuun
Ġjaarm iyaaleen
uk ut
Yoo kaan
Ġball eessi
Ġsabboon ota
Ġmadd an
ĠFDG tti
IN JIF
Ġdhum ni
Ġtaasif nee
Ġqon n
Ġcuf aan
oph iya
ĠIs il
Ġan ti
Ġmiidh amuu
Ġmiidh agaan
Ġiyy inee
Ġqabsaaw onni
Ġ7 6
Ġdeegg arra
Ġcabs inee
[...]
