{"<s>":0,"<pad>":1,"</s>":2,"<unk>":3,"<mask>":4,"!":5,"\"":6,"#":7,"$":8,"%":9,"&":10,"'":11,"(":12,")":13,"*":14,"+":15,",":16,"-":17,".":18,"/":19,"0":20,"1":21,"2":22,"3":23,"4":24,"5":25,"6":26,"7":27,"8":28,"9":29,":":30,";":31,"<":32,"=":33,">":34,"?":35,"@":36,"A":37,"B":38,"C":39,"D":40,"E":41,"F":42,"G":43,"H":44,"I":45,"J":46,"K":47,"L":48,"M":49,"N":50,"O":51,"P":52,"Q":53,"R":54,"S":55,"T":56,"U":57,"V":58,"W":59,"X":60,"Y":61,"Z":62,"[":63,"\\":64,"]":65,"^":66,"_":67,"`":68,"a":69,"b":70,"c":71,"d":72,"e":73,"f":74,"g":75,"h":76,"i":77,"j":78,"k":79,"l":80,"m":81,"n":82,"o":83,"p":84,"q":85,"r":86,"s":87,"t":88,"u":89,"v":90,"w":91,"x":92,"y":93,"z":94,"{":95,"|":96,"}":97,"~":98,"¡":99,"¢":100,"£":101,"¤":102,"¥":103,"¦":104,"§":105,"¨":106,"©":107,"ª":108,"«":109,"¬":110,"®":111,"¯":112,"°":113,"±":114,"²":115,"³":116,"´":117,"µ":118,"¶":119,"·":120,"¸":121,"¹":122,"º":123,"»":124,"¼":125,"½":126,"¾":127,"¿":128,"À":129,"Á":130,"Â":131,"Ã":132,"Ä":133,"Å":134,"Æ":135,"Ç":136,"È":137,"É":138,"Ê":139,"Ë":140,"Ì":141,"Í":142,"Î":143,"Ï":144,"Ð":145,"Ñ":146,"Ò":147,"Ó":148,"Ô":149,"Õ":150,"Ö":151,"×":152,"Ø":153,"Ù":154,"Ú":155,"Û":156,"Ü":157,"Ý":158,"Þ":159,"ß":160,"à":161,"á":162,"â":163,"ã":164,"ä":165,"å":166,"æ":167,"ç":168,"è":169,"é":170,"ê":171,"ë":172,"ì":173,"í":174,"î":175,"ï":176,"ð":177,"ñ":178,"ò":179,"ó":180,"ô":181,"õ":182,"ö":183,"÷":184,"ø":185,"ù":186,"ú":187,"û":188,"ü":189,"ý":190,"þ":191,"ÿ":192,"Ā":193,"ā":194,"Ă":195,"ă":196,"Ą":197,"ą":198,"Ć":199,"ć":200,"Ĉ":201,"ĉ":202,"Ċ":203,"ċ":204,"Č":205,"č":206,"Ď":207,"ď":208,"Đ":209,"đ":210,"Ē":211,"ē":212,"Ĕ":213,"ĕ":214,"Ė":215,"ė":216,"Ę":217,"ę":218,"Ě":219,"ě":220,"Ĝ":221,"ĝ":222,"Ğ":223,"ğ":224,"Ġ":225,"ġ":226,"Ģ":227,"ģ":228,"Ĥ":229,"ĥ":230,"Ħ":231,"ħ":232,"Ĩ":233,"ĩ":234,"Ī":235,"ī":236,"Ĭ":237,"ĭ":238,"Į":239,"į":240,"İ":241,"ı":242,"Ĳ":243,"ĳ":244,"Ĵ":245,"ĵ":246,"Ķ":247,"ķ":248,"ĸ":249,"Ĺ":250,"ĺ":251,"Ļ":252,"ļ":253,"Ľ":254,"ľ":255,"Ŀ":256,"ŀ":257,"Ł":258,"ł":259,"Ń":260,"aa":261,"ee":262,"an":263,"oo":264,"ii":265,"uu":266,"Ġk":267,"aan":268,"Ġd":269,"ar":270,"at":271,"am":272,"Ġh":273,"Ġi":274,"ti":275,"Ġb":276,"ab":277,"al":278,"Ġg":279,"Ġj":280,"ir":281,"Ġf":282,"Ġt":283,"kk":284,"Ġm":285,"um":286,"in":287,"ch":288,"Ê¼":289,"dh":290,"Ġw":291,"Ġa":292,"Ġdh":293,"ss":294,"Ġq":295,"Ġs":296,"een":297,"om":298,"Ġkan":299,"eess":300,"rr":301,"tti":302,"ĠO":303,"rom":304,"Ġfi":305,"is":306,"yy":307,"oot":308,"umm":309,"Ġjir":310,"ni":311,"ĠOrom":312,"atti":313,"iin":314,"ur":315,"aal":316,"Ġis":317,"kka":318,"uun":319,"dd":320,"Ġn":321,"yaa":322,"aÊ¼":323,"Ġqab":324,"Ġirr":325,"ag":326,"ĠOromoo":327,"Ġhin":328,"aaf":329,"un":330,"anii":331,"Ġakka":332,"Ġo":333,"ĠA":334,"Ġkeess":335,"Ġje":336,"aat":337,"âĢ":338,"aas":339,"Ġy":340,"ach":341,"bb":342,"Ġbar":343,"ummaa":344,"il":345,"oon":346,"uuf":347,"Ġwal":348,"Ġl":349,"oota":350,"ra":351,"amm":352,"ah":353,"mm":354,"er":355,"ama":356,"ann":357,"ad":358,"iyy":359,"ĠB":360,"ĠtaÊ¼":361,"Ġto":362,"eeny":363,"jj":364,"aar":365,"Ġjedh":366,"iyaa":367,"eef":368,"saa":369,"ĠM":370,"Ġc":371,"Ġgar":372,"ata":373,"ĠG":374,"att":375,"or":376,"sa":377,"Ġisaan":378,"Ġtokk":379,"ul":380,"ayy":381,"Ġkana":382,"ĠW":383,"Ġjiru":384,"af":385,"Ġirratti":386,"as":387,"raa":388,"ĠD":389,"Ġirraa":390,"Ġar":391,"uf":392,"Ġitti":393,"Ġisaa":394,"lee":395,"aq":396,"iis":397,"it":398,"Ġwaan":399,"ĠS":400,"baa":401,"Ġtur":402,"ĠI":403,"and":404,"ĠH":405,"ana":406,"ĠâĢ":407,"ot":408,"eenya":409,"Ġgu":410,"Ġho":411,"Ġgo":412,"aam":413,"soo":414,"Ġamm":415,"akk":416,"Ġkeessatti":417,"ww":418,"Ġwar":419,"amaa":420,"Ġbiyy":421,"alee":422,"Ġadd":423,"iif":424,"en":425,"ga":426,"gaa":427,"Ġil":428,"Ġof":429,"Ġkun":430,"ph":431,"na":432,"Ġdee":433,"ol":434,"ĠK":435,"eek":436,"uma":437,"Ġdhaa":438,"und":439,"BO":440,"if":441,"amu":442,"on":443,"ub":444,"im":445,"tii":446,"aman":447,"Ġumm":448,"Ġ2":449,"itti":450,"Ġtokko":451,"gg":452,"Ġnu":453,"eroo":454,"achuu":455,"ame":456,"Ġhund":457,"Ġarg":458,"Ġuu":459,"Ġdand":460,"tu":461,"aba":462,"ĠT":463,"Ġdur":464,"Ġkeessa":465,"ayyaan":466,"aatti":467,"tuu":468,"Ġhar":469,"Ġtah":470,"Ġisaanii":471,"Ġyoo":472,"Ġdhi":473,"ĠF":474,"Ġjira":475,"dha":476,"ĠQ":477,"ataa":478,"Ġyaa":479,"ubb":480,"Ġgaaf":481,"eeff":482,"Ġgal":483,"ilis":484,"ne":485,"Ġkeenya":486,"da":487,"amee":488,"Ġ1":489,"ich":490,"Ġdha":491,"ool":492,"nee":493,"Ġjech":494,"idh":495,"Ġbeek":496,"all":497,"agg":498,"Ġyeroo":499,"Ġmalee":500,"ĠJ":501,"atee":502,"ummaan":503,"Ġ(":504,"aach":505,"Ġbir":506,"ala":507,"Ġdab":508,"Ġab":509,"taa":510,"Ġkeessaa":511,"Ġirra":512,"amuu":513,"kaa":514,"araa":515,"atu":516,"Ġqabsoo":517,"Ġqo":518,"oom":519,"atan":520,"ay":521,"faa":522,"ĠOromiyaa":523,"Ġgudd":524,"Ġture":525,"Ġuumm":526,"akka":527,"ars":528,"Ġhidh":529,"Ġol":530,"oonni":531,"Ġdiin":532,"aay":533,"Ġdar":534,"Ġr":535,"eeg":536,"Ġseen":537,"ilisummaa":538,"arr":539,"ĠU":540,"Ġx":541,"Ġnam":542,"ayyaanee":543,"ota":544,"tt":545,"udh":546,"Ġmoot":547,"faan":548,"ĠâĢľ":549,"daa":550,"Ġakk":551,"âĢĿ":552,"Ġsab":553,"annoo":554,"Ġjiran":555,"Ġmir":556,"adh":557,"aalaa":558,"edd":559,"uÊ¼":560,"alaa":561,"ate":562,"Ġnama":563,"Ġbiyya":564,"aw":565,"Ġso":566,"01":567,"Ġdeeb":568,"maan":569,"Ġij":570,"Ġhojj":571,"Ġin":572,"Ġgara":573,"ina":574,"Ġhaa":575,"iy":576,"eenyaa":577,"Ġbarbaa":578,"dhaan":579,"==":580,"Ġhir":581,"Ġmur":582,"ĠABO":583,"Ġqabu":584,"Ġgab":585,"tee":586,"aala":587,"ess":588,"Ġni":589,"Ġhub":590,"jii":591,"Ġgodh":592,"ees":593,"Ġummata":594,"Kan":595,"enn":596,"Ġhum":597,"Ġdhab":598,"Ġwaliin":599,"Ġdubb":600,"Ġsir":601,"Ġib":602,"Ġhedd":603,"ĠdandaÊ¼":604,"aall":605,"aaÊ¼":606,"aann":607,"ĠN":608,"Ġsh":609,"Ġfudh":610,"achuun":611,"idd":612,"atanii":613,"Ġra":614,"AA":615,"âĢ¦":616,"Ġisa":617,"haa":618,"fii":619,"ĠL":620,"iti":621,"iÊ¼":622,"Ġmar":623,"isaa":624,"add":625,"Ġbara":626,"Ġdhu":627,"Ġhan":628,"ba":629,"Ġdhaabb":630,"ootaa":631,"qab":632,"eessaa":633,"ĠY":634,"Ġboo":635,"oof":636,"Ġbah":637,"eer":638,"anni":639,"agaa":640,"Ġyk":641,"Ġlaf":642,"ani":643,"aqaa":644,"Ġdeem":645,"ĠAm":646,"Ġbakka":647,"Ġjab":648,"00":649,"Ġgah":650,"ĠtaÊ¼uu":651,"anaa":652,"Ġgad":653,"Ġti":654,"Ġadda":655,"neen":656,"uul":657,"te":658,"us":659,"aayy":660,"dee":661,"!!":662,"Ġbul":663,"Ġfakk":664,"Ġdhuf":665,"Ġjal":666,"iir":667,"Ġykn":668,"siis":669,"Ġkenn":670,"too":671,"chaa":672,"ĠE":673,"Ġyaad":674,"sii":675,"Ġguu":676,"Ġmag":677,"eerr":678,"Ġilaal":679,"ajj":680,"eessa":681,"Ġuummata":682,"Ġaan":683,"Ġorom":684,"Ġmaal":685,"Ġeeg":686,"yyaa":687,"ri":688,"Ġkaraa":689,"umaa":690,"Ġqaba":691,"aatu":692,"ootni":693,"kaan":694,"aasa":695,"phiyaa":696,"Ġrakk":697,"eera":698,"Ġ201":699,"Ġtaan":700,"rraa":701,"fin":702,"ĠharÊ¼":703,"tiin":704,"ara":705,"Ġbilisummaa":706,"Ġtaas":707,"qq":708,"Ġdura":709,"Ġmana":710,"Ġibs":711,"aana":712,"Ġammoo":713,"ed":714,"Ġdhal":715,"Ġp":716,"Ġdir":717,"ĠbuÊ¼":718,"Ġkeenyaa":719,"fa":720,"ĠWayyaanee":721,"mma":722,"aatiin":723,"ĠC":724,"ru":725,"aalee":726,"Ġsad":727,"Ġer":728,"Ġbaas":729,"orm":730,"Ġmootummaa":731,"Ġku":732,"Ġkanneen":733,"dii":734,"Ġsan":735,"Ġaman":736,"aniif":737,"ĠtaÊ¼e":738,"Ġamma":739,"Ġmiti":740,"abaj":741,"Orom":742,"oor":743,"ati":744,"achaa":745,"arraa":746,"abs":747,"infin":748,"aata":749,"Ġajj":750,"Ġjechuun":751,"bbaa":752,"Ġgaruu":753,"Ġkanaan":754,"si":755,"Ġraa":756,"aj":757,"Ġji":758,"Ġjedhu":759,"icha":760,"edh":761,"ka":762,"eel":763,"kan":764,"achuuf":765,"Ġhedduu":766,"Ġhojii":767,"Ġgagg":768,"Ġdhaab":769,"aww":770,"ĠUmm":771,"Ġhaf":772,"aanii":773,"isuu":774,"ĠR":775,"Ġnaann":776,"Ġilmaan":777,"Ġdhag":778,"Ġhim":779,"Ġbaratt":780,"toota":781,"amanii":782,"aatii":783,"Ġlamm":784,"Ġmii":785,"ĠOromoon":786,"Ġbarr":787,"Ġwarra":788,"iig":789,"Ġfuf":790,"aggaa":791,"es":792,"Ġsiyaa":793,"Ġguddaa":794,"achiis":795,"Ġu":796,"adaa":797,"Ġabbaa":798,"Ġbo":799,"Ġosoo":800,"ĠtaÊ¼u":801,"Ġkabaj":802,"Ġijaar":803,"maa":804,"Ġmaqaa":805,"Ġbooda":806,"Ġwaa":807,"aachuu":808,"cha":809,"abb":810,"unyaa":811,"Ġmirga":812,"id":813,"infinnee":814,"âĢ¦âĢ¦":815,"Ġsaba":816,"aasaa":817,"Ġwayyaanee":818,"Ġdarb":819,"chis":820,"ĠkaÊ¼":821,"Ġmul":822,"Ġinni":823,"Ġjiraat":824,"Ġmis":825,"Ġe":826,"Ġseenaa":827,"aaraa":828,"Ġsoch":829,"Ġkanaa":830,"ef":831,"Ġitt":832,"Ġhanga":833,"iyya":834,"ak":835,"ĠtaÊ¼ee":836,"Ġqaban":837,"Ġbal":838,"Ġturan":839,"ac":840,"Ġafaan":841,"Ġofii":842,"amaan":843,"Ġakkas":844,"Dh":845,"nu":846,"tan":847,"ĠBilisummaa":848,"eessuu":849,"aanaa":850,"suu":851,"====":852,"ash":853,"Ġisin":854,"Ġmoo":855,"Ġtar":856,"Ġdhii":857,"amuun":858,"dhaa":859,"Ġhaala":860,"Ġwalitti":861,"Ġkaas":862,"ma":863,"ffaa":864,"Ġqoph":865,"od":866,"rra":867,"el":868,"Ġhumna":869,"Kanaaf":870,"Ġaddaa":871,"Ġnaannoo":872,"ok":873,"udd":874,"Ġlafa":875,"wwan":876,"okk":877,"Ġal":878,"bbo":879,"ĠDh":880,"Ġguyyaa":881,"ĠP":882,"Ġuum":883,"aafi":884,"Ġjedhan":885,"ooti":886,"ĠSh":887,"Ġ3":888,"Ġcim":889,"ud":890,"Ġummat":891,"Ġmorm":892,"ix":893,"Ġmagaalaa":894,"Ġoromoo":895,"Ġtaane":896,"âĢĻ":897,"aab":898,"ĠFinfinnee":899,"Ġhojje":900,"Ġee":901,"ree":902,"Ġdiina":903,"chuu":904,"Ġmil":905,"Ġfil":906,"Ġdhimma":907,"ax":908,"Ġsana":909,"Ġaa":910,"Akka":911,"Ġbarbaad":912,"naan":913,"Ġjechuu":914,"Ġakkuma":915,"Ġdirq":916,"Ġhaw":917,"annee":918,"ĠAfaan":919,"ull":920,"Ġsiyaasaa":921,"arkaa":922,"egg":923,"rii":924,"Ġsag":925,"Ġgur":926,"Kun":927,"Ġhor":928,"inaa":929,"saan":930,"rratti":931,"Ġraaww":932,"Ġool":933,"Kana":934,"onni":935,"ggan":936,"ĠâĢĵ":937,"arsii":938,"aaq":939,"imm":940,"Ġjiruu":941,"Ġyaada":942,"Ġbiraa":943,"DO":944,"arg":945,"Ġgaraa":946,"Ġkee":947,"eens":948,"Ġwareeg":949,"**":950,"Ġhamm":951,"Ġfii":952,"Ġjalqab":953,"niv":954,"ta":955,"anne":956,"arra":957,"Ġhunda":958,"duu":959,"ayyaaneen":960,"Ġhidhaa":961,"ĠBar":962,"Ġwaggaa":963,"ĠQeerr":964,"yoo":965,"Ġjedhanii":966,"ang":967,"Ġgarg":968,"Ġdhih":969,"Ġsirna":970,"ilee":971,"sis":972,"ira":973,"Ġjen":974,"ĠWal":975,"naa":976,"attii":977,"ĠharÊ¼a":978,"Ġqoo":979,"Ġjaar":980,"ig":981,"Ġgabr":982,"Ġtarkaan":983,"Ġtaasis":984,"jif":985,"ĠmulÊ¼":986,"re":987,"Ġtahuu":988,"Ġaddunyaa":989,"aataa":990,"Ġduu":991,"of":992,"Ġjedhamu":993,"ish":994,"Ġjijj":995,"le":996,"Ġlol":997,"noota":998,"Ġfal":999,"201":1000,"Ġ19":1001,"chi":1002,"urr":1003,"Ġlubb":1004,"umur":1005,"Ġfedh":1006,"ĠUmmata":1007,"Ġammaa":1008,"Ġeeny":1009,"mmoo":1010,"Ġrakkoo":1011,"Ġillee":1012,"Ġbu":1013,"Ġjedhee":1014,"Ġish":1015,"Ġharka":1016,"Ġsadarkaa":1017,"Ġdhugaa":1018,"ĠAr":1019,"amni":1020,"he":1021,"âĢľ":1022,"Ġqofa":1023,"Ġhoo":1024,"ĠgaÊ¼":1025,"Ġas":1026,"ib":1027,"ĠdeebiÊ¼":1028,"OO":1029,"Ġittiin":1030,"aga":1031,"annaa":1032,"eeb":1033,"Ġqabs":1034,"utti":1035,"laa":1036,"li":1037,"ĠItoo":1038,"EE":1039,"ĠAdd":1040,"Ġgaaffii":1041,"Ġgadi":1042,"eff":1043,"ichaa":1044,"Ġlakk":1045,"Ġdhug":1046,"Ġgoot":1047,"Ġam":1048,"Ġtokkummaa":1049,"Ġkaayy":1050,"Ġkoo":1051,"Ġmurt":1052,"allee":1053,"Ġnamoota":1054,"Ġbaq":1055,"umsa":1056,"Ġod":1057,"Ġmootummaan":1058,"Ġqabsaa":1059,"ĠâĢĺ":1060,"taan":1061,"Ġfayy":1062,"PDO":1063,"deem":1064,"Ġalaa":1065,"ia":1066,"Ġdabars":1067,"Ġwajj":1068,"Ġtahe":1069,"ĠduÊ¼":1070,"anneen":1071,"ĠAb":1072,"LF":1073,"ĠAf":1074,"amne":1075,"ĠHab":1076,"leen":1077,"itii":1078,"atuu":1079,"ik":1080,"op":1081,"ĠOromoof":1082,"yyuu":1083,"Ġerg":1084,"Ġag":1085,"Ġjala":1086,"ĠWBO":1087,"yyaan":1088,"Ġfin":1089,"umas":1090,"Ġdabal":1091,"Ġqaam":1092,"sh":1093,"daan":1094,"Ġdadh":1095,"essa":1096,"anna":1097,"Ġna":1098,"aroo":1099,"ug":1100,"abaa":1101,"Ġqub":1102,"Ġfur":1103,"iyaan":1104,"aruu":1105,"Ġqor":1106,"Ġhundi":1107,"Ġnamaa":1108,"arri":1109,"ichi":1110,"Ġdan":1111,"Ġnyaa":1112,"Ê¼ee":1113,"otaa":1114,"Ġaadaa":1115,"ootummaan":1116,"la":1117,"suuf":1118,"eeraa":1119,"Ġjiraachuu":1120,"Ġdhiis":1121,"Ġbilis":1122,"aate":1123,"Ġif":1124,"Ġnagaa":1125,"Ġbiyyaa":1126,"ĠItoophiyaa":1127,"Ġabb":1128,"Ġsaa":1129,"Ġnag":1130,"In":1131,"Ġcaal":1132,"aatee":1133,"Ġlammii":1134,"Ġbit":1135,"Ġyaal":1136,"see":1137,"aniiru":1138,"iqq":1139,"Ġdal":1140,"Ġkanatti":1141,"Wal":1142,"Ġak":1143,"Ġbif":1144,"Ġkuf":1145,"Ġkaan":1146,"ĠdandaÊ¼u":1147,"ĠbaÊ¼":1148,"tin":1149,"eessuuf":1150,"Ġsochii":1151,"isa":1152,"Ġsaam":1153,"Ġerga":1154,"ĠOPDO":1155,"aaw":1156,"Ġmooraa":1157,"ĠQab":1158,"Ġdandeeny":1159,"boo":1160,"uudhaan":1161,"tiyoo":1162,"Ġdiinaa":1163,"tummaa":1164,"Ġbulch":1165,"irr":1166,"ila":1167,"__":1168,"Ġdhaam":1169,"ĠâĢĿ":1170,"Ġdaan":1171,"Ġadeem":1172,"Ġgama":1173,"irraa":1174,"Ġmirkan":1175,"Ġ4":1176,"Ġ?":1177,"eessuun":1178,"Ġdhaaba":1179,"Ġgargaar":1180,"ĠGadaa":1181,"xan":1182,"goo":1183,"Ġkanaaf":1184,"iinsa":1185,"Ġgegg":1186,"Ġbarbaachis":1187,"Ġduul":1188,"iddaa":1189,"Ġaf":1190,"alph":1191,"Ġkaayyoo":1192,"eeq":1193,"Ġwaam":1194,"Ġkeeny":1195,"eessan":1196,"atni":1197,"Yeroo":1198,"Ġta":1199,"iq":1200,"og":1201,"Ġimmoo":1202,"PLF":1203,"inaan":1204,"Ġdadhab":1205,"ĠYuu":1206,"Akk":1207,"ĠtaÊ¼an":1208,"inee":1209,"annoon":1210,"Ġbakk":1211,"atamaa":1212,"Ġnuuf":1213,"idduu":1214,"Ġfuul":1215,"Umm":1216,"Ġmal":1217,"Ġxumur":1218,"Ġgaar":1219,"Ġsun":1220,"bii":1221,"ĠMag":1222,"ĠHar":1223,"boon":1224,"ogg":1225,"Ġbifa":1226,"Ġwajjin":1227,"Ġmiseens":1228,"Ġhaww":1229,"aÊ¼aa":1230,"Ġwarri":1231,"II":1232,"Ġjecha":1233,"Ġbad":1234,"..":1235,"Ġnamni":1236,"Ġdarg":1237,"Ġjiraach":1238,"attoota":1239,"Ġkal":1240,"attuu":1241,"Ġwalii":1242,"eessu":1243,"fiin":1244,"ĠItiyoo":1245,"ĠQBO":1246,"Ġdhiy":1247,"Ġ5":1248,"aad":1249,"Ġtahu":1250,"ĠMin":1251,"ĠWaaq":1252,"Ġakkasumas":1253,"Ġbarattoota":1254,"Ġbaaf":1255,"Ġsalph":1256,"Ġfalm":1257,"isuuf":1258,"Ġjalaa":1259,"Ġbobb":1260,"Ġbaay":1261,"aaÊ¼ee":1262,"ĠAd":1263,"Ġgaafa":1264,"ashaa":1265,"ĠQeerroo":1266,"áĪ":1267,"Ġhundaa":1268,"Ġaj":1269,"Ġwaraana":1270,"Ġdeebii":1271,"Ġguutuu":1272,"dur":1273,"ter":1274,"Ê¼aa":1275,"ĠObbo":1276,"Ġjijjiir":1277,"Ġjirtu":1278,"Ġqabna":1279,"em":1280,"Ġcaalaa":1281,"otni":1282,"eey":1283,"Ġkam":1284,"Ġdhaq":1285,"Ġnatti":1286,"ĠIn":1287,"suun":1288,"mp":1289,"du":1290,"chuun":1291,"aggoota":1292,"annu":1293,"ĠBiyya":1294,"umaan":1295,"Ġbira":1296,"Ġgurg":1297,"Ġkeessan":1298,"Ġdhuun":1299,"Ġhii":1300,"Ġeegal":1301,"nii":1302,"eesse":1303,"Waan":1304,"atama":1305,"ĠGod":1306,"Ġbuqq":1307,"eessee":1308,"isee":1309,"Ġinjif":1310,"to":1311,"Ġ200":1312,"ĠX":1313,"aalli":1314,"amsiis":1315,"Ġtokkoo":1316,"Ġthe":1317,"Bar":1318,"Ġqabne":1319,"iyyaa":1320,"Ġul":1321,"iisaa":1322,"DG":1323,"aanni":1324,"ĠAbbaa":1325,"Ġgamm":1326,"Ġdirqama":1327,"ic":1328,"eet":1329,"ameera":1330,"Ġad":1331,"Ġham":1332,"ataan":1333,"Ġbuu":1334,"Gaaf":1335,"rri":1336,"uufi":1337,"isu":1338,"Ġfag":1339,"ĠOromummaa":1340,"Ġhal":1341,"arratti":1342,"Ġjalatti":1343,"aaj":1344,"Ġwan":1345,"arsiitii":1346,"Ġqabsoon":1347,"Ġxiqq":1348,"isiis":1349,"ootii":1350,"ĠAl":1351,"ootiin":1352,"ing":1353,"etti":1354,"Ġqofaa":1355,"Ġakkam":1356,"OM":1357,"Ġgabrummaa":1358,"Ġban":1359,"ers":1360,"ĠbuÊ¼aa":1361,"âĢ¦âĢ¦âĢ¦âĢ¦":1362,"aqa":1363,"Ġgaa":1364,"Ġfayyad":1365,"Ġutuu":1366,"Ġtan":1367,"umsaa":1368,"Ġgum":1369,"Ġbarbaach":1370,"toonni":1371,"Ġka":1372,"Ġwaraanaa":1373,"Ġjaarm":1374,"Ġjaal":1375,"ĠtaÊ¼eef":1376,"com":1377,"Ġdhaan":1378,"ĠOromo":1379,"Har":1380,"Ġbiroo":1381,"Garuu":1382,"iitti":1383,"Ġijool":1384,"ĠJimm":1385,"moo":1386,"uk":1387,"Ġlubbuu":1388,"Yoo":1389,"qur":1390,"Ġgaggeeff":1391,"Ġtarkaanfii":1392,"ind":1393,"Ġmataa":1394,"Ġnutti":1395,"Ġball":1396,"awaa":1397,"iira":1398,"Ġsabboon":1399,"arii":1400,"========":1401,"aasii":1402,"Ġgan":1403,"Ġotuu":1404,"aff":1405,"oolis":1406,"Ġajjees":1407,"eessit":1408,"attee":1409,"ĠKan":1410,"isuun":1411,"Ġuf":1412,"Ġlama":1413,"Ġmadd":1414,"Ġqal":1415,"Ġtol":1416,"AN":1417,"ukk":1418,"ut":1419,"ĠTPLF":1420,"amuuf":1421,"Ġjirti":1422,"aree":1423,"iyoon":1424,"ĠtaÊ¼a":1425,"tota":1426,"Ġhoj":1427,"Ġhaal":1428,"Ġgabaas":1429,"och":1430,"Ġhedduun":1431,"Ġaangoo":1432,"ilaa":1433,"ibb":1434,"Ġnuti":1435,"Qab":1436,"Ġqaww":1437,"aamaa":1438,"Ġqooda":1439,"Ġgand":1440,"Ġgod":1441,"unqur":1442,"Ġdiig":1443,"ĠGal":1444,"Ġduraa":1445,"ABO":1446,"ork":1447,"Ê¼a":1448,"eder":1449,"eroon":1450,"ĠFDG":1451,"ine":1452,"adhaa":1453,"Ġjirra":1454,"IN":1455,"Ġgadd":1456,"ĠtaÊ¼uun":1457,"rree":1458,"aniin":1459,"Ġakeek":1460,"Ġken":1461,"atamu":1462,"ddoo":1463,"Ġgalm":1464,"fi":1465,"kol":1466,"Ġmees":1467,"Ġwalab":1468,"os":1469,"Ġtahee":1470,"Ġcarraa":1471,"Mootummaan":1472,"Ġala":1473,"Ġdhum":1474,"Ġhirm":1475,"!!!!":1476,"dhaaf":1477,"essaa":1478,"atoota":1479,"yii":1480,"Ġkuni":1481,"uyyaa":1482,"Ġdheer":1483,"Ġmad":1484,"ĠUumm":1485,"Ġishee":1486,"Ġway":1487,"Haa":1488,"Ġsagalee":1489,"Ġbiyyoota":1490,"Ġkut":1491,"jjii":1492,"Ġbarn":1493,"Ġjett":1494,"ola":1495,"ĠABOn":1496,"iisa":1497,"aash":1498,"Ġguddaan":1499,"eenaa":1500,"Ġroo":1501,"Ġkutaa":1502,"Oromoon":1503,"uq":1504,"Ġtaasif":1505,"Ġani":1506,"Ġgam":1507,"Ġamantii":1508,"Ġdhaloota":1509,"Ġbarbaachisaa":1510,"Ġhoggan":1511,"aatan":1512,"ĠTig":1513,"ĠYuuniv":1514,"bboo":1515,"maata":1516,"ĠItiyoophiyaa":1517,"Ġirree":1518,"Ġ2014":1519,"Ġjireenya":1520,"baan":1521,"Ġmuu":1522,"ĠJimmaa":1523,"Ġcunqur":1524,"eekk":1525,"ĠIl":1526,"ij":1527,"Ġjirru":1528,"Ġaanaa":1529,"atame":1530,"Ġ0":1531,"ora":1532,"ahaa":1533,"ootummaa":1534,"Ġfac":1535,"Ġibsa":1536,"Ġguut":1537,"ĠTokk":1538,"chuuf":1539,"Ġqon":1540,"Ġirraan":1541,"UU":1542,"atam":1543,"kf":1544,"ĠdandaÊ¼a":1545,"Ġmaq":1546,"Ġjedhe":1547,"Ġmormii":1548,"Ġhord":1549,"oomaa":1550,"Ġhawaasa":1551,"Ġyoom":1552,"Ġmud":1553,"aatiif":1554,"Ġdhok":1555,"inni":1556,"Ġdandeenye":1557,"anee":1558,"Ġcuf":1559,"tis":1560,"Ġfakkaatu":1561,"oph":1562,"ĠIs":1563,"Ġturee":1564,"Ġfaa":1565,"Ġxiyy":1566,"su":1567,"Ġ|":1568,"Ġan":1569,"Ġum":1570,"ĠQabsoo":1571,"yyaana":1572,"Ġdhiyaa":1573,"antaa":1574,"buu":1575,"Ġ6":1576,"Ġdim":1577,"Ġdag":1578,"Ġummataa":1579,"cc":1580,"Ġkaasee":1581,"Ġsaanii":1582,"aayee":1583,"th":1584,"Ġkiyya":1585,"Ġbarnoota":1586,"Tokk":1587,"yaan":1588,"Ġjedha":1589,"Ġgahaa":1590,"ĠAbb":1591,"ation":1592,"Ġfix":1593,"Ġgaarii":1594,"Ġmiidh":1595,"umatti":1596,"Ġlabs":1597,"Ġdaran":1598,"eg":1599,"Ġdiinni":1600,"ĠGodina":1601,"Sab":1602,"Ġdiddaa":1603,"anitti":1604,"Ġukk":1605,"ĠOromoota":1606,"Ġiyy":1607,"Ġqabeenya":1608,"ĠWall":1609,"arsiis":1610,"ajjii":1611,"ĠZ":1612,"Ġwarraa":1613,"Ġqabsaaw":1614,"ROM":1615,"Ġlamaan":1616,"Ġummanni":1617,"Ġajjeef":1618,"Ġisaaf":1619,"ammuu":1620,"Ġwayy":1621,"Ġ7":1622,"Ġseera":1623,"Ġwalg":1624,"Ġdeegg":1625,"ĠHabashaa":1626,"Ġ12":1627,"Ġeenyummaa":1628,"aÊ¼u":1629,"Ġdabr":1630,"Ġwall":1631,"Ġhawaas":1632,"Ġtuf":1633,"Ġbor":1634,"Ġsi":1635,"Nam":1636,"Ġbarsiis":1637,"Ġqaama":1638,"ill":1639,"Ġqabnu":1640,"Ġog":1641,"ĠBiyy":1642,"aÊ¼uu":1643,"Ġajjee":1644,"eessanii":1645,"Ġjedheen":1646,"Ġlaaf":1647,"Ġgochaa":1648,"Ġmagaal":1649,"eensa":1650,"Ġdhimm":1651,"Ġcabs":1652,"Ġshakk":1653,"ilik":1654,"Ġmilk":1655,"SA":1656,"Ġkar":1657,"ĠDarg":1658,"Ġammas":1659,"Ġodoo":1660,"attu":1661,"Ġsaax":1662,"ĠIb":1663,"ikaa":1664,"Ġhayy":1665,"qaa":1666,"ent":1667,"ajeel":1668,"Ġtaj":1669,"ĠWayyaaneen":1670,"Ġqabatee":1671,"Ġdargagg":1672,"atamuu":1673,"ameen":1674,"Ġtana":1675,"ĠAfri":1676,"âĢĶ":1677,"Ġabdii":1678,"Ġwaliig":1679,"Ġmee":1680,"ullee":1681,"Ġ2013":1682,"Ġwareegama":1683,"Ġmaaliif":1684,"Ġammo":1685,"Ġakkan":1686,"iraa":1687,"tanii":1688,"mpaay":1689,"ook":1690,"ĠAmboo":1691,"ĠWar":1692,"bee":1693,"áī":1694,"ĠMagaalaa":1695,"Ġjibb":1696,"Ġgidduu":1697,"Ġboon":1698,"abal":1699,"ĠtaaÊ¼":1700,"Ġaddaan":1701,"Ġmirgaa":1702,"nis":1703,"Ġsabaa":1704,"Ġilaall":1705,"alli":1706,"atuun":1707,"Ġargamu":1708,"Ġbarreeff":1709,"Ġdabar":1710,"sanii":1711,"Ġcimaa":1712,"Ġdub":1713,"Ġyeroon":1714,"Ġbiyyattii":1715,"eÊ¼":1716,"Ġakkasii":1717,"Ġfedhii":1718,"Ġmootumm":1719,"san":1720,"Ġobbo":1721,"Akkuma":1722,"Ġjedhuun":1723,"di":1724,"aadh":1725,"eell":1726,"Ġifatti":1727,"olee":1728,"absoon":1729,"ban":1730,"eny":1731,"isanii":1732,"Ġisaaniif":1733,"Bara":1734,"áĭ":1735,"ey":1736,"Ġkol":1737,"aabaa":1738,"Ġbeeku":1739,"ĠAmaaraa":1740,"Ġotoo":1741,"Ġqof":1742,"Ġbiratti":1743,"org":1744,"Ġmurtii":1745,"AR":1746,"áĬ":1747,"Ġ10":1748,"eetti":1749,"Ġleen":1750,"Ġjennee":1751,"Ġtokkoon":1752,"affaa":1753,"Ġ9":1754,"Ġdin":1755,"Ġqind":1756,"ĠOROM":1757,"Ġhiriira":1758,"aaww":1759,"Ġhundaan":1760,"aarraa":1761,"Ġach":1762,"Ġulf":1763,"aatuu":1764,"Ġsababa":1765,"irratti":1766,"Ġbaan":1767,"Ġwayyaaneen":1768,"ise":1769,"Ġ2015":1770,"Ġummatni":1771,"Ġgumaach":1772,"omm":1773,"aÊ¼ee":1774,"ootaan":1775,"Ġdhala":1776,"isan":1777,"Ġmirg":1778,"Ġtajaaj":1779,"Ġifa":1780,"ibbaa":1781,"uudha":1782,"Ġhaaraa":1783,"****":1784,"Ġragaa":1785,"Ġhang":1786,"Ġdamm":1787,"Ġmax":1788,"chisee":1789,"Ġhordof":1790,"Ġhark":1791,"Ġ8":1792,"amoo":1793,"Ġyakk":1794,"Ġbil":1795,"Ġfiniin":1796,"oÊ¼":1797,"ĠGab":1798,"Ġseer":1799,"Ġmeeshaa":1800,"tuun":1801,"Ġjiraatan":1802,"Ġilaalcha":1803,"eefi":1804,"AAN":1805,"jedh":1806,"sif":1807,"ĠBul":1808,"Ġhamma":1809,"utaa":1810,"Ġdhiiga":1811,"ĠharÊ¼aa":1812,"Ġhanq":1813,"Ġand":1814,"ĠSad":1815,"Ġdarar":1816,"Ġsod":1817,"//":1818,"aarr":1819,"Sh":1820,"Ġgon":1821,"uni":1822,"atte":1823,"Ġeegg":1824,"Ġbaayy":1825,"atii":1826,"ĠHabash":1827,"Ġkon":1828,"Ġharkaa":1829,"ulq":1830,"iil":1831,"amtee":1832,"oti":1833,"Ġijoollee":1834,"ĠHo":1835,"Ġqawwee":1836,"Ġyakka":1837,"Ġgahe":1838,"Ġhiriir":1839,"Ġfinc":1840,"Ġdid":1841,"Ġwanti":1842,"Ġmarii":1843,"Ġbarb":1844,"DF":1845,"se":1846,"illee":1847,"Ġjiraatu":1848,"oolee":1849,"Ġargaman":1850,"Ġdubbii":1851,"Namni":1852,"Ġwalabummaa":1853,"iifi":1854,"Ġdhabuu":1855,"Ġdach":1856,"ĠDhaa":1857,"Ġturr":1858,"iyyuu":1859,"ĠQeerroon":1860,"Ġsaaxil":1861,"Ġ15":1862,"____":1863,"Ġdhiif":1864,"ĠDr":1865,"aqq":1866,"Il":1867,"acc":1868,"Ġgurm":1869,"Ġgurgur":1870,"amtoota":1871,"oree":1872,"Ġjajj":1873,"Ġdheeraa":1874,"itaa":1875,"Ġfurmaata":1876,"Dhaa":1877,"Ġgoon":1878,"uudh":1879,"Ġjedhamee":1880,"Ġfid":1881,"Ġtor":1882,"amtu":1883,"Ġhaas":1884,"Ġfir":1885,"Ġwaliif":1886,"Ġkeenyaaf":1887,"Ġhooggan":1888,"tar":1889,"Isaan":1890,"Ġwaamicha":1891,"ĠbaayÊ¼ee":1892,"Ġdeemaa":1893,"Ġtatt":1894,"MM":1895,"Ġagarsiis":1896,"Ġkeen":1897,"Ġgochuu":1898,"Ġmurteeff":1899,"Ġajaj":1900,"era":1901,"Ġ-":1902,"atuuf":1903,"Ġdhufe":1904,"ishaan":1905,"ita":1906,"Ġsuu":1907,"Maal":1908,"Ġakkanaa":1909,"inc":1910,"man":1911,"Ġqeerr":1912,"Ġsirni":1913,"Ġjabaa":1914,"Ġxiyyeeff":1915,"Haala":1916,"Ġman":1917,"Ġgaafii":1918,"Ġqabuu":1919,"Ġpoolis":1920,"Ġdalag":1921,"inu":1922,"ĠbalÊ¼":1923,"Ġbarbaachisu":1924,"Ġgaree":1925,"Ġtaheef":1926,"Ġhubachuu":1927,"ĠMinilik":1928,"aara":1929,"Ġlubbuun":1930,"??":1931,"Ã£":1932,"Ġfaar":1933,"Ġqabeenyaa":1934,"Hum":1935,"Ġkkf":1936,"Ġdhaad":1937,"Ġhu":1938,"neef":1939,"ow":1940,"Add":1941,"aatt":1942,"diin":1943,"ĠâĢĶ":1944,"Ġgalii":1945,"Ġgor":1946,"ura":1947,"ĠqabsaaÊ¼":1948,"Ġjaarmay":1949,"Ġqajeel":1950,"Ġfilannoo":1951,"Ġbay":1952,"Ġachi":1953,"aÊ¼a":1954,"Ġuummanni":1955,"ĠLamm":1956,"Ġbarnootaa":1957,"gar":1958,"Ġmara":1959,"uti":1960,"Gab":1961,"Ġjiraachuun":1962,"ulqull":1963,"ih":1964,"Keess":1965,"Ġseenaan":1966,"ist":1967,"rroo":1968,"Ġduula":1969,"Ġqabdu":1970,"Ġhumnaan":1971,"Ġ20":1972,"ĠHaw":1973,"Ġqophii":1974,"Ġhiree":1975,"ew":1976,"Ġkunis":1977,"Ġmin":1978,"Ġukkaam":1979,"Ġjechaa":1980,"Ġcall":1981,"Ġreeb":1982,"abboon":1983,"iz":1984,"Ġbeeksis":1985,"âĢĶâĢĶ":1986,"Ġmaxxan":1987,"Ġjajjab":1988,"uutti":1989,"Ġmaatii":1990,"ĠJir":1991,"Ġshira":1992,"Ġhamaa":1993,"Ġdeeggar":1994,"eessi":1995,"Ġdegg":1996,"Ġwaggoota":1997,"Ġjiruuf":1998,"ixx":1999,"Ġnaan":2000,"waa":2001,"pp":2002,"sit":2003,"atiin":2004,"Ġwaayee":2005,"umma":2006,"Ġiyyuu":2007,"Ġdantaa":2008,"aaleen":2009,"achiif":2010,"Ġtahan":2011,"ayyuu":2012,"ĠkaÊ¼e":2013,"Ġsar":2014,"AL":2015,"oh":2016,"Ġfakkaata":2017,"Ġtattaaf":2018,"Ġnuu":2019,"Ġhumni":2020,"Ġ2016":2021,"achiisuu":2022,"ĠwaaÊ¼ee":2023,"okr":2024,"ĠAfrikaa":2025,"Ġtoof":2026,"Ġdhabamsiis":2027,"Ġtokkummaan":2028,"je":2029,"Ġtas":2030,"agaan":2031,"Ġgay":2032,"siisaa":2033,"Ġbarruu":2034,"tiif":2035,"laan":2036,"gal":2037,"mb":2038,"ersitii":2039,"AT":2040,"Ġkamuu":2041,"Ġdhaamsa":2042,"Ġija":2043,"Ġdeemu":2044,"Ġbalaal":2045,"ayyaa":2046,"Ab":2047,"Ġ/":2048,"Ġnamoonni":2049,"Ġkaleessa":2050,"Ġdhuunf":2051,"Ġkabajaa":2052,"Ġbarbaadu":2053,"Ġisii":2054,"iyoona":2055,"Ġbulchiinsa":2056,"ootti":2057,"Ġon":2058,"Ġlafaa":2059,"Ġmiidhaa":2060,"Ġdu":2061,"Ġwaliigal":2062,"Ġhaar":2063,"Ġbarataa":2064,"ze":2065,"Ġsammuu":2066,"insa":2067,"siif":2068,"Ġtakk":2069,"afxan":2070,"Ġhiik":2071,"Kanneen":2072,"Ġsirrii":2073,"allatt":2074,"Uumm":2075,"uumm":2076,"Ġkeey":2077,".âĢĿ":2078,"Ġsabab":2079,"Ġaar":2080,"Ġjirutti":2081,"Ġargachuu":2082,"War":2083,"Warri":2084,"jir":2085,"Ġtarkaanf":2086,"aph":2087,"Ġwarraaq":2088,"ĠMootummaa":2089,"Ġdhibb":2090,"Ġhumn":2091,"Sir":2092,"Ġhaga":2093,"Ġbalaa":2094,"Ġjaall":2095,"Ġofiin":2096,"Ġdarbe":2097,"Ġdaangaa":2098,"Ġbarattootni":2099,"eessatti":2100,"bbol":2101,"Ġhoogg":2102,"Ġarr":2103,"Ġdhagah":2104,"atamee":2105,"Ġqulqull":2106,"Ġjiraa":2107,"Ġyoon":2108,"aachaa":2109,"oruu":2110,"asaa":2111,"angal":2112,"ĠGaaf":2113,"aran":2114,":-":2115,"Ġ199":2116,"AB":2117,"ts":2118,"Ġqar":2119,"Ġnaaf":2120,"aasee":2121,"ĠDir":2122,"ON":2123,"Ġgarag":2124,"Ġarmaan":2125,"chaan":2126,"ĠAw":2127,"Ġfuula":2128,"Ġdammaq":2129,"ameef":2130,"Ġmala":2131,"ennaa":2132,"atatt":2133,"llee":2134,"Ġkaroo":2135,"thi":2136,"uus":2137,"ummaaf":2138,"orom":2139,"Ġwol":2140,"Ġturre":2141,"Ġejj":2142,"aachuun":2143,"xii":2144,"Ġmak":2145,"Amma":2146,"Ġlakkoof":2147,"Ġtum":2148,"ode":2149,"ĠAdda":2150,"Ġtik":2151,"eettii":2152,"aatanii":2153,"anis":2154,"ce":2155,"Ġbadii":2156,"annaan":2157,"Ġnagaan":2158,"Ġhab":2159,"Ġisaani":2160,"Ġtaanee":2161,"Ġinjifannoo":2162,"aak":2163,"ooma":2164,"ĠAmeer":2165,"2014":2166,"Ġhaalli":2167,"Ġpaar":2168,"Ġisiniif":2169,"HarÊ¼a":2170,"ĠV":2171,"Ġbeekk":2172,"itoot":2173,"Ġqabaachuu":2174,"Ġcode":2175,"Ġolitti":2176,"ĠIto":2177,"Ġhidhaatti":2178,"so":2179,"ĠMar":2180,"univ":2181,"aati":2182,"Ġdhuunfaa":2183,"Ġmalees":2184,"et":2185,"Ġguyy":2186,"Ġ11":2187,"eedd":2188,"Ġmanneen":2189,"Ġuummataa":2190,"Ġisaatti":2191,"abbii":2192,"Ġbabal":2193,"Ġdog":2194,"Ġbeel":2195,"Ho":2196,"Ġbiyyatti":2197,"atani":2198,"Ġshan":2199,"Qabsoon":2200,"Ġmiid":2201,"ijj":2202,"tonni":2203,"Ġtuq":2204,"ittii":2205,"ass":2206,"ĠIrree":2207,"Ġgadii":2208,"aannoo":2209,"Ġturte":2210,"Ġdug":2211,"Ġaww":2212,"ahii":2213,",âĢĿ":2214,"Ġdii":2215,"ĠAn":2216,"Ġdhib":2217,"waan":2218,"aÊ¼e":2219,"Ġmilkaa":2220,"Ġ25":2221,"Ġlam":2222,"Er":2223,"AM":2224,"oolessa":2225,"Ġbahaa":2226,"Ġ)":2227,"ĠItti":2228,"Ġgaggeessaa":2229,"ixaa":2230,"Gal":2231,"zex":2232,"Ġeebb":2233,"eb":2234,"ĠSom":2235,"Ġoromiyaa":2236,"Ġhafe":2237,"ob":2238,"Ġkak":2239,"Ġkab":2240,"Ġdhukk":2241,"Ġdubar":2242,"nuu":2243,"agdee":2244,"Ġsoss":2245,"Ġilaalchisee":2246,"atin":2247,"ootaaf":2248,"attoonni":2249,"Ġwarr":2250,"tootni":2251,"arkaan":2252,"aamsaa":2253,"ĠBarataa":2254,"Ġmu":2255,"aasuu":2256,"ĠOROMOO":2257,"Ġgahee":2258,"Ġyo":2259,"unyaan":2260,"Diin":2261,"Mee":2262,"Ġbas":2263,"Ġmiseensota":2264,"ĠUummata":2265,"ĠMis":2266,"Amm":2267,"ateen":2268,"Ġdaandii":2269,"SH":2270,"Ġakkasuma":2271,"Ġmaqaan":2272,"mii":2273,"Ġfuudh":2274,"eÊ¼ee":2275,"Ġjiranii":2276,"Ġhojiin":2277,"thiop":2278,"Yaa":2279,"aasaan":2280,"Ġdabre":2281,"teen":2282,"achiisaa":2283,"iree":2284,"Ġim":2285,"Ġayyaana":2286,"Ġdhagg":2287,"ĠOromootti":2288,"Rakk":2289,"Ġishii":2290,"amte":2291,"eenye":2292,"Ġhaq":2293,"ĠtaÊ¼anii":2294,"Gama":2295,"ĠOl":2296,"aalii":2297,"Ġcal":2298,"Ġqot":2299,"Ġtahuun":2300,"Ġhidhannoo":2301,"Ġras":2302,"Ġgootota":2303,"Injif":2304,"imma":2305,"Ġkuma":2306,"amii":2307,"Ġargaa":2308,"iiroo":2309,"Ġdabalatee":2310,"Inni":2311,"Ġsagantaa":2312,"eenyi":2313,"ĠHay":2314,"Ġhumnoota":2315,"Ġganda":2316,"Ġeg":2317,"aha":2318,"Ġtaph":2319,"ek":2320,"Ġdhageess":2321,"Ġgurgudd":2322,"idaa":2323,"Ġkunoo":2324,"Ġduree":2325,"Ġalatti":2326,"Ġkum":2327,"Itti":2328,"Ġtumsa":2329,"Ġdald":2330,"ĠBahaa":2331,"Ġtokkotti":2332,"Ġuummatni":2333,"000":2334,"bla":2335,"ĠkaÊ¼ee":2336,"Ġgarb":2337,"Ġhunduu":2338,"Ġsirr":2339,"Ġadeemsa":2340,"Ġguf":2341,"ĠAddunyaa":2342,"Ġboq":2343,"Ġakeeka":2344,"ugaa":2345,"Ġiddoo":2346,"Ġmeeq":2347,"ĠbalÊ¼aa":2348,"ochii":2349,"ooraa":2350,"aÊ¼an":2351,"Ġdhangal":2352,"eenyaan":2353,"ĠBir":2354,"ĠMootummaan":2355,"afa":2356,"Ġnurraa":2357,"Ġkennuu":2358,"~~":2359,"ĠBoor":2360,"Ġfudhachuu":2361,"Egaa":2362,"Ġhaqa":2363,"wwaa":2364,"),":2365,"agga":2366,"Ġsiyaasa":2367,"Ġbalaaleff":2368,"Ġdhaabbachuu":2369,"ĠFeder":2370,"sisaa":2371,"Ġduub":2372,"Ġdoor":2373,"Ġdubbatan":2374,"aasuun":2375,"Ġhinqab":2376,"Ġabd":2377,"Ġbarbaada":2378,"Ġgargaarsa":2379,"tootaa":2380,"Ê¼aan":2381,"Ġjirtan":2382,"Ġbahee":2383,"Ġfeder":2384,"Ġeegalee":2385,"Ġdhuk":2386,"Ġmiseensa":2387,"kii":2388,"uura":2389,"Ġdedd":2390,"Ġseeraa":2391,"ĠAanaa":2392,"Ġalagaa":2393,"Ġtakka":2394,"Ġdirree":2395,"Ani":2396,"oomf":2397,"Ġmurteessaa":2398,"ĠAbd":2399,"Ġgodina":2400,"Ġbiyyummaa":2401,"Ġhubachiis":2402,"Ġhind":2403,"Ġoof":2404,"Ġkolon":2405,"fakk":2406,"acha":2407,"bar":2408,"arreen":2409,"Ġob":2410,"Ġlaal":2411,"Ġyaadd":2412,"Ġsanyii":2413,"Ġdarbee":2414,"Ġyookaan":2415,"Ġshor":2416,"Ġbarbaadan":2417,"bul":2418,"Ġayyaan":2419,"Ġhundaaf":2420,"Ġkonkol":2421,"Ġwaraan":2422,"ĠAkka":2423,"ĠGuu":2424,"Seenaa":2425,"Ġgabaab":2426,"Ġjedhaman":2427,"Ġdhufu":2428,"Ġ18":2429,"Ġmars":2430,"Ġhatatt":2431,"Ġhaara":2432,"iddaan":2433,"eenc":2434,"ĠObboo":2435,"ĠGu":2436,"ĠKibbaa":2437,"Ġjirr":2438,"iyoo":2439,"Ġmogg":2440,"Ġobbol":2441,"achiisa":2442,"Ġbishaan":2443,"ĠGar":2444,"Ġcunqurf":2445,"Ġdegger":2446,"ĠDC":2447,"Ġbeekamu":2448,"ya":2449,"Ġeenyu":2450,"Ġang":2451,"Ġwalt":2452,"ĠMas":2453,"ollee":2454,"Ġtti":2455,"Ġkiyy":2456,"irri":2457,"Ġtarr":2458,"Ġmurna":2459,"Ġjiraate":2460,"ĠItophiyaa":2461,"Ġofirraa":2462,"Ġwagg":2463,"Oromo":2464,"dan":2465,"edha":2466,"Ġifaa":2467,"Ġor":2468,"uraa":2469,"Ġduuba":2470,"ĠYuunivarsiitii":2471,"Ġlab":2472,"Ġ16":2473,"zii":2474,"ĠGoot":2475,"Ġbarbaachisa":2476,"bo":2477,"Ġgodhan":2478,"ĠGuyyaa":2479,"Ġargam":2480,"Ġhojjachuu":2481,"Ġmagaala":2482,"ĠAs":2483,"idda":2484,"!!!":2485,"Karaa":2486,"gudd":2487,"Ġfash":2488,"Ġkom":2489,"adaan":2490,"ĠSab":2491,"Ġbahe":2492,"Ġruk":2493,"Ġdhiibbaa":2494,"Ġmata":2495,"Ġqabanii":2496,"koo":2497,"Ġtaate":2498,"Ġguutummaa":2499,"addaa":2500,"Ġfar":2501,"Ġkaleessaa":2502,"qa":2503,"ĠdandaÊ¼an":2504,"Ġmitii":2505,"Ġsanaa":2506,"Ġdhaqqab":2507,"gala":2508,"nam":2509,"ĠâĢ¦":2510,"Ġgalch":2511,"Ġummatoota":2512,"ĠTokkummaa":2513,"Kanaafuu":2514,"ĠbaayÊ¼":2515,"Ġmaall":2516,"ileen":2517,"Ġbuuf":2518,"Ġgodhe":2519,"Ġabbaan":2520,"fachuu":2521,"Oromoo":2522,"oob":2523,"Qabsoo":2524,"Wayyaaneen":2525,"Ġkall":2526,"Hund":2527,"aajj":2528,"Ġhag":2529,"ĠOromoot":2530,"Ġakkamitti":2531,"Ġdogogg":2532,"ixa":2533,"eed":2534,"uur":2535,"Ġsodaa":2536,"EEN":2537,"Ġdhukkub":2538,"Ġsim":2539,"Ġhadh":2540,"Ġbahan":2541,"Ġcin":2542,"Akkas":2543,"200":2544,"jiin":2545,"urree":2546,"aadd":2547,"aandh":2548,"attan":2549,"Ġfufee":2550,"ataniif":2551,"ĠdeebiÊ¼ee":2552,"Ġcaalaatti":2553,"Ġtooftaa":2554,"inii":2555,"ĠmariÊ¼":2556,"Ġhafee":2557,"eessaan":2558,"Ġgodhaa":2559,"Ġaddatti":2560,"Ġsaboota":2561,"Ġdhufee":2562,"Ġ21":2563,"Ġtaha":2564,"usl":2565,"Ġargamsiis":2566,"UMM":2567,"Ġisaas":2568,"itu":2569,"Ġdhabuun":2570,"aloo":2571,"Ġ14":2572,"Ib":2573,"anga":2574,"ĠHum":2575,"Ġkaroora":2576,"ataman":2577,"itt":2578,"ĠJaal":2579,"daal":2580,"ff":2581,"Ġmidh":2582,"Ġbaasuu":2583,"Ġdhugoom":2584,"ĠGudd":2585,"oraa":2586,"Ġgub":2587,"iÊ¼a":2588,"ĠArsii":2589,"Ġdi":2590,"Guyyaa":2591,"ĠGamm":2592,"iddu":2593,"ĠOr":2594,"ĠtaÊ¼aa":2595,"Ġammaatti":2596,"Ġgargar":2597,"oc":2598,"omaa":2599,"ĠSir":2600,"Ġhubachuun":2601,"PR":2602,"Ġhundee":2603,"Ġdubbatu":2604,"Ġdurii":2605,"Ġolola":2606,"ttii":2607,"uug":2608,"Ġbaatii":2609,"Ġgadh":2610,"Ġdhiig":2611,"Ġdheeraaf":2612,"Ġbarbad":2613,"ĠbabalÊ¼":2614,"ĠAmeerikaa":2615,"Ġjeeq":2616,"dhan":2617,"Ġwanni":2618,"Ġirratt":2619,"ilb":2620,"nib":2621,"Ġfuuldur":2622,"Ġdhaabbilee":2623,"Ġseeraan":2624,"de":2625,"yyii":2626,"ĠIrraa":2627,"mail":2628,"itootessa":2629,"Gar":2630,"aama":2631,"Ġuff":2632,"Afaan":2633,"Ġkadh":2634,"aataan":2635,"edia":2636,"Ġbarumsaa":2637,"Ġdanday":2638,"Ġabbootii":2639,"iinx":2640,"ĠSabboon":2641,"Kunis":2642,"AD":2643,"Ġ!":2644,"Ġofitti":2645,"Ġbittaa":2646,"aarm":2647,"Ġgodhu":2648,"Ġqabee":2649,"illi":2650,"Ã©":2651,"ĠOromiyaan":2652,"Ġtokkoom":2653,"YAA":2654,"aah":2655,"isti":2656,"Ġbahuu":2657,"Ġgeggeeff":2658,"ĠBilis":2659,"Ġbood":2660,"TI":2661,"Ġsadii":2662,"Ġqaan":2663,"Ġsilaa":2664,"ĠEr":2665,"Ġbin":2666,"Ġjirre":2667,"ASH":2668,"Ġdhiph":2669,"Ġwallaal":2670,"Ġilma":2671,"Ġdabree":2672,"Ġmas":2673,"ĠHin":2674,"Ġheddu":2675,"ĠIlmaan":2676,"ĠBoruu":2677,"Ġbiraatiin":2678,"Ġqalbii":2679,"Ġnafxan":2680,"Ġlaata":2681,"Ġdhaggeeff":2682,"araan":2683,"Abb":2684,"ĠOb":2685,"Ġwaajj":2686,"amnee":2687,"Ġfaall":2688,"Ġkanas":2689,"Ġafur":2690,"qaba":2691,"Ġ13":2692,"Ġrakkoon":2693,"ING":2694,"Ġrif":2695,"adhu":2696,"Ġhogg":2697,"oos":2698,"Ġteenya":2699,"Ġtasg":2700,"iid":2701,"ĠOn":2702,"Ilmaan":2703,"Ġdhaal":2704,"mayaa":2705,"Am":2706,"Ġbiraan":2707,"Ġbulaa":2708,"Biyy":2709,"ttu":2710,"Ġfarra":2711,"Ġbaasuuf":2712,"argee":2713,"IS":2714,"aggar":2715,"2016":2716,"Ġbilisa":2717,"Ġati":2718,"Ġdhaabaa":2719,"mi":2720,"âĢ¦âĢ¦âĢ¦âĢ¦âĢ¦âĢ¦âĢ¦âĢ¦":2721,"Ġajjeechaa":2722,"Lamm":2723,"Ġ:":2724,"Ġquu":2725,"Ġdhaabbatu":2726,"Ġhaadha":2727,"mpaayera":2728,"gaaf":2729,"Ġsochiin":2730,"Ġgala":2731,"RR":2732,"ĠMir":2733,"siisuu":2734,"Ġtaanaan":2735,"Ġlola":2736,"ps":2737,"Ġbeekamaa":2738,"Ġuummat":2739,"Ġdandeenya":2740,"Ġhidhaman":2741,"idaan":2742,"âĸ":2743,"Ġdeemuu":2744,"ĠGabr":2745,"Ġkess":2746,"Ġjedhame":2747,"Ġhol":2748,"ubee":2749,"arsaa":2750,"Ġdiinaaf":2751,"ĠdandaÊ¼ama":2752,"lm":2753,"Ġmormit":2754,"isaan":2755,"illeen":2756,"Ġirraatti":2757,"ĠAbdii":2758,"PRDF":2759,"CH":2760,"ĠOromooti":2761,"Ġkaaf":2762,"Ġmanaa":2763,"Ġkanuma":2764,"Biyya":2765,"Ġgochuun":2766,"ĠOromootiin":2767,"Ġqorannoo":2768,"Ġwayyaan":2769,"ĠKeessatti":2770,"Mur":2771,"Ġ24":2772,"Ġmirgi":2773,"eh":2774,"gee":2775,"Ġdhork":2776,"Ġargama":2777,"Ġargame":2778,"Ġjijjir":2779,"Ġmallatt":2780,"Ġtoo":2781,"ĠGur":2782,"ĠEthiop":2783,"Ġisaatiin":2784,"Ġduubatti":2785,"OA":2786,"Ġir":2787,"ĠariÊ¼":2788,"TON":2789,"aanne":2790,"Ġnan":2791,"Ġqabsoof":2792,"achiisuuf":2793,"2013":2794,"Ġbilisoom":2795,"Hir":2796,"Ij":2797,"ĠkaaÊ¼":2798,"Ġjedhama":2799,"aandhala":2800,"Haalli":2801,"Obbo":2802,"Ġgaaffiin":2803,"ity":2804,"Ġargatan":2805,"Ġhojjet":2806,"Ġqalb":2807,"itee":2808,"âĢ¦.":2809,"Ġsii":2810,"Ġisaati":2811,"ĠSadaasa":2812,"Ġgahuuf":2813,"Qeerr":2814,"Ġhafan":2815,"ĠWallaggaa":2816,"XG":2817,"ĠMP":2818,"Ġbeekuu":2819,"Ġsabni":2820,"Ġfudhatee":2821,"ibba":2822,"Ġtuff":2823,"www":2824,"Ġduraan":2825,"ĠEbla":2826,"Ġfufa":2827,"axaba":2828,"Haal":2829,"Ġkaf":2830,"Ġhaqaa":2831,"agalee":2832,"afuu":2833,"ĠdandaÊ¼amu":2834,"Ġguur":2835,"MN":2836,"sisuu":2837,"oonii":2838,"Ġfaay":2839,"ĠDH":2840,"amb":2841,"Ġgool":2842,"Ġwalqab":2843,"Ġqabuun":2844,"âĢİ":2845,"ite":2846,"Ġeega":2847,"Ġodeeff":2848,"Ġwayita":2849,"istee":2850,"Ummanni":2851,"Barr":2852,"kana":2853,"Ġdhaaf":2854,"âĢ¬":2855,"Ġolii":2856,"wal":2857,"Ġdorg":2858,"Ġweer":2859,"âĸ¶":2860,"ĠKutaa":2861,"Ġdeddeeb":2862,"Ġlag":2863,"Ġgodaan":2864,"Ġkeessattis":2865,"ĠNam":2866,"ĠShaggar":2867,"Ġjidduu":2868,"chiis":2869,"wa":2870,"mbed":2871,"#âĢİ":2872,"Ġamana":2873,"Ġqaq":2874,"ĠHidh":2875,"Ġgoww":2876,"Ġmarti":2877,"Oromiyaa":2878,"Ġkaroor":2879,"mee":2880,"aallee":2881,"Ġofiif":2882,"eenyaaf":2883,"Ġgadaa":2884,"Ġ30":2885,"Nuti":2886,"Ġkanarratti":2887,"Ġjiruun":2888,"Ġ23":2889,"Sabab":2890,"Ġqabaa":2891,"Ġkeenyaan":2892,"Ġeegale":2893,"Sad":2894,"Ġgochuuf":2895,"phiyaan":2896,"Ġguddina":2897,"asa":2898,"Ġqabatanii":2899,"Ġbeekne":2900,"Ġtaasise":2901,"eessoo":2902,"aasni":2903,"Ġxin":2904,"Ġgoo":2905,"INGTON":2906,"noo":2907,"Ġollaa":2908,"Ġsanii":2909,"ASHINGTON":2910,"ĠOromoos":2911,"Ġdursa":2912,"Ġdhagay":2913,"ateef":2914,"Ġdandah":2915,"Ġdimook":2916,"Ġawwaal":2917,"Ġwalq":2918,"Ġdandeettii":2919,"ĠYuniv":2920,"Ġwaar":2921,"Ġdhoo":2922,"isi":2923,"Ġnaq":2924,"ayyoo":2925,"Ġqubee":2926,"duun":2927,"ran":2928,"Ġgid":2929,"aÊ¼anii":2930,"ĠShawaa":2931,"nibarsiitii":2932,"Ar":2933,"beek":2934,"aafii":2935,"Ġittin":2936,"Ġfedha":2937,"Ġtaasisuu":2938,"Ġdham":2939,"itaab":2940,"Ġmuldh":2941,"rot":2942,"ĠNag":2943,"Ġagarsii":2944,"Ġhamilee":2945,"tokk":2946,"uman":2947,"ĠLeenc":2948,"Ġgaggeeffamaa":2949,"Ġbarreeffama":2950,"Ġmot":2951,"Ġdhufan":2952,"Ġlammiilee":2953,"iina":2954,"Ġdagaa":2955,"Ġbeeka":2956,"arraaq":2957,"Ġijaaruu":2958,"Ġhawaasaa":2959,"Ġquba":2960,"Tokkummaa":2961,"aase":2962,"ĠOromoonni":2963,"Ġgurra":2964,"Ġgocha":2965,"Ġaddaatti":2966,"Ġijaarr":2967,"ĠduÊ¼a":2968,"irra":2969,"ĠHund":2970,"Ġgabaabaa":2971,"gaÊ¼":2972,"Ġjettee":2973,"caa":2974,"niin":2975,"amin":2976,"iraasii":2977,"ĠFinc":2978,"Ġrama":2979,"ABOn":2980,"Kaayy":2981,"Ġtilm":2982,"Ġwaadaa":2983,"Ġdarban":2984,"Finfinnee":2985,"ĠGum":2986,"Ġbeekan":2987,"ĠCaamsaa":2988,"Ġqofaan":2989,"?âĢĿ":2990,"amiin":2991,"ĠqeÊ¼ee":2992,"isoo":2993,"aattii":2994,"Ġdubbachuu":2995,"Ġgidduutti":2996,"aÊ¼uun":2997,"ec":2998,"================":2999,"axabajjii":3000,"Ġkiyyaa":3001,"Ġwaraanni":3002,"ĠAmaar":3003,"Ġgahuu":3004,"Ġxumura":3005,"Ġfashal":3006,"aamm":3007,"Ġwaanuma":3008,"Ġgaraagar":3009,"Ġturanii":3010,"Ġilaalu":3011,"maamm":3012,"ĠHarargee":3013,"Haat":3014,"IR":3015,"ver":3016,"ĠGull":3017,"him":3018,"eree":3019,"Ġbaasee":3020,"Ġamantaa":3021,"Ġcab":3022,"ĠSeenaa":3023,"Ġ197":3024,"ibaa":3025,"xee":3026,"Ġdargaggoota":3027,"tr":3028,"áĮ":3029,"ĠDaan":3030,"Ġmiliyoona":3031,"DH":3032,"pit":3033,"ve":3034,"Ġdhabee":3035,"ĠfeÊ¼":3036,"Ġth":3037,"ĠHir":3038,"Ġgodhuu":3039,"Ġgalgala":3040,"arsh":3041,"2015":3042,"Ġmadda":3043,"ĠAmajjii":3044,"aanis":3045,"Ġdaf":3046,"Ġbarattoonni":3047,"Ġlall":3048,"Ġsobaa":3049,"ochiin":3050,"Mis":3051,"Ġcinaa":3052,"Ġbirm":3053,"Ġdhalate":3054,"Ġbarat":3055,"ĠFinfin":3056,"Ġseena":3057,"Ġbahanii":3058,"Ġoggaa":3059,"ond":3060,"oollee":3061,"Ġfalmaa":3062,"arm":3063,"Ġxur":3064,"Ġlaaff":3065,"aleen":3066,"Ġmij":3067,"ĠMur":3068,"Ġcich":3069,"Ġdeeman":3070,"Ġdhimmi":3071,"Ġbarumsa":3072,"ilii":3073,"ĠMana":3074,"Ġtokkollee":3075,"Ġfudhate":3076,"Ġyaam":3077,"Ġ17":3078,"Ġoliif":3079,"!âĢĿ":3080,"Nama":3081,"laamaa":3082,"yi":3083,"dhu":3084,"Ġkennan":3085,"Ġumrii":3086,"God":3087,"Ġtu":3088,"Ġ(âĢľ":3089,"arraan":3090,"Ġsanatti":3091,"Ġakkamiin":3092,"WASHINGTON":3093,"Ġeer":3094,"Ġ22":3095,"anq":3096,"arree":3097,"Ġroorroo":3098,"umtuu":3099,"Ġtokkoof":3100,"Ġolaanaa":3101,"Ġhojjechuu":3102,"xannoo":3103,"Ġjaarraa":3104,"attootni":3105,"Ġxiinx":3106,"Ġgonf":3107,"Ġhujii":3108,"Ġmiidiyaa":3109,"satti":3110,"xoo":3111,"atamaan":3112,"ulb":3113,"uslim":3114,"Ġdabb":3115,"kkaa":3116,"ĠBara":3117,"Ġdararaa":3118,"Ġbaroota":3119,"Ġolol":3120,"Ġhojjachaa":3121,"Dubb":3122,"Ġtun":3123,"ĠYeroo":3124,"rotes":3125,"essuu":3126,"Ġeegamu":3127,"Ġdinq":3128,"Ġkaff":3129,"Ġkanan":3130,"Ġilaaluu":3131,"kun":3132,"Ġoo":3133,"Ġakkana":3134,"Ġmaaltu":3135,"Ġjalqabaa":3136,"Ġbarachuu":3137,"udhan":3138,"Ġwalgahii":3139,"Ġjireenyaa":3140,"Ġsagan":3141,"Ġdhiisanii":3142,"Ġcunqursaa":3143,"Kuni":3144,"Ġulfaataa":3145,"Ġhiraar":3146,"Ġtiin":3147,"ĠIj":3148,"Ġfudhatan":3149,"Ġlammaffaa":3150,"Ġdimokr":3151,"Ġbaayyee":3152,"zidaan":3153,"Ġbaad":3154,"Ġpol":3155,"Ġshorork":3156,"fame":3157,"ht":3158,"ĠDim":3159,"ng":3160,"ª#âĢİ":3161,"ĠOduu":3162,"aqaan":3163,"Ġjalqabe":3164,"Ġhamb":3165,"As":3166,"Ġliq":3167,"Ġjedhuu":3168,"afaa":3169,"iya":3170,"ĠHawaasa":3171,"Ġdhumaa":3172,"Ġjiraniif":3173,"achuudhaan":3174,"ooftuu":3175,"Haaluma":3176,"Ġgalma":3177,"ĠNaannoo":3178,"Ġumur":3179,"Ġgariin":3180,"Ġeegama":3181,"Ġibsuu":3182,"Ġgodin":3183,"Ġjirus":3184,"Ġqeerroo":3185,"famee":3186,"Ġdem":3187,"Ġjara":3188,"aatuun":3189,"ĠKon":3190,"Gu":3191,"Ġduratti":3192,"Ġgalaaf":3193,"Ġbaasaa":3194,"ĠOMN":3195,"Ġfayyaa":3196,"Ġhindand":3197,"Ġergam":3198,"________":3199,",,":3200,"19":3201,"TPLF":3202,"Ġammallee":3203,"Ġgabaa":3204,"Ġdeema":3205,"Dhal":3206,"Ġdukk":3207,"Ġgoota":3208,"Ġwalaba":3209,"aannu":3210,"Ġganama":3211,"IL":3212,"Ġbaraan":3213,"adhe":3214,"Ġat":3215,"Ġqabxii":3216,"Ġgabb":3217,"ĠEPRDF":3218,"Ummata":3219,"Mag":3220,"lamm":3221,"ooyy":3222,"Ġqabnee":3223,"Ġyaroo":3224,"Ġdhaabbatan":3225,"ĠAmer":3226,"Ġkeenyatti":3227,"ĠYuunibarsiitii":3228,"uuniv":3229,"Ġfiig":3230,"Ġwaloo":3231,"ĠtaÊ¼een":3232,"Ġcaala":3233,"The":3234,"yee":3235,"Ġmaraa":3236,"Ġgalmaan":3237,"Ġgabaasa":3238,"siisuuf":3239,"Ġkennaa":3240,"Ġrakkisaa":3241,"Dhugaa":3242,"KK":3243,"ĠWayyaan":3244,"Ġduwwaa":3245,"Ġcaasaa":3246,"Ġhiyy":3247,"Ê¼n":3248,"Ġargatu":3249,"adda":3250,"achiisu":3251,"Ġdandeenyu":3252,"Ġbadh":3253,"Ġnaa":3254,"Ġolaan":3255,"Ġgahu":3256,"ĠIng":3257,"uum":3258,"Ġkaay":3259,"Ġsirb":3260,"Isa":3261,"Ġbur":3262,"Ġdhuma":3263,"Ġoduu":3264,"ayya":3265,"Gaaffii":3266,"sinee":3267,"dhuma":3268,"ĠJaarraa":3269,"Ġlafee":3270,"ĠdhagaÊ¼":3271,"Ġgalee":3272,"Ġbarattootaa":3273,"ĠYuuniversitii":3274,"UMMAA":3275,"TA":3276,"Ġgurr":3277,"Ġarguu":3278,"oomish":3279,"Ġmalu":3280,"âĢĵ":3281,"ĠSaba":3282,"ĠUmmat":3283,"isiisu":3284,"ĠOnkol":3285,"Ġqun":3286,"Ġfudhatu":3287,"Ġyaalii":3288,"Ġhawwii":3289,"Ġnaanna":3290,"ard":3291,"Dhug":3292,"Ġfagoo":3293,"Ġhaalaan":3294,"lan":3295,"Ġqeeq":3296,"Ġummati":3297,"ĠFXG":3298,"Ġjaarmayaa":3299,"ĠGullallee":3300,"ĠharÊ¼as":3301,"Ġhalkan":3302,"Ġgonk":3303,"Ġsirriitti":3304,"ayaa":3305,"ĠTV":3306,"Ġhojjatan":3307,"Ġhooggana":3308,"Ġkb":3309,"abuu":3310,"iss":3311,"Ġgatii":3312,"Ġkanarraa":3313,"Ġhinjir":3314,"onnaa":3315,"ateera":3316,"eesh":3317,"Ġjenne":3318,"Ġkbps":3319,"adha":3320,"Ġnuun":3321,"Ġbeekumsa":3322,"Ġkennu":3323,"://":3324,"Fakk":3325,"ty":3326,"Ġisaanitti":3327,"Ġuummatoota":3328,"Ġdhaabbachuun":3329,"Ġsumm":3330,"ĠMudd":3331,"oll":3332,"Ġut":3333,"ĠmulÊ¼atu":3334,"Ummatni":3335,"aaliyaa":3336,"aayyuu":3337,"Ġwareegaman":3338,"Ġtajaajil":3339,"Erga":3340,"Ġdhun":3341,"Ġkeessaatti":3342,"Ġ26":3343,"ulluu":3344,"ĠOromootiif":3345,"ootumm":3346,"icc":3347,"gmail":3348,"ĠTuul":3349,"Ġxax":3350,"Ġlolaa":3351,"Ġwalfakk":3352,"aniifi":3353,"Ġgeess":3354,"ĠBitootessa":3355,"allaa":3356,"Ee":3357,"Ġbaat":3358,"isiisaa":3359,"ĠGam":3360,"Darg":3361,"aangudd":3362,"Ġbel":3363,"Ġdabalee":3364,"Ġgammachuu":3365,"ijjiir":3366,"garaa":3367,"ĠtoÊ¼":3368,"Abdii":3369,"Maqaa":3370,"Ġwo":3371,"ĠMacc":3372,"aleel":3373,"Ġyaadu":3374,"Ġoolu":3375,"San":3376,"har":3377,"roo":3378,"ams":3379,"ĠHag":3380,"ĠhirÊ¼":3381,"ĠNama":3382,"Ġdeemuun":3383,"ĠGo":3384,"ataniiru":3385,"ĠsaÊ¼aa":3386,"Ġguyyaan":3387,"âĢĺ":3388,"Ġgootummaa":3389,"Ġdalagaa":3390,"Ġdachee":3391,"itaaba":3392,"Maaliif":3393,"ĠLammii":3394,"Ġkoph":3395,"Ġqabsiis":3396,"ĠHaa":3397,"eeffachuu":3398,"Ġtarsii":3399,"ĠYaa":3400,"Ġjedhamutti":3401,"Ġdhaadannoo":3402,"Gara":3403,"Ġaddunyaan":3404,"Ġkaasuun":3405,"Ġgaazex":3406,"Ġroorr":3407,"Ġjee":3408,"ĠMall":3409,"ituu":3410,"dhab":3411,"oottan":3412,"ĠSiyaa":3413,"Ġshakkii":3414,"Ġkamiin":3415,"ro":3416,"Ġnamaaf":3417,"Ġjabaatee":3418,"isiif":3419,"ĠAkk":3420,"Ġtaasisaa":3421,"ĠBaqq":3422,"Ġseene":3423,"Ġpoolisii":3424,"fuf":3425,"tichi":3426,"udhaan":3427,"Ġakkaataa":3428,"Ġqondaal":3429,"iinsi":3430,"achu":3431,"ĠLixaa":3432,"Ġjalqaba":3433,"Ġfufu":3434,"Ġdabran":3435,"Ġbe":3436,"Ġwajjiin":3437,"uutu":3438,"Ġkij":3439,"ĠMo":3440,"Ġnamootni":3441,"aawaa":3442,"ĠDargii":3443,"Ġqin":3444,"ulul":3445,"Ġturani":3446,"alle":3447,"Ġhaarom":3448,"ĠNaq":3449,").":3450,"ĠBiyyaa":3451,"Ġqood":3452,"Ġaddunyaatti":3453,"ĠGabrummaa":3454,"Ġqaqqab":3455,"ĠIrr":3456,"Ġgodhee":3457,"mpay":3458,"Ġqonnaan":3459,"Tarkaan":3460,"piyaa":3461,"ammad":3462,"Ġseenan":3463,"Ġkenname":3464,"ĠBarattoota":3465,"Ġdhiisee":3466,"Ġjette":3467,"totni":3468,"Ġkeessum":3469,"Humni":3470,"fatee":3471,"alii":3472,"Ġdhaabbatee":3473,"Ġangoo":3474,"Ġhas":3475,"Ġmaaf":3476,"Ġibsan":3477,"ĠPoolis":3478,"Warra":3479,"Ġgaafatama":3480,"Ġjalqabee":3481,"idha":3482,"Ġ\"":3483,"Ġkoree":3484,"Ġfala":3485,"Ġgaafata":3486,"Ġergaa":3487,"Ġtajaajila":3488,"Ġlabsii":3489,"ton":3490,"Ġisanii":3491,"Ġhundatti":3492,"Ġhafu":3493,"Ġlamaa":3494,"Ġdiinaan":3495,"Ġabaar":3496,"Ġdhugaan":3497,"Ġfincila":3498,"Jir":3499,"yyoo":3500,"ĠAfrii":3501,"Hanga":3502,"ooll":3503,"Ġcaalu":3504,"Tokkummaan":3505,"********":3506,"Ġbeekaa":3507,"Ġmudate":3508,"Ġdhah":3509,"Ġgaafatu":3510,"Ġgalatti":3511,"Ġraaw":3512,"Ġgabroomf":3513,"Ġsodaach":3514,"rotests":3515,"BC":3516,"asii":3517,"Ġdhabe":3518,"Ġjijjiirama":3519,"Ġv":3520,"ev":3521,"Ġargamuu":3522,"Ġmuraasa":3523,"Ġdubbiin":3524,"ĠsochoÊ¼":3525,"Ġadeemsif":3526,"10":3527,"Ã¼":3528,"Ġsalphaa":3529,"ĠAadaa":3530,"ammaak":3531,"itiin":3532,"Ġdursee":3533,"Ġibsanii":3534,"Ġmiil":3535,"kanii":3536,"otti":3537,"umaaf":3538,"ĠQoph":3539,"Ġseenee":3540,"ĠUm":3541,"ĠAwur":3542,"Ġdagaag":3543,"Ġtaatee":3544,"ĠDab":3545,"ennoo":3546,"qii":3547,"Ġsiif":3548,"Ġarii":3549,"ĠRoo":3550,"Ġlakkaaw":3551,"Ġmeeqa":3552,"gaan":3553,"adhee":3554,"Ġgabaaf":3555,"ĠAman":3556,"Namoonni":3557,"Ġid":3558,"ĠMu":3559,"Ġfudhachuun":3560,"Ġjennaan":3561,"ĠMaal":3562,"Ġgaraan":3563,"ĠGad":3564,"ĠKad":3565,"Ġnurratti":3566,"Ġtikaa":3567,"Wan":3568,"ĠMoh":3569,"ĠDhaabb":3570,"âĢĶâĢĶâĢĶâĢĶ":3571,"ĠDirree":3572,"Ġqotee":3573,"Ġhint":3574,"ĠIrratti":3575,"ĠTas":3576,"Ġbahuun":3577,"Ġfufe":3578,"Ġhojjechaa":3579,"Ġyoomiyyuu":3580,"kiin":3581,"Ġfaana":3582,"Ġmoor":3583,"ĠOromoorratti":3584,"Ġfudhatama":3585,"ĠqophaaÊ¼":3586,"ĠOPDOn":3587,"ĠBeek":3588,"Ġgaafachuu":3589,"Ġfufuu":3590,"aani":3591,"Ġdadd":3592,"ĠAyyaana":3593,"saatti":3594,"amaniiru":3595,"Ġbasaas":3596,"Ġgonkumaa":3597,"ood":3598,"eessinee":3599,"ĠBaar":3600,"Ġdeebiin":3601,"Ġimaamm":3602,"Ġsak":3603,"eerri":3604,"Ġbakkaan":3605,"Injifannoo":3606,"famu":3607,"wwaan":3608,"Ġbaase":3609,"ĠAdaamaa":3610,"Ġqawween":3611,"Diinni":3612,"Ġennaa":3613,"ĠDiddaa":3614,"Ġkunneen":3615,"Ġbulchaa":3616,"Ġdhufuu":3617,"Ġmaali":3618,"Ġbaasanii":3619,"abbiin":3620,"angudd":3621,"ĠDargagg":3622,"ĠIbsaa":3623,"Ġdararamaa":3624,"Ġbubb":3625,"ĠWarraaq":3626,"ĠWBOn":3627,"Ġbakkee":3628,"ulbaana":3629,"eekka":3630,"ĠOromiyaatti":3631,"Ġmuumm":3632,"uree":3633,"Ġjedhamuun":3634,"Ġgol":3635,"Ġmeesh":3636,"Ġbilch":3637,"Ġfeen":3638,"Ġhintaan":3639,"ile":3640,"ĠSBO":3641,"Ġsob":3642,"Ġgodhame":3643,"Ġyaadatama":3644,"Ġgamtaan":3645,"Dhaab":3646,"Je":3647,"amaal":3648,"ĠAddaa":3649,"Bakka":3650,"Ġiss":3651,"Ġirrattis":3652,"ĠJal":3653,"Ġjechuudha":3654,"Ġambaa":3655,"!!!!!!!!":3656,"Ġbarbaachisaadha":3657,"OPDO":3658,"ĠáĬ":3659,"amani":3660,"oomina":3661,"Ġyaadannoo":3662,"Ammas":3663,"deen":3664,"Ġisaaniitti":3665,"Ġbaasuun":3666,"Ġijoolleen":3667,"Ġhaaraan":3668,"Ġduguug":3669,"On":3670,"Ġqus":3671,"Ibsa":3672,"Ġtilmaam":3673,"Haw":3674,"ggaa":3675,"eeti":3676,"eeffachuun":3677,"Ġabj":3678,"AAL":3679,"Ġbaha":3680,"axx":3681,"Ġkenne":3682,"amaniif":3683,"Ġjirtuu":3684,"ĠBaalee":3685,"alayaa":3686,"Ġdhabamsiisuuf":3687,"abummaa":3688,"aluu":3689,"Ġjechuudhaan":3690,"ĠgaÊ¼aa":3691,"tor":3692,"Ġyaadaa":3693,"Ġbahu":3694,"Ġrakkina":3695,"Walumaa":3696,"Ġkallattii":3697,"ĠtaÊ¼uuf":3698,"Ġkaayyoon":3699,"eett":3700,"ĠDar":3701,"ormii":3702,"Ġsarb":3703,"Ġwarreen":3704,"famaa":3705,"ves":3706,"Ġmanni":3707,"Ġjiraan":3708,"ĠAB":3709,"aasan":3710,"nan":3711,"Ġijj":3712,"attanii":3713,"ĠQubee":3714,"iyaalee":3715,"Ġdaaww":3716,"Ġdiriir":3717,"Ġbilb":3718,"kn":3719,"Ã¸":3720,"Ġirrati":3721,"kaak":3722,"Ġeebbif":3723,"Ġkaa":3724,"amma":3725,"itan":3726,"Ġkonkolaataa":3727,"ĠEthiopia":3728,"iliz":3729,"Ġyaaddoo":3730,"Ġgalan":3731,"Ġbarbaadd":3732,"Ġfakkeenya":3733,"ĠCh":3734,"Ġbaasu":3735,"ĠIrreechaa":3736,"keek":3737,"Ġkooti":3738,"Ġjilb":3739,"Ġfiduu":3740,"Ġlaga":3741,"Ġjedhamtu":3742,"ĠDii":3743,"ĠharÊ¼aatti":3744,"Ġhabash":3745,"SAA":3746,"ĠAh":3747,"Ġargachuuf":3748,"Ġnafxany":3749,"udha":3750,"ĠyaaÊ¼":3751,"Ġnamummaa":3752,"eerra":3753,"Ġdhaabuu":3754,"Ġgarbummaa":3755,"Ġrukut":3756,"Ġfun":3757,"Ġguutu":3758,"Ġ=":3759,"Ġqilleen":3760,"iddutti":3761,"Ġtakkaa":3762,"oromoo":3763,"iroo":3764,"Ġhariiroo":3765,"ian":3766,"Ġsafuu":3767,"Ġkeessaan":3768,"awa":3769,"lem":3770,"Ġkumaat":3771,"Ġeessa":3772,"ametti":3773,"Ġhundumaa":3774,"ĠToo":3775,"Ġjenna":3776,"ĠEe":3777,"Ġilaaluun":3778,"Ġkuff":3779,"Ġdinagdee":3780,"Of":3781,"umsi":3782,"Ġhundeeff":3783,"Ġakkaan":3784,"ĠdeebiÊ¼anii":3785,"ĠduÊ¼aa":3786,"An":3787,"quu":3788,"Ġtarkaanfiin":3789,"inuu":3790,"Ġjedhamuu":3791,"Ġgaluu":3792,"Ġnamatti":3793,"ĠgaÊ¼ee":3794,"namtii":3795,"Ġkitaab":3796,"Ġtokkootti":3797,"Ġbaree":3798,"Ġlaat":3799,"ĠMul":3800,"Ġdeemee":3801,"Ġwaajjira":3802,"UT":3803,"ho":3804,"dhee":3805,"Ġmurtee":3806,"Ġhorii":3807,"YY":3808,"fatan":3809,"vo":3810,"aya":3811,"Ġhubannoo":3812,"Ġbahuuf":3813,"tooti":3814,"Ġalaatti":3815,"ĠbalÊ¼inaan":3816,"ĠAfriikaa":3817,"titti":3818,"Ġbaatee":3819,"Ġgaf":3820,"dhe":3821,"ttp":3822,"Ġdhabb":3823,"alaan":3824,"Ġkeessatt":3825,"Ġbarsiisaa":3826,"Ġisaaniin":3827,"ĠBaq":3828,"ayee":3829,"Ġ2008":3830,"ĠGootota":3831,"ĠOromummaan":3832,"Ġgareen":3833,"ĠJaar":3834,"Ġibsaa":3835,"Ġmidhaan":3836,"ĠBur":3837,"Ġgaafatam":3838,"ĠdandaÊ¼uu":3839,"acuu":3840,"Ġbilisummaan":3841,"Ġgeggeess":3842,"qee":3843,"Ġ27":3844,"Ġlafti":3845,"Al":3846,"ilaanii":3847,"ĠDuul":3848,"ĠFI":3849,"ĠFuf":3850,"Ġajaja":3851,"Ġgufuu":3852,"Ġtahanii":3853,"Ġkennuuf":3854,"Ġrakkoolee":3855,"Ġbeen":3856,"Ġbaratoota":3857,"Ġhiman":3858,"ĠkaÊ¼uun":3859,"Ġwaltajjii":3860,"11":3861,"Taph":3862,"Ġcacc":3863,"Ġfaallaa":3864,"Ġbiyyi":3865,"ĠJedh":3866,"saaf":3867,"Ġful":3868,"ĠBakka":3869,"Ġfufuun":3870,"Gaafa":3871,"Ġwaliigaltee":3872,"Ġpaartii":3873,"atoomaa":3874,"Ġdho":3875,"Ġtahin":3876,"Ġtaasisan":3877,"Ġleenjii":3878,"Ġkeenna":3879,"ticha":3880,"Ġqarsh":3881,"Ġyennaa":3882,"Ġwald":3883,"aayuu":3884,"Sochiin":3885,"ĠjiÊ¼a":3886,"Ġfor":3887,"Ġfira":3888,"ĠOna":3889,"Ġdeebif":3890,"Ġjennu":3891,"Ġalaabaa":3892,"Ġtarsiimoo":3893,"Sana":3894,"ĠdaaÊ¼":3895,"Ġjarri":3896,"Ġfaash":3897,"gaw":3898,"Ġdhibba":3899,"akkaa":3900,"ener":3901,"Ġjijjii":3902,"ĠdeebiÊ¼uu":3903,"ariitii":3904,"ĠIbsa":3905,"Sirni":3906,"ĠSud":3907,"Ġilmoo":3908,"Ġgodhanii":3909,"ĠtaÊ¼in":3910,"ĠGud":3911,"ĠKir":3912,"Ġloltoota":3913,"ĠBaha":3914,"Ġdhufuun":3915,"ubar":3916,"Ġjedhanitti":3917,"Ġimpaay":3918,"Ġmaraan":3919,"Dhaabb":3920,"Yaad":3921,"Ġqabamanii":3922,"Ġfudhatanii":3923,"Ġ2012":3924,"Ġnyaata":3925,"Ġwayta":3926,"suma":3927,"ooni":3928,"Ġheera":3929,"abii":3930,"ĠSan":3931,"Ġ196":3932,"gan":3933,"Gabaasa":3934,"aanee":3935,"Ġbaraar":3936,"ĠFil":3937,"Ġyerootti":3938,"Ġabba":3939,"Ġkabaja":3940,"ĠTigraa":3941,"uummaa":3942,"Ġqindaa":3943,"kee":3944,"Ġhaleel":3945,"eessii":3946,"iinsaa":3947,"Ġjettu":3948,"aacha":3949,"WBO":3950,"Ġheg":3951,"Ġqaanii":3952,"siisa":3953,"Ġkabajamuu":3954,"ĠArtis":3955,"Ġdeeggarsa":3956,"Ġ1991":3957,"Ġramad":3958,"Ġgumaa":3959,"Ġtof":3960,"ĠbaÊ¼uu":3961,"ĠdeddeebiÊ¼":3962,"ep":3963,"Ġkanaatti":3964,"Ġgosa":3965,"Ġjabeessee":3966,"Ġkennuun":3967,"Oromiyaan":3968,"Ġamala":3969,"Ġbaqattoota":3970,"ĠWaraana":3971,"az":3972,"ĠWaxabajjii":3973,"Ġtureef":3974,"Ġijaarsa":3975,"Ġhatattamaan":3976,"Ġguutummaatti":3977,"Ġfedhe":3978,"Ġdhiyaate":3979,"Ġgaragaraa":3980,"Min":3981,"ĠWaan":3982,"Ġakeekka":3983,"Ġagarsiisa":3984,"oq":3985,"aÊ¼ii":3986,"ĠSochii":3987,"Ġuumame":3988,"ment":3989,"Ġkur":3990,"olaa":3991,"Ġgalaa":3992,"Ġdiinummaa":3993,"Ġumurii":3994,"IYAA":3995,"iw":3996,"Ġbeey":3997,"ĠâĢľ)":3998,"ĠWaldaa":3999,"Ġbuqqif":4000,"ĠmilkaaÊ¼":4001,"Ġmarsariitii":4002,"Jarri":4003,"Ġsamm":4004,"Ġlameen":4005,"Ġmaalii":4006,"Ġcunqurfamoo":4007,"Go":4008,"Ġdamee":4009,"ĠAlaa":4010,"ĠbuÊ¼uu":4011,"kanaaf":4012,"EES":4013,"eenaan":4014,"ĠKabaj":4015,"Ġfiix":4016,"Ġgaggeeffamu":4017,"Ġodeeffannoo":4018,"Ġdeebisuu":4019,"esh":4020,"immaan":4021,"Ġtaasisu":4022,"Ġbaqatt":4023,"Ġkeenyas":4024,"Ġdhiifama":4025,"ĠFincila":4026,"Dr":4027,"Ġkibbaa":4028,"Ġnaanni":4029,"ĠFaran":4030,"~~~~":4031,"ĠBooranaa":4032,"Godina":4033,"Ġmat":4034,"chee":4035,"Ġ100":4036,"ĠJaw":4037,"Ġheddumm":4038,"ĠWaaqayy":4039,"Ġsabboonummaa":4040,"Miseens":4041,"Ġjiraata":4042,"Ġjiranitti":4043,"Ġmurannoo":4044,"Ġbaasan":4045,"Ġfederaalaa":4046,"Goot":4047,"ĠáĪ":4048,"Ġfees":4049,"Ġwor":4050,"oreen":4051,"ide":4052,"ĠPaar":4053,"Ġhojjetan":4054,"Ġwarraaqsaa":4055,"uuti":4056,"Ġwalirraa":4057,"adii":4058,"alloo":4059,"Ġdansaa":4060,"Ġadab":4061,"Ġmootummoota":4062,"Ġqeerroon":4063,"Waaq":4064,"ca":4065,"Ġdhufanii":4066,"Ġ198":4067,"Ġdhiisuu":4068,"Ġjaallan":4069,"ĠSirna":4070,"Abbaan":4071,"Dur":4072,"oma":4073,"Ġqabate":4074,"Ġkeessumaa":4075,"Ġtokkon":4076,"Ġaddaatiin":4077,"achiisuun":4078,"Hoo":4079,"Mir":4080,"Ġdhaw":4081,"Ġwaaq":4082,"Ġnyaataa":4083,"ane":4084,"Ġisaatiif":4085,"Ġdhaabni":4086,"ĠMirga":4087,"ere":4088,"achiise":4089,"Ġxiqqaa":4090,"Ġjaalala":4091,"ĠTigir":4092,"Hidh":4093,"Ġqabdi":4094,"ĠSabaa":4095,"ĠQabsoon":4096,"ooleen":4097,"oofne":4098,"ĠbuÊ¼aan":4099,"ĠArab":4100,"Ġ40":4101,"Ġoll":4102,"Ġtaasisa":4103,"ational":4104,"Ġkees":4105,"Ġsadd":4106,"Ġarganne":4107,"ĠTaadd":4108,"Ġgalu":4109,"Ġgaraagaraa":4110,"opp":4111,"ĠTuulamaa":4112,"Ġdhan":4113,"ĠLaga":4114,"Ġyaadan":4115,"Ġaang":4116,"Ġhojiirra":4117,"ĠWaaqeff":4118,"Ġlakkoofsa":4119,"Dargagg":4120,"Beek":4121,"ary":4122,"Ġjar":4123,"chu":4124,"yyu":4125,"Ġqabeessa":4126,"ĠBarr":4127,"ubbuu":4128,"Ġibsuun":4129,"abbi":4130,"fama":4131,"aloota":4132,"Ġtiif":4133,"Ġyomm":4134,"ĠBirr":4135,"ĠMuslim":4136,"Ġgodha":4137,"Ġwaraab":4138,"Ġ28":4139,"Ġxix":4140,"Ġgodhamu":4141,"Sirna":4142,"UR":4143,"ush":4144,"Ġhalkanii":4145,"Ġmallattoo":4146,"Ġkafal":4147,"Ġkat":4148,"aale":4149,"Ġhojjatu":4150,"ĠFinfinneetti":4151,"Ġhirmaat":4152,"Xurree":4153,"jaj":4154,"ĠOromia":4155,"aalaan":4156,"Ġboor":4157,"illaasee":4158,"mur":4159,"our":4160,"Ġbaate":4161,"Ġisiin":4162,"ĠDubb":4163,"ĠUmmataa":4164,"Ġdabarsee":4165,"Ġtuffii":4166,"Ġilaalle":4167,"tuuf":4168,"iru":4169,"oonf":4170,"Ġaddeessa":4171,"ĠFayy":4172,"Ġtaasisuun":4173,"ĠajaaÊ¼":4174,"eessitoota":4175,"ĠGumii":4176,"Ġhintaane":4177,"Sochii":4178,"utu":4179,"Ã¡":4180,"iitii":4181,"Ġqabatamaa":4182,"ĠAmm":4183,"Ġuumaa":4184,"aayin":4185,"Ġsalphina":4186,"Akkasumas":4187,"Ġgadhiis":4188,"Ġgowwoom":4189,"htm":4190,"Ġmudd":4191,"ĠIsaa":4192,"Ġkoloneeff":4193,"ĠBaqqalaa":4194,"ĠNaqamtee":4195,"eem":4196,"Ġkessa":4197,"aafaan":4198,"Ġmurni":4199,"Ġjabeeff":4200,"Ġergamtoota":4201,"oolessaa":4202,"Ġqaamni":4203,"isiisuu":4204,"Ġajjeesuu":4205,"Ġdogoggora":4206,"Ġoomish":4207,"Ġkara":4208,"Ġhojjataa":4209,"Ġgodhamaa":4210,"Ġbitti":4211,"Ġargate":4212,"Ġdhaabbachuuf":4213,"Ġkaffal":4214,"st":4215,"ĠMooraa":4216,"Ġbeekama":4217,"Ġhawaasummaa":4218,"Ġkessatti":4219,"Akeek":4220,"eenyee":4221,"Ġhumnaa":4222,"Ġarrabs":4223,"aannee":4224,"anneef":4225,"aarii":4226,"Ġdhibee":4227,"Ġegeree":4228,"Ġáĭ":4229,"Ġgarii":4230,"amutti":4231,"Ġmiidhaan":4232,"Ġmisooma":4233,"Ġkaasuu":4234,"Ġxiqqoo":4235,"Ġgadda":4236,"Ġjaarmayoota":4237,"30":4238,"Jaarm":4239,"Waggaa":4240,"Ġganna":4241,"Ġyaalaa":4242,"mmuu":4243,"attooti":4244,"olii":4245,"Ġlammiiwwan":4246,"Ġyour":4247,"pl":4248,"Ġkeessattuu":4249,"olon":4250,"Ġgaafatan":4251,"Ġhirii":4252,"Ġgurmuu":4253,"Ġejjennoo":4254,"ĠMiseens":4255,"Ġboqonnaa":4256,"ĠLeencoo":4257,"ĠAwuroo":4258,"Ġhacuu":4259,"ĠhundaaÊ¼":4260,"Ġsirnaan":4261,"Ġfudhatame":4262,"Ġibsaniiru":4263,"Ġalag":4264,"Ġummatootaa":4265,"Ġbarbaade":4266,"Ġonnee":4267,"Ġhatattamaa":4268,"ire":4269,"Ġasii":4270,"Ġnaga":4271,"Ġyuuniv":4272,"Ġ29":4273,"Ġdhagees":4274,"Ġkaase":4275,"iba":4276,"achisi":4277,"ĠâĢľ,":4278,"Ġsham":4279,"Ġmisoom":4280,"Ġkufaatii":4281,"Ġ2007":4282,"xaa":4283,"istii":4284,"Ġbaratan":4285,"Ġdhiyoo":4286,"Ġseenuun":4287,"Ġbooj":4288,"Ġhafuu":4289,"Ġhafne":4290,"ĠkaÊ¼uu":4291,"Qabsaa":4292,"áĬķ":4293,"riin":4294,"ootu":4295,"ĠBish":4296,"Ġaraaraa":4297,"ont":4298,"Ġmarsaa":4299,"Ġuumuu":4300,"ĠmulÊ¼ata":4301,"Ġasitti":4302,"Ġsabboontota":4303,"Ġboonsaa":4304,"OromoP":4305,"Fil":4306,"Ġqabaachuun":4307,"Ġaraar":4308,"Ġgaditti":4309,"Ġmisoomaa":4310,"Ġraawwachaa":4311,"ibbee":4312,"Ġhawaasni":4313,"Ġdargaggoo":4314,"ĠAhm":4315,"huu":4316,"sin":4317,"Ġdig":4318,"Ġgeenye":4319,"Ġdheeb":4320,"Ġnamuu":4321,"ammed":4322,"Ġseenuu":4323,"Ġpas":4324,"Ġajjeesaa":4325,"Ġrasaasa":4326,"Taphachisi":4327,"maat":4328,"Ġwalumaa":4329,"ĠMaqaa":4330,"ĠceÊ¼":4331,"Ġdhaabbatanii":4332,"Ġfakkaat":4333,"Ġbob":4334,"Ġmagaalota":4335,"Sun":4336,"Ġwaraqaa":4337,"ĠYaad":4338,"Ġijaarame":4339,"Ġqabsaawota":4340,"Ġilaallu":4341,"aafaa":4342,"jjee":4343,"ĠKoree":4344,"Ġdhabam":4345,"ĠLixa":4346,"Ġdhufaa":4347,"ĠUmmati":4348,"Ġlammummaa":4349,"ĠItiyoopiyaa":4350,"Ġogummaa":4351,"Ġakkanatti":4352,"html":4353,"Ġqabuuf":4354,"ĠWayy":4355,"ĠSagalee":4356,"ĠImpaayera":4357,"Ġjiraachaa":4358,"Ġwarraaqsa":4359,"Ġdabball":4360,"Jaal":4361,"Ġgeedd":4362,"Ġwaanan":4363,"adde":4364,"ell":4365,"Ġmuuxannoo":4366,"12":4367,"=>":4368,"tichaa":4369,"Ġfee":4370,"Dhimma":4371,"ĠBulch":4372,"Ġqorm":4373,"aamicha":4374,"Ġgaliin":4375,"Ġugg":4376,"Ġganamaa":4377,"ddaa":4378,"Ġjiraataa":4379,"Ġdhimmoota":4380,"Ġmaallaqa":4381,"land":4382,"Ġgul":4383,"Ġlukk":4384,"Ġhubatee":4385,"Ġdeeme":4386,"Uummanni":4387,"itoota":4388,"Ġdiinatti":4389,"Ġreeff":4390,"Ġhirmaan":4391,"Ġdhaabbata":4392,"OR":4393,"ooda":4394,"Ġbun":4395,"Ġfinfinnee":4396,"ĠODF":4397,"annii":4398,"ĠMal":4399,"âĢĿ,":4400,"ĠbuÊ¼ura":4401,"Ġjalqaban":4402,"Ġajjeefaman":4403,"aanfa":4404,"Ġjum":4405,"ĠjaÊ¼":4406,"Ġqan":4407,"uruu":4408,"Ġlixaa":4409,"amadaa":4410,"ĠMan":4411,"ĠCal":4412,"Lammii":4413,"Ġweerar":4414,"Ġoolee":4415,"ahuun":4416,"Ġjabeessuu":4417,"ustr":4418,"Ġyaaduu":4419,"Ġtasa":4420,"Ġobbolee":4421,"Wareeg":4422,"Ġliqim":4423,"BB":4424,"Hab":4425,"Mana":4426,"totaa":4427,"Ġleell":4428,"ahu":4429,"Ġxii":4430,"oofi":4431,"Sag":4432,"iv":4433,"ĠtaaÊ¼ee":4434,"Ġobboo":4435,"ĠgaÊ¼uu":4436,"ĠFederaalaa":4437,"Ġbelow":4438,"aafaanoromoo":4439,"Adeem":4440,"áį":4441,"Ġdiddaan":4442,"Ġfay":4443,"iinaa":4444,"Ġcli":4445,"Ġhidhuu":4446,"opy":4447,"Ġkamiyyuu":4448,"affee":4449,"ĠOnkoloolessa":4450,"eeniyaa":4451,"aamsa":4452,"Ġsoba":4453,"Ġdeebisee":4454,"Ġijaan":4455,"Ġbakkoota":4456,"Ġharkatti":4457,"Ġkeeysatti":4458,"Ġqarshii":4459,"OromoProtests":4460,"amtuu":4461,"Ġmangudd":4462,"Ġnuf":4463,"Ġqabn":4464,"Ġbeekuun":4465,"Ġ32":4466,"Ġdabarsanii":4467,"IIN":4468,"Ġkutannoo":4469,"Galatoomaa":4470,"Sabboon":4471,"Ġtams":4472,"Ġsitti":4473,"Ġdhalootaa":4474,"Ġafaanii":4475,"Ġhalagaa":4476,"ersity":4477,"Ġdoorsis":4478,"Wanti":4479,"aneen":4480,"Ġby":4481,"ssa":4482,"Ġyer":4483,"adoo":4484,"Ġhidhamanii":4485,"arre":4486,"aallan":4487,"Ġ50":4488,"Humna":4489,"fatanii":4490,"Ġfooyy":4491,"Ê¼aanaa":4492,"Ġnurra":4493,"ĠFulbaana":4494,"Ġ2017":4495,"ccaa":4496,"Ġgumaacha":4497,"ĠVOA":4498,"voaafaanoromoo":4499,"aasi":4500,"Ġjiranis":4501,"Ġraww":4502,"aayyoo":4503,"Ġgaggeessan":4504,"Ġmull":4505,"ĠgaagaÊ¼":4506,"Ad":4507,"Ġz":4508,"amitti":4509,"Ġhomaa":4510,"yya":4511,"Ġjabeessuun":4512,"Ġdirm":4513,"ĠSheek":4514,"Bul":4515,"Ġkitaaba":4516,"Ġbash":4517,"Ġfidu":4518,"ĠFal":4519,"oolleen":4520,"Ġsababaa":4521,"ĠEng":4522,"Ġdabarsuu":4523,"Barataa":4524,"Ġquuf":4525,"aarsa":4526,"Ġmurtaa":4527,"Ġdhaabbate":4528,"achiisee":4529,"Ġdhiib":4530,"opi":4531,"jedhee":4532,"FBC":4533,"Ġsee":4534,"rre":4535,"aasiin":4536,"ĠDeeb":4537,"gaazii":4538,"ĠKibba":4539,"ĠbuÊ¼ur":4540,"Ġlallab":4541,"Ġclip":4542,"Ġmadaa":4543,"Ġyaala":4544,"Ġhubatamuu":4545,"âĢ¦..":4546,"ted":4547,"ĠAlii":4548,"Abbaa":4549,"jaa":4550,"Ġ*":4551,"anuu":4552,"Ġbadaa":4553,"Ġsin":4554,"ddee":4555,"attiin":4556,"aamu":4557,"Ġbiyyaatti":4558,"Ġshir":4559,"Ġtaasisuuf":4560,"Ġgammad":4561,"ĠIlaal":4562,"board":4563,"Ġnaannawa":4564,"Ġfaf":4565,"Ġisaanis":4566,"ĠWo":4567,"Ġaanu":4568,"Ġkamii":4569,"ĠAmerikaa":4570,"Yeroon":4571,"isii":4572,"aasu":4573,"ĠSoom":4574,"Ġgaafate":4575,"ĠUniv":4576,"ĠCopy":4577,"Waraanni":4578,"Fakkeenyaaf":4579,"Duul":4580,"É¨":4581,"Ġmaangudd":4582,"ichaaf":4583,"Ġbiraatti":4584,"arsitii":4585,"Ġtarii":4586,"Ġhojjetaa":4587,"Ġraawwate":4588,"ĠduÊ¼e":4589,"Ġqonnaa":4590,"Ġdimokraasii":4591,"55":4592,"tummaan":4593,"Ġmammaak":4594,"Ġkaasanii":4595,"oggaa":4596,"ĠMagarsaa":4597,"Ġmuud":4598,"Rakkoo":4599,"yuu":4600,"alia":4601,"arran":4602,"siisee":4603,"Ġkabajaan":4604,"Ġjiraattonni":4605,"ĠXaal":4606,"ANN":4607,"ĠqabsaaÊ¼ota":4608,"ppaa":4609,"Embed":4610,"Ġhe":4611,"Ġgee":4612,"oonnii":4613,"annuu":4614,"Ġcopi":4615,"ĠTor":4616,"Ġgalat":4617,"ĠJarm":4618,"siitii":4619,"Ġibsame":4620,"Ġembed":4621,"Ġboru":4622,"Ġqofaaf":4623,"Ġpaste":4624,"Ġclipboard":4625,"Ġcopied":4626,"Mar":4627,"ammoo":4628,"Ġammaan":4629,"essu":4630,"ĠNu":4631,"Ġkanaanis":4632,"Namoota":4633,"ĠMaccaa":4634,"iyyee":4635,"Ġdhihaa":4636,"Ġdubbif":4637,"aaÊ¼aa":4638,"Ġjedhutti":4639,"Tokko":4640,"Rakkoon":4641,"Finc":4642,"qu":4643,"Ġdull":4644,"Ġgamaa":4645,"uunis":4646,"aaree":4647,"Ġsabaatti":4648,"Ġoromoon":4649,"ĠGammadaa":4650,"AG":4651,"Kutaa":4652,"Osoo":4653,"Ġgita":4654,"omish":4655,"Ġleenj":4656,"ĠGuraandhala":4657,"ĠMallas":4658,"hin":4659,"orri":4660,"Ġ#":4661,"Ġheer":4662,"Ġtii":4663,"Ġhubatanii":4664,"Ġadeemsis":4665,"iqaa":4666,"Ġmilkii":4667,"13":4668,"Ġicc":4669,"Ġwaldaa":4670,"Ġdiinagdee":4671,"Ġdeebisuuf":4672,"Ġhojjachuun":4673,"imman":4674,"Ġmirkaneessa":4675,"Ġtorban":4676,"Ġministee":4677,"Dir":4678,"Ġch":4679,"iib":4680,"ure":4681,"Ġcicc":4682,"ĠRaad":4683,"Ġhimaa":4684,"Ġfedhan":4685,"Ġguutuun":4686,"ommii":4687,"DD":4688,"tif":4689,"Ġqaroo":4690,"ĠAyyaan":4691,"ĠHayy":4692,"ong":4693,"Ġargamuun":4694,"Ġbiro":4695,"Ġbiroon":4696,"Ġro":4697,"Ġbalb":4698,"Ġ31":4699,"Ġraawwatamaa":4700,"saanii":4701,"Ġakaak":4702,"Ġye":4703,"Ġgargaa":4704,"Ġguddif":4705,"Ġdhaban":4706,"Ġgahan":4707,"Ġdhalatee":4708,"ĠAdoolessa":4709,"Ġkennee":4710,"Ġmadaal":4711,"ĠIngiliz":4712,"ĠTigraay":4713,"tiis":4714,"Ġgartuu":4715,"ĠIt":4716,"ĠIRR":4717,"ayaan":4718,"Ġsablamm":4719,"ĠdandaÊ¼e":4720,"Ġsanaan":4721,"ĠkaÊ¼anii":4722,"Ġfayyadamuu":4723,"ĠGaaffii":4724,"Ġhabashaa":4725,"aud":4726,"uufii":4727,"Ġwalga":4728,"afti":4729,"akki":4730,"Ġhundumtuu":4731,"enya":4732,"pitaala":4733,"tuma":4734,"Ġimm":4735,"ĠmoÊ¼":4736,"ĠDaaw":4737,"ĠSH":4738,"Ġakkamii":4739,"Ġroob":4740,"Qeerroo":4741,"Ġimaammata":4742,"15":4743,"ĠSal":4744,"Ġtokkoffaa":4745,"Ġseenanii":4746,"ĠYun":4747,"ĠWaaqa":4748,"Ġadunyaa":4749,"ost":4750,"ĠTigree":4751,"ĠSiyaasaa":4752,"hub":4753,"nn":4754,"oog":4755,"ttis":4756,"ĠMil":4757,"ore":4758,"ĠWarra":4759,"Ġarrab":4760,"Ġwalqixx":4761,"tamaa":4762,"uusaa":4763,"Ġsaaq":4764,"Ġgalf":4765,"Ġraga":4766,"Ġdeebisanii":4767,"Ġhubachiisa":4768,"Ġshirri":4769,"Ġmaraaf":4770,"Ġijaaruun":4771,"LFO":4772,"Ġyookaanis":4773,"Ġsummii":4774,"ĠHagayya":4775,"ĠJawaar":4776,"Nu":4777,"ĠWaggaa":4778,"siisuun":4779,"Ġummataaf":4780,"Ummati":4781,"galatti":4782,"mar":4783,"aatawaa":4784,"Ġguyyuu":4785,"Ġbarreessuu":4786,"ington":4787,"Ġgurguddaa":4788,"Kaayyoon":4789,"Ġarge":4790,"okir":4791,"Ġdhihoo":4792,"Innis":4793,"Ġlammiileen":4794,"ĠbaÊ¼ee":4795,"Gaaffiin":4796,"Ġballeessuu":4797,"ĠBiyyoota":4798,"Ġmoggaaf":4799,"Ġdhukkuba":4800,"Ġxixiqq":4801,"xx":4802,"Ġasi":4803,"ssaa":4804,"mmaa":4805,"jje":4806,"Ġjedhani":4807,"aamee":4808,"imaa":4809,"aayitaa":4810,"Ġalagaan":4811,"Ġraawwataa":4812,"Ġjaarmiyaa":4813,"Ġrasaasaan":4814,"Ġfaayidaa":4815,"attaa":4816,"Ġnageenyaa":4817,"Ġgeggeessaa":4818,"ihaa":4819,"ttuu":4820,"atamuun":4821,"Ġqull":4822,"Ġqabaatu":4823,"Ġfakkaataa":4824,"Ġibsu":4825,"Ġ128":4826,"Ġdabarsaa":4827,"Eeny":4828,"isiisa":4829,"ĠUSA":4830,"Yaada":4831,"Ġbubbul":4832,"che":4833,"Ġlakka":4834,"Ġciis":4835,"eeffame":4836,"ĠJun":4837,"ĠUN":4838,"Ġyaaduun":4839,"Ġguutt":4840,"Ġilaalchis":4841,"Ġpool":4842,"Ġraab":4843,"Ġkabajamaa":4844,"Ġuume":4845,"ĠgaÊ¼u":4846,"Ġgiddu":4847,"bbaan":4848,"anno":4849,"Ġsabummaa":4850,"aayyaa":4851,"Ġlammiin":4852,"Ġhojjett":4853,"shee":4854,"ĠtaaÊ¼anii":4855,"Ġgurguddoo":4856,"QBO":4857,"teef":4858,"aakk":4859,"Ġbish":4860,"Ġjall":4861,"Ġtaat":4862,"Ġmo":4863,"Ġargee":4864,"Ġmormiin":4865,"Ġmiliyoon":4866,"ĠSomaalee":4867,"Sababni":4868,"ci":4869,"maal":4870,"Ġdah":4871,"ĠjiÊ¼":4872,"Ġsaan":4873,"eenna":4874,"yyan":4875,"iluu":4876,"Ġharc":4877,"ĠQor":4878,"Ġgaafanna":4879,"Ġhubatan":4880,"Ġeegalan":4881,"Ġwayya":4882,"Ġnuuti":4883,"Ġqulqulluu":4884,"Qeerroon":4885,"noonni":4886,"Ġkora":4887,"tilee":4888,"Ġisaaniis":4889,"oleen":4890,"Ġegaa":4891,"***":4892,"ĠWalabummaa":4893,"Ġquuq":4894,"guu":4895,"eensi":4896,"ĠBAR":4897,"Ġtokkicha":4898,"Ġisaaniitiin":4899,"ĠJaarm":4900,"Ġmarar":4901,"Ġaad":4902,"ĠgaÊ¼uuf":4903,"Ġdhiigni":4904,"Ġgaraagarummaa":4905,"Dhugaan":4906,"Ġqabani":4907,"onn":4908,"Ġkennamu":4909,"ĠkaÊ¼u":4910,"Ġgabroonf":4911,"Ġqaamaa":4912,"Ġdaldal":4913,"Gadaan":4914,"uqq":4915,"atoo":4916,"Ġbarbaan":4917,"Ġbarsiif":4918,"ĠBak":4919,"ĠSid":4920,"Ġhandh":4921,"Ġbitaa":4922,"Ġachii":4923,"Ġhangam":4924,"ĠMuddee":4925,"Daan":4926,"oora":4927,"abee":4928,"Ġgaafatamaa":4929,"Ġtaasifame":4930,"????":4931,"gahii":4932,"mmad":4933,"ĠMaa":4934,"ĠMootumm":4935,"Ġcir":4936,"wwanii":4937,"Ġrag":4938,"aalle":4939,"Ġamanu":4940,"ĠmooÊ¼":4941,"Ġwalqabatee":4942,"Deeb":4943,"ber":4944,"garuu":4945,"Ġbatt":4946,"istoota":4947,"Ġqabdan":4948,"ĠSag":4949,"Ġgale":4950,"Ġtikf":4951,"Ġsaamaa":4952,"Ġshakkiin":4953,"joo":4954,"son":4955,"Ġha":4956,"Ġkeessanii":4957,"attootaa":4958,"ĠKeeniyaa":4959,"Ġgalata":4960,"Ġgalchuu":4961,"oolaa":4962,"Ġibsuuf":4963,"Ġamanuu":4964,"Ġgaggeess":4965,"ĠQabsaa":4966,"Ġwayyanee":4967,"Ġachitti":4968,"Injifannoon":4969,"Ġhinjiru":4970,"Hayy":4971,"tama":4972,"Ġdharaa":4973,"Ġdhoor":4974,"ĠAt":4975,"ima":4976,"Ġkufee":4977,"book":4978,"Ġdimookiraasii":4979,"Ġyommuu":4980,"Ach":4981,"yeroo":4982,"Ġtaatu":4983,"ootatti":4984,"ammi":4985,"ĠMee":4986,"ĠMuk":4987,"anda":4988,"ĠâĢª#âĢİ":4989,"ĠJira":4990,"ĠYoo":4991,"Ġfuldur":4992,"Ayyaan":4993,"nni":4994,"soon":4995,"aariyaa":4996,"Ġqoqq":4997,"iyoota":4998,"essuuf":4999,"Ġibsee":5000,"Ġboso":5001,"Ġraawwatame":5002,"ĠlakkaaÊ¼":5003,"Ġgamtaa":5004,"Ġkaraan":5005,"Ġilaalaa":5006,"ĠKaabaa":5007,"Ġfudhanne":5008,"Ġhojjetu":5009,"Ġkenna":5010,"Ġwalgah":5011,"Ġdaldalaa":5012,"Ġxinn":5013,"Asirratti":5014,"BuÊ¼":5015,"aanuu":5016,"tion":5017,"inoota":5018,"Ġdhaamm":5019,"Ġargachuun":5020,"Ġgalanii":5021,"Ġgalaana":5022,"Ġsabaaf":5023,"Ġbobbaaf":5024,"Sababa":5025,"achiifna":5026,"Ġhttp":5027,"aamp":5028,"Ġxalayaa":5029,"Ġdubbachuun":5030,"Ġbarattooti":5031,"Ġkabajamu":5032,"Ġdide":5033,"Ol":5034,"seen":5035,"atamne":5036,"Ġhindh":5037,"Ġbarate":5038,"asee":5039,"lu":5040,"Ġheedd":5041,"Ġbeell":5042,"Ġgoof":5043,"ĠAustr":5044,"Ġsabootaa":5045,"Ġhirk":5046,"Ġdhalootaan":5047,"tern":5048,"Ġdiiguu":5049,"Uummatni":5050,"Ġruku":5051,"UN":5052,"gam":5053,"ofaa":5054,"Â·":5055,"ineer":5056,"Ġqabamee":5057,"Ġhinbeek":5058,"Ġjechoota":5059,"Ġgodhuun":5060,"Ġwayii":5061,"Ġsababni":5062,"Habash":5063,"iiqaa":5064,"ini":5065,"Ġkeessati":5066,"ĠGurr":5067,"Ġfudhateen":5068,"Ġsaamicha":5069,"Ġ2005":5070,"ĠHojii":5071,"ĠGujii":5072,"Mootummaa":5073,"sl":5074,"sp":5075,"amoon":5076,"Ġdhagaa":5077,"Ġsib":5078,"Ġqabachuu":5079,"ĠAyy":5080,"aastar":5081,"otaan":5082,"ĠTaf":5083,"Ġsany":5084,"Dhimm":5085,"ĠShanee":5086,"Ġkaaniin":5087,"Ġballeessuuf":5088,"Ġhirmaach":5089,"áīµ":5090,"Ġkamiinuu":5091,"ĠKadir":5092,"oppaa":5093,"tiraa":5094,"Ġgooti":5095,"ĠGir":5096,"Ġoolle":5097,"Ġisheen":5098,"Ġbakki":5099,"Ġmalbul":5100,"Ġulfina":5101,"ĠFederaal":5102,"ĠMohammed":5103,"aazex":5104,"umti":5105,"ĠBal":5106,"Ġyeroof":5107,"ĠJab":5108,"Ġhidhamaa":5109,"ĠolÊ¼aanaa":5110,"Ġnamoomaa":5111,"Ġlafarraa":5112,"OOTA":5113,"Ġbarsiisuu":5114,"Oduu":5115,"Ġbiq":5116,"Ġqol":5117,"yyee":5118,"Ġqabaachaa":5119,"ĠQaall":5120,"Ġragg":5121,"Ġjedhaniiru":5122,"Ġcabsee":5123,"Guyyaan":5124,"ĠDuulaa":5125,"ĠMah":5126,"aayeen":5127,"addi":5128,"ĠbuÊ¼ee":5129,"ĠduÊ¼aan":5130,"Ġergama":5131,"Ġgoone":5132,"Af":5133,"way":5134,"Ġur":5135,"Ġmariin":5136,"Ġisinitti":5137,"Ġduukaa":5138,"Ġdabarsina":5139,"Ġdhiifnee":5140,"Ġtattaaffii":5141,"Ġkeeysa":5142,"Ġun":5143,"Ġbaasa":5144,"ĠOg":5145,"ĠMattuu":5146,"Ġbeekamuu":5147,"AAF":5148,"Ġdhufa":5149,"Ġoromo":5150,"Ġsanitti":5151,"ĠdeebiÊ¼u":5152,"Ġgammoo":5153,"Ġbaane":5154,"Ġmanc":5155,"Ġdhabamsiisuu":5156,"ĠMaster":5157,"biyy":5158,"ooy":5159,"atamanii":5160,"Ġwalirratti":5161,"Ġbeekameera":5162,"Ġdabarf":5163,"Ġharki":5164,"Ġdubartoota":5165,"Ġjedhaa":5166,"amus":5167,"Ġduraanii":5168,"Ġgabaasaa":5169,"Ġibidda":5170,"Ġajjeesee":5171,"ĠwalgaÊ¼ii":5172,"FDG":5173,"tum":5174,"ĠAan":5175,"ĠKun":5176,"aattis":5177,"Ġraad":5178,"Ġdhaabuun":5179,"Ġbilisummaaf":5180,"Ġtoftaa":5181,"ĠCalanq":5182,"ip":5183,"Ġana":5184,"Ġhamaan":5185,"umman":5186,"Ġbaratee":5187,"Ġhuman":5188,"Ġjabinaan":5189,"umura":5190,"Ġakeekk":5191,"Ġgidir":5192,"Ġmotummaa":5193,"Aman":5194,"Ġkanatu":5195,"ilaan":5196,"Ġlaam":5197,"ĠSo":5198,"andii":5199,"Ġdeebinee":5200,"Ġijaa":5201,"Ġjabina":5202,"Ġgaggeessuu":5203,"Dhum":5204,"âĢĻâĢĻ":5205,"Ġjirruu":5206,"Ġdorgom":5207,"ĠToop":5208,"Ġbosona":5209,"siin":5210,"Ġkir":5211,"amoota":5212,"otii":5213,"Ġcimaan":5214,"ĠmulÊ¼ataa":5215,"Ġ2009":5216,"ĠGuutuu":5217,"ĠSudaan":5218,"Bilisummaa":5219,"zdaan":5220,"Ġkaabaa":5221,"Ġadee":5222,"Ġst":5223,"ĠSuu":5224,"ĠSulul":5225,"ennee":5226,"eeffatee":5227,"Ġbeekanii":5228,"Ġguddoo":5229,"Ġmilkaaw":5230,"Tarkaanfii":5231,"phiy":5232,"Ġhidhata":5233,"ĠPr":5234,"Ġbuq":5235,"....":5236,"ĠJiru":5237,"ĠraawÊ¼":5238,"Ġqaalii":5239,"ĠSum":5240,"Ġabdiin":5241,"aallii":5242,"Ġibse":5243,"Ġraaj":5244,"Ġakkasitti":5245,"Ġcimsuu":5246,"Ġgoototni":5247,"Ġgaye":5248,"Ġgidiraa":5249,"Ġqu":5250,"ĠAjaj":5251,"ĠGan":5252,"Ġilmi":5253,"ĠCamadaa":5254,"Ġdhaabota":5255,"Ġdhuguma":5256,"Keessumaa":5257,"Ġhoggana":5258,"Gur":5259,"Od":5260,"buÊ¼":5261,"aabb":5262,"Ġsu":5263,"ĠsaÊ¼a":5264,"ĠwalÊ¼aan":5265,"Ġdandam":5266,"Ġqabsootti":5267,"Ġdubbatanii":5268,"Ġamantiin":5269,"Ġdarbanii":5270,"Ġfilmaata":5271,"Ġfayyadamuun":5272,"Ġbaraa":5273,"ĠHos":5274,"aannaan":5275,"Ġooluu":5276,"AMA":5277,"Kaayyoo":5278,"Ġbaadiyyaa":5279,"laam":5280,"raan":5281,"Ġyammuu":5282,"Ġarga":5283,"Ġinves":5284,"Ġhojiitti":5285,"Ġyaaluun":5286,"Ġgabaasni":5287,"Ġhirmaatan":5288,"ĠHoggan":5289,"ĠHumna":5290,"Ġutub":5291,"pr":5292,"Ġmataan":5293,"âĢª#âĢİ":5294,"ufaa":5295,"ĠHaala":5296,"Ġgaluun":5297,"ttiin":5298,"Ġdubbate":5299,"Ġibsi":5300,"Ġamanan":5301,"ĠqabsaÊ¼":5302,"HarÊ¼":5303,"ĠTokkummaan":5304,"ĠAbbaan":5305,"Ġboruu":5306,"Ġquub":5307,"dand":5308,"Ġtanaa":5309,"dhibbee":5310,"ootan":5311,"Ġqabaat":5312,"anneessaa":5313,"ĠBah":5314,"Ġark":5315,"Ġturuu":5316,"Ġaadaan":5317,"Ġdadhabe":5318,"Akkan":5319,"ĠariiÊ¼":5320,"toon":5321,"iik":5322,"Ġiti":5323,"Ġwaal":5324,"Ġceh":5325,"ĠQAB":5326,"oomsaa":5327,"Ġsadeen":5328,"Ġdadhabuu":5329,"Adda":5330,"Ġcalaqq":5331,"2005":5332,"02":5333,"ER":5334,"Kabaj":5335,"eelee":5336,"amneef":5337,"ĠmiÊ¼":5338,"oonaa":5339,"Ġhidhamuu":5340,"ĠolÊ¼aan":5341,"deel":5342,"siisu":5343,"Ġeegaa":5344,"Ġduudhaa":5345,"Ġbaanee":5346,"jechuun":5347,"Ġqalbiin":5348,"ĠABUT":5349,"gi":5350,"Ġkil":5351,"ĠDur":5352,"Ġgaafachuun":5353,"Ġduubaan":5354,"ĠHabashootaa":5355,"UM":5356,"ĠTulluu":5357,"Ġgaltee":5358,"Ġdhaabuuf":5359,"Ġqopheessuu":5360,"Ġoduun":5361,"Ġnageenya":5362,"Hoggan":5363,"Karoo":5364,"Manni":5365,"hidh":5366,"aand":5367,"Ġisaatii":5368,"aasanii":5369,"ĠDiin":5370,"ĠSii":5371,"Ġargan":5372,"ĠULFO":5373,"ace":5374,"sisuuf":5375,"ĠmulÊ¼ate":5376,"ĠDhaab":5377,"Hojii":5378,"Ġqunn":5379,"Ġgeeddar":5380,"aleessa":5381,"insaa":5382,"ĠWash":5383,"nes":5384,"Ġmiila":5385,"Ġdhiigaa":5386,"ĠWallagga":5387,"Ġhinqabu":5388,"ĠJarmanii":5389,"SBO":5390,"TV":5391,"gu":5392,"oÊ¼aa":5393,"atnoo":5394,"iruu":5395,"Ġqaqq":5396,"asp":5397,"ĠâĢ¢":5398,"Ġdeebis":5399,"aallaa":5400,"Ġfudhachuuf":5401,"Ġisinii":5402,"ĠDhimma":5403,"ĠHabashoota":5404,"Ġfide":5405,"Ġholola":5406,"Ġdhooww":5407,"Ob":5408,"Ġqaxx":5409,"eessina":5410,"aafis":5411,"ichaan":5412,"ĠNor":5413,"Ġdhalatan":5414,"fac":5415,"OON":5416,"Ġbayee":5417,"Ġqaroom":5418,"Ġguyyoota":5419,"Itoo":5420,"qol":5421,"chisaa":5422,"Ġwalaloo":5423,"ifne":5424,"Ġargamee":5425,"Ġeeguu":5426,"Ġhedduutu":5427,"Dhuma":5428,"Ġcimee":5429,"ĠAdaam":5430,"Gaafii":5431,"Ġqofti":5432,"ffaan":5433,"xuu":5434,"Ġkaasaa":5435,"Ġjag":5436,"Ġyuniv":5437,"Ġargatee":5438,"ĠQil":5439,"eeffachuuf":5440,"Ġmaree":5441,"Ġpr":5442,"Oromedia":5443,"Ġijaaramee":5444,"ĠkaÊ¼an":5445,"Ġraawwatan":5446,"Ġdaang":5447,"Ġdhaqee":5448,"Keessattuu":5449,"Ġfeesisa":5450,"03":5451,"Seenaan":5452,"arsa":5453,"Ġjedhamanii":5454,"Ġcarraan":5455,"andaa":5456,"Ġgaggeeffame":5457,"Ġtolf":5458,"Ġtajaajilaa":5459,"Ġlamatti":5460,"Ġbirmad":5461,"Ġdinqisiif":5462,"Ġdemokr":5463,"Ġdansaadha":5464,"Ġimmo":5465,"Aadaa":5466,"SEEN":5467,"Ġkudhan":5468,"Ġsaree":5469,"Ġree":5470,"Ġint":5471,"Ġbulchuu":5472,"Ġsagal":5473,"Ġhogganoota":5474,"ĠWoyyaan":5475,"ĠGim":5476,"eeffatan":5477,"Ġfalmii":5478,"ĠFinfinne":5479,"Obboo":5480,"Ġkaar":5481,"Ġkas":5482,"Ġkey":5483,"Ġsoor":5484,"Ġhinb":5485,"aasuuf":5486,"ĠBIL":5487,"ĠHIN":5488,"Ġgos":5489,"ĠUr":5490,"eesuu":5491,"ĠLataa":5492,"ĠYaman":5493,"Ġdhiheenya":5494,"Ġbaqataa":5495,"ĠIslaamaa":5496,"Ġhayyuu":5497,"aadhim":5498,"Ġkeessumaayuu":5499,"ĠAustralia":5500,"famanii":5501,"Ġmaatiin":5502,"Ġhundeen":5503,"ĠTumsaa":5504,"ĠRakk":5505,"ĠgaÊ¼e":5506,"Ġjiraachuuf":5507,"Ġadam":5508,"sitee":5509,"ĠajaaÊ¼ib":5510,"aariyaam":5511,"kr":5512,"aag":5513,"Ġqabduu":5514,"Ġduras":5515,"Ġmurtiin":5516,"ĠdandaÊ¼amne":5517,"AAT":5518,"Ġmaratti":5519,"Ġgaggeessa":5520,"Ġsiyaas":5521,"Ġuumata":5522,"Ġdabarsuun":5523,"ews":5524,"Ġqormaata":5525,"Baq":5526,"Jijjiir":5527,"aafuu":5528,"Ġjedhuuf":5529,"ttee":5530,"Ġdhabanii":5531,"Ġhimaniiru":5532,"UUN":5533,"Ġfincil":5534,"Ġimimmaan":5535,"Ġobsa":5536,"Ġboodas":5537,"Ġtasgabbii":5538,"Ġgargaara":5539,"taar":5540,"dhii":5541,"ootaatti":5542,"ĠKabb":5543,"uba":5544,"âĢ¦âĢĿ":5545,"Ġyaadni":5546,"Ġbarreess":5547,"Ġdidee":5548,"Ġbineens":5549,"Ġdidd":5550,"Ġbab":5551,"eensaa":5552,"ĠOF":5553,"Ġgubbaa":5554,"Ġfakkeenyaa":5555,"ĠUmmanni":5556,"Ġempay":5557,"duree":5558,"Ġbuusuu":5559,"Ġhaaluma":5560,"Sabni":5561,"ĠGarbaa":5562,"ĠBishooftuu":5563,"05":5564,"bir":5565,"Ġkh":5566,"Ġdall":5567,"are":5568,"araal":5569,"affaan":5570,"Ġfuull":5571,"Ġhiikk":5572,"ĠTigr":5573,"Ġkaroorf":5574,"Bilis":5575,"Qoph":5576,"Wanni":5577,"Ġus":5578,"Ġturuun":5579,"Ġkunniin":5580,"Ġragaan":5581,"Ġoole":5582,"Ġsaamuu":5583,"dura":5584,"Ġqabsaawaa":5585,"Ġwaraanaan":5586,"ĠHidhaa":5587,"Ġlaamsh":5588,"ĠWashington":5589,"alu":5590,"bba":5591,"ĠDem":5592,"olog":5593,"OMN":5594,"Ġgalmeess":5595,"Ġgoona":5596,"ĠTaaddasaa":5597,"ĠtaÊ¼us":5598,"ord":5599,"ĠDura":5600,"Ġtureera":5601,"olli":5602,"Ġdhibbaa":5603,"ichuu":5604,"Ġdeemanii":5605,"usti":5606,"Ġijaaramuu":5607,"Ġabbootiin":5608,"Ġejjannoo":5609,"Ġhinqabne":5610,"Ġkatab":5611,"go":5612,"Ġkubb":5613,"Ġsukk":5614,"Ġjireenyi":5615,"ada":5616,"Ġdhalooti":5617,"Ġgaadd":5618,"ĠBilisummaan":5619,"eeshinii":5620,"ĠPoolisii":5621,"ĠBaaroo":5622,"ĠWaaqayyo":5623,"Ġnagayaa":5624,"ĠRaadiyoo":5625,"ĠToopphiyaa":5626,"ĠDuu":5627,"ĠKanneen":5628,"Ġyook":5629,"Ġmirk":5630,"Ġraf":5631,"Ġbultoota":5632,"Ġfufan":5633,"Ġsagaleen":5634,"Kunoo":5635,"Ġtaasisee":5636,"Ġdhugumatti":5637,"biin":5638,"iph":5639,"iitiin":5640,"ark":5641,"Ġbaatu":5642,"Ġqabatamaan":5643,"ĠADO":5644,"ĠTs":5645,"ĠJe":5646,"Ġgodhatee":5647,"Ġfilannoon":5648,"Ġgandaa":5649,"Ġgalmee":5650,"ĠUummatni":5651,"Ġirraanf":5652,"Ġbalbala":5653,"Ġbadhaa":5654,"Ġmall":5655,"Ġqixx":5656,"Ġkanniin":5657,"yyi":5658,"Ġqabannee":5659,"ĠMormii":5660,"ĠIxoo":5661,"Ġpre":5662,"ĠPilaanii":5663,"Ġuumamaa":5664,"Ġoolchuuf":5665,"Ġtolu":5666,"Ġdargaggoonni":5667,"Diina":5668,"Ġdeggersa":5669,"Guu":5670,"ruu":5671,"Ġdad":5672,"Ġgeessu":5673,"Ġdhara":5674,"ĠsaÊ¼":5675,"eessummaa":5676,"ĠMel":5677,"ĠDin":5678,"otto":5679,"Ġofi":5680,"Ġharra":5681,"Ġgaaff":5682,"Ġoolan":5683,"Ġhammeenya":5684,"Ġbobbaasuun":5685,"Ġnafxanyaa":5686,"::":5687,"Ġtay":5688,"Ġwagga":5689,"Ġisan":5690,"Ġcit":5691,"Ġduraatti":5692,"Ġdubbachuuf":5693,"ĠCaalaa":5694,"awwee":5695,"Ġbarbaaduu":5696,"ĠGodinaa":5697,"Ġdabarsa":5698,"ĠGaafa":5699,"Ġdhugoomsuuf":5700,"Murni":5701,"Ġkijibaa":5702,"ĠAmantii":5703,"AF":5704,"Ġfuu":5705,"ĠHoo":5706,"eeffama":5707,"Ġbeekame":5708,"Ġoromoof":5709,"Ġdanq":5710,"Ġinjifannoon":5711,"OKK":5712,"fal":5713,"moon":5714,"aandeel":5715,"Ġfokk":5716,"Ġloon":5717,"Ġaddaddaa":5718,"ĠQan":5719,"Ġhaadh":5720,"urri":5721,"ĠGalaan":5722,"Ġyoomuu":5723,"Ġagarsiisu":5724,"ĠAbdul":5725,"Ġsagant":5726,"ource":5727,"Wall":5728,"lii":5729,"ye":5730,"eegg":5731,"Ġfo":5732,"Ġqey":5733,"ummaatiin":5734,"ĠMaq":5735,"ĠGul":5736,"ĠWaajj":5737,"Ġarmaa":5738,"Ġhoggaa":5739,"Ġgolee":5740,"Ġgochaan":5741,"Ġdursanii":5742,"ĠDhih":5743,"Ġkaanee":5744,"Ġbade":5745,"Ġmagaalattii":5746,"Ġdargaggootni":5747,"Ġhanqina":5748,"ĠGamtaa":5749,"muu":5750,"Ġko":5751,"ahuu":5752,"ĠBadh":5753,"Ġhos":5754,"ĠOromiyaaf":5755,"Ġbulu":5756,"Ġkennanii":5757,"Ġkaasan":5758,"Ġkeenn":5759,"Ġsuuk":5760,"ĠtooÊ¼":5761,"Ġdandahu":5762,"ttaa":5763,"Ġbarataan":5764,"eraa":5765,"Ġturtee":5766,"ĠHaay":5767,"Ġdiinota":5768,"Ġhaati":5769,"Ġhime":5770,"ellee":5771,"ĠDhug":5772,"ĠWalisoo":5773,"Ġmale":5774,"Ġgabaase":5775,"Ġhaasof":5776,"Ġcallaa":5777,"Ġlakkoofsi":5778,"IT":5779,"Sagalee":5780,"UL":5781,"Ġ!!!!":5782,"Ġbool":5783,"Ġbic":5784,"Ġbaadh":5785,"Ġwix":5786,"rraan":5787,"Ġfidee":5788,"Ġbarri":5789,"Ġittisa":5790,"ĠKeenya":5791,"ĠEle":5792,"Ġilaalee":5793,"kak":5794,"Ġfedhu":5795,"áĪŃ":5796,"Ġxiqqaate":5797,"Ġmilkeessuuf":5798,"Ġmuka":5799,"Ġfaffac":5800,"18":5801,"HBO":5802,"barr":5803,"Ġáī":5804,"Ġbadd":5805,"ĠAgaazii":5806,"Ġwallee":5807,"ahan":5808,"afi":5809,"imoo":5810,"Ġdandeessu":5811,"Ġdeebine":5812,"ĠHorroo":5813,"tarnee":5814,"Uummata":5815,"Ġdafee":5816,"Ġbashann":5817,"08":5818,"Ġ!!!":5819,"ald":5820,"Ġdhalli":5821,"Ġsaff":5822,"ĠBiti":5823,"ĠIsa":5824,"onqol":5825,"ĠQC":5826,"Ġshanee":5827,"Ġdhaloonni":5828,"Ġnaannolee":5829,"Ġbarreessaa":5830,"Ġguddaadha":5831,"Ġfedhiin":5832,"ĠAfran":5833,"Ġyaaliin":5834,"mookr":5835,"Ġukkam":5836,"Ġfiniinaa":5837,"Ġobbolaa":5838,"famuu":5839,"Ġhall":5840,"insi":5841,"innii":5842,"ĠMadda":5843,"wwii":5844,"ence":5845,"Ġgaafas":5846,"Ġhidham":5847,"ĠdandaÊ¼ame":5848,"======":5849,"Ġkaasu":5850,"Ġyaalan":5851,"Ġmiseensonni":5852,"Ġhoogganni":5853,"HaataÊ¼u":5854,"Ġsammuun":5855,"io":5856,"Ġtaajj":5857,"Ġayy":5858,"Ġkanaas":5859,"aattuu":5860,"ĠHa":5861,"useen":5862,"Ġajjeechaan":5863,"jedhanii":5864,"ATA":5865,"Ġhaam":5866,"Ġadii":5867,"Ġisuma":5868,"ĠDamm":5869,"ĠHaww":5870,"Ġgoch":5871,"end":5872,"Ġguddisuu":5873,"ĠNafxan":5874,"Ġjabeessuuf":5875,"Ġmormuu":5876,"ĠZK":5877,"Ġfuudhee":5878,"Ġwaggaalee":5879,"Ġqullaa":5880,"ĠBILIS":5881,"ĠIxoophiyaa":5882,"EN":5883,"cal":5884,"abbaa":5885,"Ġmasa":5886,"ĠGaanfa":5887,"ĠWAL":5888,"ĠDi":5889,"Ġammaas":5890,"Ġilaallee":5891,"Ġmaalif":5892,"Ã£n":5893,"Ġgaragar":5894,"Ġkophaa":5895,"kutaa":5896,"we":5897,"war":5898,"uush":5899,"Ġkaab":5900,"Ġhaat":5901,"Ġwali":5902,"asaan":5903,"AAM":5904,"Ġjabinaa":5905,"ĠDhihaa":5906,"________________":5907,"ona":5908,"ale":5909,"dde":5910,"enyaa":5911,"ĠKana":5912,"siise":5913,"Ġhedduutti":5914,"Ġijaaruuf":5915,"Ġdabarsan":5916,"Ġhaasaw":5917,"Ġguyya":5918,"Ġdhibdee":5919,"ĠBoruutiin":5920,"ĠboojiÊ¼":5921,"FIN":5922,"Lafa":5923,"Ġ[":5924,"Ġbaatan":5925,"Ġmaa":5926,"ĠOdaa":5927,"ĠMoo":5928,"asan":5929,"Ġammatti":5930,"ĠKom":5931,"ĠKeessaa":5932,"Ġdarbaa":5933,"ĠNamni":5934,"Dhii":5935,"Ġgaddaa":5936,"Ġhayyoota":5937,"Gabr":5938,"Gareen":5939,"ĠBirruu":5940,"ji":5941,"aaba":5942,"Ġqabachuun":5943,"Ġartis":5944,"otee":5945,"ĠAmaara":5946,"Ġyaadaan":5947,"ĠDhugaa":5948,"Ġduulli":5949,"Ġmaddeen":5950,"Ġajjeefamaa":5951,"Ġpoolisoota":5952,"Magaalaa":5953,"han":5954,"Ġidd":5955,"dhuu":5956,"Ġkann":5957,"aattu":5958,"imii":5959,"ĠJIR":5960,"oomee":5961,"ĠâĢľâĢ¦":5962,"Ġmiliq":5963,"ĠBarattootni":5964,"Ġfixaa":5965,"Ġagarsiisuu":5966,"Ġdhibu":5967,"Ġdhageessisaa":5968,"aammanaa":5969,"Mas":5970,"eni":5971,"jab":5972,"Ê¼e":5973,"Ġsaf":5974,"Ġqabatan":5975,"Ġqabaatan":5976,"Ġqabneef":5977,"Ġwalitt":5978,"ubbuun":5979,"eeffate":5980,"Ġijoo":5981,"Ġhojjannu":5982,"ĠNi":5983,"ĠbuÊ¼a":5984,"Ġsadaffaa":5985,"Ġdhokataa":5986,"aarraan":5987,"zidaantii":5988,"Ġdukkana":5989,"Ġroga":5990,"Ayyaana":5991,"Bitootessa":5992,"ha":5993,"Ġhom":5994,"Ġtuul":5995,"umattuu":5996,"omoo":5997,"ĠOf":5998,"Ġnannoo":5999,"age":6000,"ĠMot":6001,"ĠKut":6002,"aayit":6003,"Ġdabarse":6004,"toti":6005,"Ġufii":6006,"Ġdachii":6007,"Ġmurteeffannaa":6008,"Ġkiyyaatti":6009,"Ġdhaqqabe":6010,"Baar":6011,"Ġ!!":6012,"irii":6013,"ĠOsoo":6014,"eefii":6015,"esse":6016,"Ġilaalamuu":6017,"Ġaanee":6018,"Ġ2010":6019,"Ġdarbuu":6020,"okiraasii":6021,"ĠWaliin":6022,"ĠdeebiÊ¼an":6023,"Ġqabsiif":6024,"Ġtasaa":6025,"Ġdhiyeess":6026,"Ġdubartii":6027,"ĠQophii":6028,"Ġabjuu":6029,"Ġmalbulchaa":6030,"fachuuf":6031,"Ġkiti":6032,"Ġdaq":6033,"Ġmuf":6034,"Ġwanneen":6035,"ĠGond":6036,"otiin":6037,"Ġdandeess":6038,"Ġdabalaa":6039,"Ġdubbisuu":6040,"Ġdhaabbileen":6041,"ooroo":6042,"Ġduulaa":6043,"Ġxumuraa":6044,"Ġhumnoonni":6045,"Sadaasa":6046,"ĠAkkuma":6047,"ĠTasfaa":6048,"nootaa":6049,"Ġfuun":6050,"Ġaraara":6051,"Ġbiyyota":6052,"Ġkunuun":6053,"aaye":6054,"ĠUs":6055,"Ġhimame":6056,"Ġdhiiraa":6057,"Ġcufa":6058,"Ġqabeenyi":6059,"eenyu":6060,"ĠSabb":6061,"Ġsobaan":6062,"Ġsirnaa":6063,"aaÊ¼uu":6064,"aannii":6065,"Ġdhaabbat":6066,"Ġsaniin":6067,"Ġamantee":6068,"ooraan":6069,"Ġsochoo":6070,"Ġloltuu":6071,"ĠbaÊ¼anii":6072,"Ġkenni":6073,"ĠsossoÊ¼":6074,"Ġwayyaaneef":6075,"faman":6076,"iidhaa":6077,"Ġilee":6078,"Ġfarr":6079,"ootiif":6080,"Ġkeessumm":6081,"Ġlaall":6082,"iisuu":6083,"arrii":6084,"ĠUum":6085,"Ġnamootaa":6086,"Ġsirba":6087,"ĠRaayyaa":6088,"Ġcims":6089,"Ġbaqatanii":6090,"Ġeegalame":6091,"09":6092,"Hub":6093,"chan":6094,"Ġwabii":6095,"aamuu":6096,"akkii":6097,"Ġjirani":6098,"Ġgaha":6099,"Ġgahuun":6100,"Ġjalaan":6101,"qqee":6102,"Ġbut":6103,"ibuu":6104,"Ġagars":6105,"Hunda":6106,"Ġdhiigaan":6107,"Ġyaamicha":6108,"Ġguututti":6109,"ineering":6110,"hum":6111,"owwan":6112,"qaan":6113,"Ġyar":6114,"ĠGara":6115,"ulaa":6116,"ĠDubar":6117,"ĠNuti":6118,"Ġdhaabbanne":6119,"iiroon":6120,"Ġmulq":6121,"ĠbaÊ¼aa":6122,"Ġgargaaru":6123,"ice":6124,"ĠbaayÊ¼een":6125,"ĠOroppaa":6126,"Ġoofaa":6127,"Ġhegaree":6128,"Ġmararf":6129,"Ġgiddutti":6130,"Ġmaadh":6131,"yyiin":6132,"ĠMuumm":6133,"ĠWalaa":6134,"Ġhardha":6135,"Ġgaafachaa":6136,"Ġhidhamee":6137,"Ġdeebisaa":6138,"ĠCaffee":6139,"Ġsadi":6140,"Ġdarbaniif":6141,"ĠArabaa":6142,"Ġdabalataa":6143,"Ġbakkatti":6144,"Ġdhoksaa":6145,"Ġmooraan":6146,"Ġwalakkaa":6147,"Ġittisuu":6148,"phaa":6149,"eeffatanii":6150,"Ġhidhaan":6151,"Ġboson":6152,"Ġalaan":6153,"sisee":6154,"OOM":6155,"ĠInjif":6156,"Ġmaddi":6157,"Ġdhoksaan":6158,"ĠWareeg":6159,"Ilaal":6160,"ĠGuddinaa":6161,"ĠJalduu":6162,"Jedh":6163,"Ġhaasaa":6164,"Ġfonqol":6165,"Ġquun":6166,"ummaafi":6167,"Ġqabnuu":6168,"Ġoso":6169,"ĠGoo":6170,"ĠSaa":6171,"ĠImpaay":6172,"ĠJan":6173,"Ġturetti":6174,"Ġdubbata":6175,"Ġmiira":6176,"Ġcaalatti":6177,"isiise":6178,"ĠWalloo":6179,"Ġbuufata":6180,"Ġmaster":6181,"Ġkumaatamaan":6182,"Irree":6183,"eop":6184,"por":6185,"Ġfaran":6186,"Ġcon":6187,"Ġcomm":6188,"Ġgaraatti":6189,"ittiin":6190,"otaaf":6191,"iyaanii":6192,"Ġbulee":6193,"iirtuu":6194,"Ġrakko":6195,"ĠkaÊ¼aa":6196,"Ġasiin":6197,"Ġbane":6198,"Ġdhukaasa":6199,"Ġdogoggor":6200,"Ġargamsiisuu":6201,"Ġbaratootni":6202,"IF":6203,"hee":6204,"kar":6205,"malee":6206,"aarri":6207,"Ġdor":6208,"Ġjarreen":6209,"Ġjiddutti":6210,"Ġsud":6211,"urii":6212,"ĠDaw":6213,"ĠDass":6214,"Ġwaanti":6215,"ĠSt":6216,"ĠKeenyaa":6217,"adheen":6218,"essi":6219,"Ġjabaachaa":6220,"Ġfufaa":6221,"ĠduÊ¼ee":6222,"ĠMagaala":6223,"Ġwalaboom":6224,"Ġiyya":6225,"Ġwaliigalaa":6226,"ĠDhaabaa":6227,"Ġfardii":6228,"Ġagarsiisaa":6229,"Ġall":6230,"Ġeny":6231,"Ġsiy":6232,"Ġny":6233,"ĠHuseen":6234,"Ġraaf":6235,"iyaaleen":6236,"Ġhubat":6237,"Ġfakkaatee":6238,"Ġlammataa":6239,"Ġdarbu":6240,"ĠWaraanaa":6241,"Ġhangaf":6242,"Ġbarruulee":6243,"Ġdhukkubs":6244,"ĠAwurooppaa":6245,"Ġbishaanii":6246,"Ġbattal":6247,"Caamsaa":6248,"kaar":6249,"mataa":6250,"tani":6251,"woo":6252,"Ê¼uu":6253,"Ġkeessaas":6254,"ĠBaan":6255,"atus":6256,"Ġijaaramu":6257,"Ġofiitti":6258,"Ġbarsiisota":6259,"Addi":6260,"Ġlakkaawaman":6261,"ĠMuktaar":6262,"Dab":6263,"Maddi":6264,"Ġtak":6265,"aÊ¼in":6266,"aamni":6267,"Ġilaala":6268,"ichatti":6269,"Ġseenu":6270,"Ġhubachiisuu":6271,"ĠNaay":6272,"ĠUmmatni":6273,"Ġqabaniin":6274,"Ġkaasuuf":6275,"ĠduÊ¼uu":6276,"eessitoonni":6277,"Ġlamaaf":6278,"aayinsii":6279,"Anis":6280,"Ġgaach":6281,"Ġirraas":6282,"Ġhinf":6283,"Ġwalb":6284,"ĠtaÊ¼eera":6285,"Ġdurummaan":6286,"Ġbeekam":6287,"Kanaan":6288,"Ġshanii":6289,"Ġbaqatan":6290,"ĠGabaasa":6291,"Ġgaragal":6292,"Ġdhaggeeffadhaa":6293,"Ġqilleensa":6294,"Mootumm":6295,"gur":6296,"uugg":6297,"Ġbaar":6298,"atta":6299,"ulÊ¼":6300,"Ġittisuuf":6301,"Ġbulaan":6302,"Ġbalaan":6303,"OOT":6304,"ĠbaÊ¼uuf":6305,"Ġcabsuu":6306,"Ġjeequmsa":6307,"HaataÊ¼uu":6308,"eneraal":6309,"men":6310,"ojii":6311,"Ġdaba":6312,"Ġmid":6313,"Ġqaaww":6314,"ĠBil":6315,"ĠMorm":6316,"ĠGeed":6317,"ĠDach":6318,"Ġarra":6319,"Ġwaree":6320,"eeffaman":6321,"Ġgodhuuf":6322,"Ġdhaabbannee":6323,"ĠRashaa":6324,"Ġhimuu":6325,"Ġjiraatanii":6326,"Ġhiika":6327,"Ġgumaachuu":6328,"ĠbalÊ¼aan":6329,"Ġtarree":6330,"UO":6331,"sumas":6332,"ahe":6333,"Ġammayyaa":6334,"Ġdurfamu":6335,"Ġisaaniiti":6336,"Ġbeeksif":6337,"Ġjiraatuu":6338,"Ġfalmachuu":6339,"Ġballeessaa":6340,"Ġdaranuu":6341,"Ġtorbaan":6342,"Ġmanatti":6343,"Ġgeggeeffamaa":6344,"Ġgodinaalee":6345,"Ġqeyee":6346,"FF":6347,"Kaan":6348,"Leenc":6349,"gul":6350,"iew":6351,"Ġhidha":6352,"Ġagg":6353,"ĠtaÊ¼aniif":6354,"Ġgaafiin":6355,"Ġfudhachaa":6356,"haammad":6357,"achuufi":6358,"Ġijaaranii":6359,"Ġittuma":6360,"Ġdanuu":6361,"ĠHarar":6362,"ĠOROMIYAA":6363,"Ġbeela":6364,"ĠErit":6365,"ĠDimook":6366,"Ġqaxxaam":6367,"ĠBitimaa":6368,"AÊ¼":6369,"Ġteessoo":6370,"Ġwaldh":6371,"Ġtokkot":6372,"Ġmagalaa":6373,"Ġciminaan":6374,"Ġnyaatu":6375,"Ġgammachuun":6376,"Ġilaallatu":6377,"Ġuffata":6378,"Ġmormitootaa":6379,"ĠYunivarsiitii":6380,"ĠWarraaqsaa":6381,"Ġhaleellaa":6382,"Ġfiixaan":6383,"Ġfakkeenyaatti":6384,"Way":6385,"ge":6386,"Ġakkaa":6387,"ĠLib":6388,"Ġkudha":6389,"Ġsalphaatti":6390,"Ġ02":6391,"Ġkabachiisuuf":6392,"ĠHayilee":6393,"ĠNamoota":6394,"Ġxiinxal":6395,"Ġbiqil":6396,"bara":6397,"shaa":6398,"Ġhidda":6399,"Ġmijj":6400,"eena":6401,"ĠAjj":6402,"Ġtureen":6403,"ĠKaraa":6404,"ifamaa":6405,"Ġhubannee":6406,"Ġboodaa":6407,"Ġoromummaa":6408,"ĠdeebiÊ¼uun":6409,"ĠTokko":6410,"Ġsiidaa":6411,"ĠDaandii":6412,"Ġgabroomfataa":6413,"mu":6414,"Ġifaan":6415,"inna":6416,"ĠAk":6417,"ĠAad":6418,"amaayaa":6419,"oolii":6420,"Ġbeekamee":6421,"Ġhojjatamu":6422,"Ġinter":6423,"Ġuumuuf":6424,"Ġoolchuu":6425,"Ġmirkaneessuuf":6426,"Ġafan":6427,"Ġmiseensummaa":6428,"ĠMinisti":6429,"Ġguutuutti":6430,"Ġ2000":6431,"Ġfageenyaan":6432,"aqasaa":6433,"Ġxiyyeef":6434,"Ġfiniinsaa":6435,"Ġfirii":6436,"Ġobboleessa":6437,"Ġfuulduratti":6438,"Biyyi":6439,"EESS":6440,"Dhumarratti":6441,"CR":6442,"keess":6443,"Ġkuun":6444,"Ġkor":6445,"Ġkudh":6446,"Ġhudh":6447,"Ġbarachuun":6448,"ĠBuÊ¼":6449,"ĠGadaan":6450,"Ġittifuf":6451,"ifa":6452,"Ġgaafat":6453,"Ġdabaree":6454,"Ġolk":6455,"Ġhiriyaa":6456,"Kanas":6457,"rikaa":6458,"Ġgargaaruu":6459,"Ġfacc":6460,"Ġmirgoota":6461,"site":6462,"Ġmiidiyaalee":6463,"ĠDaawud":6464,"iim":6465,"Ġbayy":6466,"Ġgayaa":6467,"Ġfoon":6468,"uufis":6469,"Ġjedhamne":6470,"ĠKuush":6471,"Ġhundaaw":6472,"Ġbeekamne":6473,"maanni":6474,"ĠNa":6475,"Ġdhufte":6476,"Ġilaalan":6477,"Ġkeenyaatti":6478,"Ġega":6479,"ĠDhii":6480,"Ġjiruudha":6481,"ĠOromoofi":6482,"Barattootni":6483,"eessituu":6484,"Ġdabranii":6485,"Ġdiimookr":6486,"Ġhacuuccaa":6487,"maatni":6488,"ĠYaadannoo":6489,"22":6490,"ophiyaa":6491,"qal":6492,"sina":6493,"Ġfalli":6494,"Ġfudha":6495,"ĠOd":6496,"ĠOsl":6497,"Ġwaloon":6498,"Ġcees":6499,"Ġummataan":6500,"Ġbakkaa":6501,"ĠMinistee":6502,"ĠDargaggoota":6503,"Addunyaa":6504,"Ġboqot":6505,"Ġhadhaawaa":6506,"Ġhindandeenye":6507,"Ġshamarran":6508,"Ġquubsaa":6509,"Ebla":6510,"Toof":6511,"min":6512,"Ġjirree":6513,"aaliin":6514,"aatoo":6515,"ĠKAN":6516,"Ġgaafatamaan":6517,"eeffamee":6518,"oolle":6519,"ĠUK":6520,"tte":6521,"Ġhubadhaa":6522,"Ġgodhamee":6523,"Ġdhabamuu":6524,"Ġshaff":6525,"deeb":6526,"Ġilaalamu":6527,"Ġgaggeessuun":6528,"Ġkabajame":6529,"Ġbalal":6530,"arsiisaa":6531,"Ġlaafina":6532,"ĠDhaaba":6533,"Ġfiduuf":6534,"Addatti":6535,"Ġaarsaa":6536,"Ġkolonii":6537,"ĠMudde":6538,"ĠWaaqeffannaa":6539,"Ġhandhuura":6540,"ology":6541,"ĠÂ·":6542,"Ġhax":6543,"Ġjirraa":6544,"ĠAww":6545,"Ġbaranaa":6546,"iyaatti":6547,"itanii":6548,"Ġarganii":6549,"Ġdandaha":6550,"Ġsodaan":6551,"Kanuma":6552,"Ġfudhataa":6553,"ĠbuÊ¼e":6554,"ĠduÊ¼an":6555,"Ġgaariin":6556,"ĠGodin":6557,"Ġbuuteen":6558,"Ġhoogganoota":6559,"Ġgorsa":6560,"Ġjaarmaya":6561,"ĠHawaasaa":6562,"Ġmurteessaadha":6563,"Hiriira":6564,"ĠAhmad":6565,"toom":6566,"wee":6567,"iilee":6568,"Ġkaadhim":6569,"Ġdachaa":6570,"Ġgag":6571,"Ġsiin":6572,"ĠAni":6573,"achoo":6574,"ĠDiina":6575,"ĠSar":6576,"Ġbeeknu":6577,"Ġmurannoon":6578,"ĠNagaa":6579,"Ġfakkaatan":6580,"Ġilaalchi":6581,"Ġdhaabichaa":6582,"Ġjiraatee":6583,"Ġwareegamanii":6584,"Ġdhiheessuu":6585,"Ġkeenyarratti":6586,"Ġgaariitti":6587,"ĠMagaal":6588,"ĠHarÊ¼a":6589,"Ġbuqqisuu":6590,"eessite":6591,"Ġmilkiin":6592,"Ġtorb":6593,"Ġhoogganaa":6594,"Hojiin":6595,"Ġimal":6596,"Ġboodatti":6597,"Ġhogganaa":6598,"Ġjidduutti":6599,"Ġakeekkach":6600,"ĠAlaabaa":6601,"Dhimmi":6602,"Booda":6603,"bit":6604,"gii":6605,"Ġ!!!!!!!!":6606,"anaan":6607,"Ġfotto":6608,"Ġjiraanne":6609,"addhaa":6610,"ĠBadd":6611,"afee":6612,"ĠSoor":6613,"olis":6614,"oola":6615,"Ġrarr":6616,"ĠLeell":6617,"eeleen":6618,"Ġdhaabu":6619,"Ġyaale":6620,"ĠbaÊ¼uun":6621,"Ġdadhaban":6622,"Ġgabaasi":6623,"Sadarkaa":6624,"Ġyuuniversitii":6625,"Ayyaanni":6626,"ĠRashaad":6627,"Um":6628,"anc":6629,"Ġbuun":6630,"Ġsal":6631,"Ġsuni":6632,"eessine":6633,"ifnee":6634,"Ġaboruu":6635,"Ġinnis":6636,"Ġhubate":6637,"Ġuumuun":6638,"EERR":6639,"Ġnyaat":6640,"Ġmirkaneessuu":6641,"Ġmiseensotni":6642,"Ġbaduu":6643,"Sheek":6644,"Ġtiksuu":6645,"Ġfuuldura":6646,"Ġdimookr":6647,"ĠDeebii":6648,"ĠSidaamaa":6649,"ĠWalaabuu":6650,"07":6651,"Fal":6652,"Mudd":6653,"hoo":6654,"saafi":6655,"tara":6656,"baatti":6657,"Ġbiyyattiin":6658,"tutti":6659,"ĠTarkaan":6660,"Ġhojjatanii":6661,"Ġdubbis":6662,"Ġjabaan":6663,"Ġfiniinsuu":6664,"Ġkeeysaa":6665,"ĠIrreecha":6666,"Ġwaajjir":6667,"Ġáĭ¨":6668,"jjeechaa":6669,"Hin":6670,"Ġedd":6671,"ataaf":6672,"Ġgaman":6673,"aaluu":6674,"Ġhing":6675,"ĠGeet":6676,"orii":6677,"Ġgubb":6678,"Ġbeeknee":6679,"Ġguddicha":6680,"ĠUmmatoota":6681,"Ġmorman":6682,"2012":6683,"Ġmadde":6684,"Dubbiin":6685,"Ġfeene":6686,"Adeemsa":6687,"HarÊ¼as":6688,"ĠNorway":6689,"Ġmirkanaa":6690,"Jaar":6691,"kur":6692,"qama":6693,"Ġeess":6694,"Ġteek":6695,"Ġmalaa":6696,"Ġseerri":6697,"Ġkanarra":6698,"Ġqabattee":6699,"Ġqabaanne":6700,"Ġammaaf":6701,"ĠKaayyoo":6702,"gganni":6703,"ĠTadd":6704,"Ġsabichaa":6705,"essan":6706,"AAR":6707,"ĠharÊ¼allee":6708,"Ġijaaraa":6709,"Ġuumee":6710,"Ġeeboo":6711,"Ġsaamichaa":6712,"Ġdhaamsi":6713,"Ġ2006":6714,"ĠAlamuu":6715,"Ġdiiguuf":6716,"ĠSadarkaa":6717,"Ġsuuraa":6718,"Tarkaanfiin":6719,"Ġdhoww":6720,"Dabal":6721,"Via":6722,"fatu":6723,"pd":6724,"quun":6725,"Ġgib":6726,"Ġteess":6727,"Ġwac":6728,"Ġirrattii":6729,"ahee":6730,"ĠWarri":6731,"Ġilaa":6732,"Ġsabb":6733,"aayyee":6734,"2017":6735,"Ġasirratti":6736,"Ġbakkuma":6737,"Ġhawwiin":6738,"eettaa":6739,"ĠIluu":6740,"Ġmurteeffachuu":6741,"Ġtasgabb":6742,"Ġqondaalota":6743,"ĠDiimaa":6744,"Ġcaccabs":6745,"Bulch":6746,"Jal":6747,"huun":6748,"Ġ:-":6749,"ĠBo":6750,"Ġdhaadh":6751,"Ġtahuuf":6752,"Ġyoommuu":6753,"Ġgalchuun":6754,"ĠEer":6755,"Oromoonni":6756,"Ġlammi":6757,"Ġqaamaan":6758,"Ġdhiisii":6759,"Ġnutis":6760,"Ġgaddisiisu":6761,"ĠUummataa":6762,"Ġfiroottan":6763,"ĠdeddeebiÊ¼ee":6764,"IY":6765,"nummaa":6766,"nama":6767,"ĠAadde":6768,"Ġwaldhaan":6769,"ĠMok":6770,"Ġargatanii":6771,"ĠTol":6772,"eeffamuu":6773,"Ġdhabne":6774,"Ġlafarra":6775,"Ġ2011":6776,"Ġhimuun":6777,"Ġijaaraman":6778,"Ġjedhaniin":6779,"sisa":6780,"sisuun":6781,"ĠWaaqaa":6782,"ĠtaaÊ¼aa":6783,"Ġdiimaa":6784,"04":6785,"Hal":6786,"LA":6787,"Ġkessaa":6788,"Ġgatee":6789,"Ġmaayy":6790,"Ġqac":6791,"Ġqabaman":6792,"âĢ¢":6793,"Ġtokkom":6794,"ichoo":6795,"awu":6796,"Ġhubatu":6797,"ĠLafa":6798,"Ġgadadoo":6799,"ĠbuÊ¼uura":6800,"Ġjiraattota":6801,"ĠPlan":6802,"Ġummatootni":6803,"Ġhojjechuun":6804,"Ġkufan":6805,"Ġaff":6806,"Ġulaa":6807,"Ġmilkoofne":6808,"OPDOn":6809,"ĠCalanqoo":6810,"ĠSulultaa":6811,"Ġmasak":6812,"HCR":6813,"Ġqabd":6814,"Ġkeessas":6815,"ersiitii":6816,"Ġargamanii":6817,"ĠTur":6818,"Ġharma":6819,"ĠJabuu":6820,"Ġhubachiifna":6821,"AAB":6822,"ĠLii":6823,"immuu":6824,"Ġyaalu":6825,"Ġadeemsi":6826,"Ġdhiyeesse":6827,"Ġsabboonaa":6828,"Ġkenyaa":6829,"Ġhiriiruun":6830,"Ġonn":6831,"ĠSomaaliyaa":6832,"ĠGammachuu":6833,"ĠBILISUMMAA":6834,"Itiyoo":6835,"OF":6836,"maataa":6837,"nyaa":6838,"iro":6839,"uunyaa":6840,"aatiis":6841,"eration":6842,"Ġisaaniitiif":6843,"Ġxuu":6844,"Ġnidand":6845,"aannis":6846,"Ġjabeessinee":6847,"ĠbuÊ¼uur":6848,"ĠbobbaÊ¼an":6849,"Ġdheereff":6850,"Ġqofaatu":6851,"ĠHumni":6852,"ĠMurtii":6853,"Ġgammoojjii":6854,"ki":6855,"eenne":6856,"istuu":6857,"yaad":6858,"ĠMed":6859,"raahim":6860,"aachoo":6861,"Ġhubatamu":6862,"Ġfudhannee":6863,"tera":6864,"Ġnaannoon":6865,"Ġwareegamni":6866,"ĠAddi":6867,"Ġdhaamsuuf":6868,"Ġhordofaa":6869,"Ġeebba":6870,"Ġirbuu":6871,"ĠHundee":6872,"Ġgabaafame":6873,"Ġilaalchisuun":6874,"Ġadeemaa":6875,"ES":6876,"qoo":6877,"antii":6878,"Ġkibba":6879,"Ġtars":6880,"ĠOgaa":6881,"Ġbaruum":6882,"ĠBakk":6883,"Ġgola":6884,"Ġharr":6885,"Ġguddinaa":6886,"Ġjiraniin":6887,"Ġtaaneef":6888,"Ġsadan":6889,"Ġkabajuu":6890,"Ġqophaaw":6891,"Ġeenyuu":6892,"ĠbaÊ¼an":6893,"Ġdhiyeessuu":6894,"Ġjijjiiruu":6895,"Barattoota":6896,"ĠAlamaa":6897,"uttu":6898,"Ġanaaf":6899,"Ġharkif":6900,"allattiin":6901,"Ġaarii":6902,"Amajjii":6903,"Ġuummataaf":6904,"Ġreeffa":6905,"ĠEritre":6906,"Naannoo":6907,"Qor":6908,"qun":6909,"Ġ01":6910,"Ġfiraa":6911,"Ġtel":6912,"Ġhinm":6913,"Ġogg":6914,"ufi":6915,"ĠId":6916,"ĠKamaal":6917,"Ġummattoota":6918,"Ġhidhatee":6919,"Ġgadiitti":6920,"Ġbuluu":6921,"ĠShan":6922,"Ġdhihaate":6923,"Ġ05":6924,"Ġdiduu":6925,"Ġtorbee":6926,"Ġajajaa":6927,"Ġbeeksisee":6928,"Ġqaroomina":6929,"Ġlakkoofsaan":6930,"ĠMuh":6931,"Mirga":6932,"Ġuggur":6933,"eex":6934,"amn":6935,"Ġhun":6936,"Ġmilis":6937,"Ġmedia":6938,"Ġqabban":6939,"Ġcina":6940,"Ġdandeetti":6941,"Ġharree":6942,"oombii":6943,"ataniin":6944,"uuleen":6945,"ĠbuÊ¼u":6946,"Ġbarreessan":6947,"Ġijaaree":6948,"Ġegal":6949,"Ġqooqa":6950,"ĠmulÊ¼isa":6951,"Ġgootummaan":6952,"ĠWaaqni":6953,"ĠInj":6954,"Ġballeessa":6955,"Ġsabboontotni":6956,"Ġajjeesuun":6957,"Ġwayyaa":6958,"ĠLammaa":6959,"Ijoolleen":6960,"20":6961,"Waggoota":6962,"wuu":6963,"Ġbaga":6964,"Ġjiddu":6965,"Ġme":6966,"Ġnaamu":6967,"ĠDamb":6968,"ĠIS":6969,"Ġtokkos":6970,"ĠFin":6971,"Ġfakkaatuun":6972,"ĠEb":6973,"eerraa":6974,"achiisan":6975,"ĠmulÊ¼achaa":6976,"Ġdhiyaatan":6977,"Ġseeratti":6978,"Dhaaba":6979,"Ġsuuta":6980,"Ġsirnichaa":6981,"ĠDirri":6982,"Ġormaa":6983,"Ġmormituu":6984,"oolloo":6985,"ĠDargaggoo":6986,"Ġnaannichaa":6987,"Ġbicuu":6988,"Maqaan":6989,"Waamicha":6990,"ugg":6991,"aayaa":6992,"eetii":6993,"umaas":6994,"Ġson":6995,"agal":6996,"ĠBer":6997,"ĠWaa":6998,"Ġirraati":6999,"Ġgudee":7000,"oliin":7001,"achuutti":7002,"Ġguddate":7003,"Ġhojjatamaa":7004,"essee":7005,"Ġdhaabbatuu":7006,"Ġgaheen":7007,"Ġsiyaasaan":7008,"Ġmorma":7009,"Ġjaalalaa":7010,"Ġleenjif":7011,"Ġhaasawa":7012,"Ġjaarmayootni":7013,"ĠGuduruu":7014,"ĠTigiraay":7015,"Ġhirmaannaa":7016,"WO":7017,"Waayee":7018,"ap":7019,"lamaa":7020,"atn":7021,"Ġmit":7022,"enne":7023,"Ġdeegar":7024,"Ġbeektu":7025,"Ġbeekumsaa":7026,"Ġgudda":7027,"Ġamanee":7028,"Dhiig":7029,"Ġummatatti":7030,"Ġjalqabame":7031,"ĠdeebiÊ¼e":7032,"Ġdadhabee":7033,"ĠUniversity":7034,"FO":7035,"oni":7036,"tal":7037,"Ġdun":7038,"Ġmumm":7039,"Ġfida":7040,"ĠAmma":7041,"aarsaa":7042,"orkaa":7043,"Ġisaarraa":7044,"ĠIsaan":7045,"Ġtahaa":7046,"aayinaa":7047,"iddi":7048,"itin":7049,"Ġbarreesse":7050,"ela":7051,"Ġdhiisuun":7052,"Ġdadhabuun":7053,"ĠHaramaayaa":7054,"áĪį":7055,"Ġeegaluun":7056,"Ġanis":7057,"Ġkabachiif":7058,"tokko":7059,"ĠFinfinneen":7060,"ĠFaransaa":7061,"ĠBulchiinsa":7062,"Tig":7063,"Ġmiin":7064,"chanii":7065,"Ê¼u":7066,"Ġwiirtuu":7067,"aÊ¼uuf":7068,"ĠtaÊ¼iin":7069,"ĠKora":7070,"Ġbeekuuf":7071,"Ġuummati":7072,"Ġhidhatti":7073,"Ġdeebisuun":7074,"ĠEeny":7075,"Ġaantummaa":7076,"suudhaan":7077,"Ġfilatan":7078,"Ġmudatu":7079,"Ġajjeefame":7080,"Ġjibba":7081,"Ġsodaat":7082,"Ġbeekamaadha":7083,"Ġmormitoota":7084,"Ġbaatus":7085,"ĠWayyanee":7086,"juu":7087,"lummaa":7088,"tajjii":7089,"Ġteenyaa":7090,"Ġakak":7091,"achun":7092,"atas":7093,"Ġwaanta":7094,"Ġhidhame":7095,"Ġmootii":7096,"Ġdeebisu":7097,"Ġshoora":7098,"Ġgabroom":7099,"Ġbaqatee":7100,"Ġmirkaneess":7101,"Ġulfin":7102,"Ġkutaalee":7103,"Ġumriin":7104,"Ġ70":7105,"Ġqajeelfama":7106,"Ġyoonaa":7107,"Ġsirritti":7108,"âĢ¦âĢ¦âĢ¦âĢ¦âĢ¦âĢ¦âĢ¦âĢ¦âĢ¦âĢ¦âĢ¦âĢ¦":7109,"ĠFilannoo":7110,"ACH":7111,"Haww":7112,"Madda":7113,"gin":7114,"hu":7115,"taniif":7116,"Ġkajeel":7117,"Ġimpaayera":7118,"Ġfrom":7119,"ĠMaandeel":7120,"ĠHu":7121,"Ġjechuuf":7122,"Ġdhabnee":7123,"ĠYoh":7124,"Oromummaa":7125,"argaarsa":7126,"Ġgabaasaan":7127,"Ġcabsanii":7128,"Isaanis":7129,"Keessattu":7130,"Ġhundaafuu":7131,"Ġdorgommii":7132,"ĠKonyaa":7133,"Ġidil":7134,"14":7135,"Hag":7136,"Isin":7137,"ront":7138,"amnu":7139,"Ê¼s":7140,"Ġdhiir":7141,"Ġirran":7142,"Ġlix":7143,"Ġtole":7144,"Ġarih":7145,"ĠSaam":7146,"Ġhirri":7147,"ust":7148,"ĠEj":7149,"Ġilaalanii":7150,"est":7151,"Ġuniv":7152,"Ġkufe":7153,"Ġfalman":7154,"==============":7155,"Ġbaye":7156,"Ġkaroorri":7157,"Ġwarren":7158,"Ġabdachiisaa":7159,"2007":7160,"Ġthat":7161,"Ġhiyyummaa":7162,"Ġwalfakkaataa":7163,"Ġjilbeen":7164,"ĠBaqattoota":7165,"Ġfarrummaa":7166,"17":7167,"me":7168,"uc":7169,"Ġkalee":7170,"Ġtaa":7171,"Ġmaqa":7172,"Ġsen":7173,"ĠBe":7174,"ĠBor":7175,"ĠMii":7176,"Ġgaru":7177,"tubaa":7178,"Ġibsutti":7179,"eela":7180,"ĠsochoÊ¼aa":7181,"Ġ09":7182,"Ġachuma":7183,"Abd":7184,"Ġfuudhanii":7185,"Ġjijjiirr":7186,"ĠgaagaÊ¼ama":7187,"ĠEngineering":7188,"ĠlakkaÊ¼":7189,"Ġdaqiiqaa":7190,"eople":7191,"16":7192,"Morm":7193,"NEE":7194,"dom":7195,"den":7196,"fee":7197,"mir":7198,"Ġduun":7199,"Ġmoraa":7200,"Ġsiq":7201,"attis":7202,"iinsaan":7203,"ĠKoon":7204,"Ġargisiis":7205,"Ġmaaloo":7206,"Ġibsameera":7207,"Ġcarraaq":7208,"Ġsakatt":7209,"Ġfuulleff":7210,"Hamma":7211,"Tarii":7212,"Yuuniv":7213,"echaa":7214,"ll":7215,"Ġhed":7216,"Ġmamii":7217,"chif":7218,"iinaan":7219,"ĠAF":7220,"Ġbaratu":7221,"adee":7222,"ĠMaastar":7223,"ĠDamee":7224,"Ġittisaa":7225,"Ġoli":7226,"ĠNe":7227,"maati":7228,"angoo":7229,"Ġlakkaaww":7230,"Ġmirkaneessu":7231,"Barattoonni":7232,"Gaafiin":7233,"Qabxii":7234,"ccuu":7235,"Ġayyaanni":7236,"Dubbii":7237,"Ġheddumminaan":7238,"Jaarmay":7239,"ĠjiÊ¼oota":7240,"Bilisummaan":7241,"Ġbadhaadh":7242,"Garaa":7243,"Miid":7244,"Wayyaanee":7245,"ct":7246,"fachuun":7247,"ly":7248,"nool":7249,"Ġdeb":7250,"Ġbaa":7251,"omaasii":7252,"Ġqabaniif":7253,"aniis":7254,"erland":7255,"ĠDuÊ¼":7256,"ĠSil":7257,"ĠKur":7258,"ĠKeessa":7259,"ĠFir":7260,"ĠLe":7261,"ĠEeg":7262,"Ġamananii":7263,"Ġfufuuf":7264,"igh":7265,"Ġodeessi":7266,"Ġfuruuf":7267,"Ġsalphinaa":7268,"eessitee":7269,"Ġhogganummaa":7270,"Ġqabsaawotaa":7271,"aadhii":7272,"Ġbaanu":7273,"ĠBulee":7274,"ĠHayil":7275,"Ġmuummee":7276,"EERROO":7277,"AYY":7278,"ID":7279,"gen":7280,"ion":7281,"Ġomish":7282,"antaan":7283,"Ġkaanii":7284,"Ġde":7285,"isin":7286,"Ġjetti":7287,"aaseen":7288,"Ġbaratanii":7289,"Ġlaachuu":7290,"Ġcubbuu":7291,"ĠSaud":7292,"Ġwarsh":7293,"ĠKam":7294,"essuun":7295,"iddug":7296,"Ġafaaniin":7297,"Ġkeetii":7298,"ĠBarnoota":7299,"Ġishiin":7300,"Ġlakkoob":7301,"Ġkootti":7302,"Ġbulchu":7303,"Ġadeemsisaa":7304,"Ġgaabb":7305,"ĠAbbaay":7306,"Ġqabxiilee":7307,"Ġiccitii":7308,"ternational":7309,"SEENAA":7310,"ĠElemoo":7311,"IK":7312,"NI":7313,"UB":7314,"UBB":7315,"aarree":7316,"tich":7317,"aalessaa":7318,"raaÊ¼":7319,"adhii":7320,"Ġfudhatamee":7321,"qabatee":7322,"Ġuumama":7323,"Ġdirqii":7324,"EEK":7325,"Ġafeer":7326,"Ġjettanii":7327,"Ġtaasifamaa":7328,"Ġmuuz":7329,"Ġeeggachuu":7330,"Ġsosso":7331,"Dhaloota":7332,"Ġgurraacha":7333,"Ġfunaan":7334,"Paar":7335,"Ġ+":7336,"oojii":7337,"uudhaaf":7338,"annis":7339,"entuu":7340,"ĠKibb":7341,"onnii":7342,"Ġhidhamtoota":7343,"Ġsoda":7344,"Ġguutee":7345,"Ġrakkisa":7346,"Ġdhalatanii":7347,"Ġdhaabee":7348,"ĠkaÊ¼een":7349,"Ġuumamu":7350,"Ġcimsinee":7351,"Ġqabsaay":7352,"Ġbuusuuf":7353,"Ġcufti":7354,"ĠIstee":7355,"Ġkaraatti":7356,"Ġsossob":7357,"Ġayyaaneff":7358,"Ġgadhiif":7359,"================================":7360,"ĠdaaÊ¼imman":7361,"Lafti":7362,"Otoo":7363,"jennee":7364,"tira":7365,"Ġisatti":7366,"Ġbarachaa":7367,"edduun":7368,"Ġgodhachuun":7369,"Ġdhabdee":7370,"iÊ¼ee":7371,"Ġdeemsa":7372,"Ġpilaanii":7373,"ĠbuÊ¼an":7374,"Ġbarreef":7375,"ĠgaÊ¼ii":7376,"Ġagar":7377,"ĠbaÊ¼e":7378,"Ġlabsiin":7379,"ĠZoonii":7380,"ĠBiyyoolessaa":7381,"Ġdararama":7382,"iiloo":7383,"Ġxiyyeeffate":7384,"aphaloo":7385,"Ġsossoo":7386,"Ġxinx":7387,"Waa":7388,"wu":7389,"yiin":7390,"Ġen":7391,"eeyyii":7392,"Ġgeesse":7393,"Ġsass":7394,"Ġjiraannu":7395,"Ġbarii":7396,"ĠShaa":7397,"Ġargamne":7398,"Ġdureen":7399,"Ġbeekee":7400,"Ġdubbachaa":7401,"Ġheddum":7402,"ĠLakk":7403,"Ġlubbu":7404,"Ġdhugaatii":7405,"tinuu":7406,"Akkuman":7407,"Ġajjeesan":7408,"Ġakeekni":7409,"Ġqarq":7410,"Ġlamaanii":7411,"Ġbaadiyaa":7412,"ĠWayyaaneef":7413,"ĠKabbadaa":7414,"06":7415,"Gudd":7416,"pt":7417,"artii":7418,"umsaan":7419,"Ġnuma":7420,"ĠMang":7421,"ĠGanda":7422,"ĠHoraa":7423,"iftoota":7424,"ĠJijjiir":7425,"Ġreef":7426,"Ġdeebiy":7427,"Ġhojjachuuf":7428,"Ġlafeen":7429,"Ġhima":7430,"ĠPl":7431,"ĠItiyoophiyaan":7432,"Ġ150":7433,"Ġreebicha":7434,"Ġcalqab":7435,"Ġmeeqatu":7436,"47":7437,"JJ":7438,"Kon":7439,"bummaa":7440,"taalee":7441,"Ġfak":7442,"Ġweell":7443,"oona":7444,"Ġwalal":7445,"Ġgogaa":7446,"Ġaddadd":7447,"Ġhundum":7448,"Ġxum":7449,"Ġyaadatamu":7450,"ajjiin":7451,"absh":7452,"Ġgaggeef":7453,"Ġhimannaa":7454,"Ġdhiheess":7455,"ĠdeebiÊ¼uuf":7456,"Ġmiseensotaa":7457,"Ġgabaasee":7458,"Ġdhiyaatee":7459,"Ġfincilli":7460,"Ġirb":7461,"Ġsagantaan":7462,"Wareegama":7463,"ĠIngilizii":7464,"Duu":7465,"Mooraa":7466,"Ġdo":7467,"Ġmannaa":7468,"Ġdhaba":7469,"dda":7470,"Ġqabnaa":7471,"Ġirrummaa":7472,"ĠMidaa":7473,"ĠGin":7474,"Ġare":7475,"ith":7476,"ĠSw":7477,"ĠHaroo":7478,"aamb":7479,"Ġargu":7480,"Ġyookiin":7481,"ĠJimma":7482,"ttan":7483,"Ġsirn":7484,"Ġbooddee":7485,"Ġsadarkaan":7486,"Ġdhaabicha":7487,"Dhaamsa":7488,"ootichi":7489,"Ġjijjiiramaa":7490,"Ġbuqqisee":7491,"Ġfixuu":7492,"Ġfiduun":7493,"achiiftuu":7494,"Ġadeemsifamaa":7495,"~~~~~~~~":7496,"ĠMalkaa":7497,"ĠTsah":7498,"WaaÊ¼ee":7499,"cy":7500,"ootnii":7501,"Ġbaruu":7502,"ondaal":7503,"Ġhidhuun":7504,"Ġhaadhaa":7505,"ĠdandaÊ¼ee":7506,"Ġshawaa":7507,"Ġbulan":7508,"Kanaafis":7509,"ĠdeebiÊ¼a":7510,"Ġcaalaan":7511,"ĠMinis":7512,"Ġgaariidha":7513,"Ġukkaamsuuf":7514,"Ġolaanoo":7515,"Ġfiixa":7516,"oloneel":7517,"ĠMiseensota":7518,"ĠUNHCR":7519,"ĠGimbii":7520,"ĠJanaraal":7521,"Ġsuduu":7522,"Ġwareega":7523,"Goch":7524,"Mormii":7525,"nuuf":7526,"amuufi":7527,"ineef":7528,"Ġsam":7529,"Ġsom":7530,"ĠsiÊ¼":7531,"iinii":7532,"ĠBirraa":7533,"aaruu":7534,"Ġturaniif":7535,"Ġhon":7536,"ĠKaaba":7537,"iffaa":7538,"net":7539,"ĠNyaa":7540,"Ġshiraa":7541,"Ġaansee":7542,"Ġsanaaf":7543,"Ġraawwachuu":7544,"ĠAfir":7545,"Ġbituu":7546,"Ġyaaluu":7547,"IIF":7548,"Ġdhaqanii":7549,"uth":7550,"Ġgodinaa":7551,"Ġdararaan":7552,"jek":7553,"Ġ1992":7554,"Ġmaallaqaa":7555,"ffaatti":7556,"Ġcichoom":7557,"Jarreen":7558,"Lol":7559,"Silaa":7560,"Waxabajjii":7561,"ans":7562,"Ġkuuf":7563,"Ġkibb":7564,"amaaf":7565,"Ġhi":7566,"Ġmuslim":7567,"Ê¼een":7568,"ummii":7569,"afaan":7570,"akkuma":7571,"Ġseenne":7572,"Ġdhabu":7573,"Ġguuraa":7574,"Ġjig":7575,"Ġhedduudha":7576,"Ġdhaabatu":7577,"ĠXumura":7578,"Ġ2001":7579,"Ġbeeksise":7580,"Ġbeekkamu":7581,"ĠSabboonummaa":7582,"ĠHaadha":7583,"âĢĶâĢĶâĢĶâĢĶâĢĶâĢĶâĢĶâĢĶ":7584,"Dhaabni":7585,"Filannoo":7586,"Ġdabballoota":7587,"ĠGeedoo":7588,"ĠJabuutii":7589,"Dura":7590,"wan":7591,"Ġbanaa":7592,"Ġgeessuu":7593,"aaster":7594,"Ġlixa":7595,"ifaman":7596,"Ġdeemuuf":7597,"ĠRaas":7598,"ese":7599,"Ġdhiisaa":7600,"ĠShaash":7601,"Ġcimsee":7602,"Ġhorachuu":7603,"Ġmiseensoota":7604,"Ġbuus":7605,"Ġdhimmaa":7606,"Shirri":7607,"oromia":7608,"Ġtiksuuf":7609,"Ġbeekkamaa":7610,"Ġdhunfaa":7611,"Ġkamiiyyuu":7612,"Fincilli":7613,"Ġbirmadummaa":7614,"DM":7615,"Ġkayyoo":7616,"kkaan":7617,"ĠwaaÊ¼":7618,"Ġoww":7619,"Ġwalakk":7620,"mmar":7621,"onnaan":7622,"ĠWayyaaneetiin":7623,"ĠtaÊ¼es":7624,"Ġqophiin":7625,"Ġhojjetanii":7626,"Ġlolli":7627,"Akkamitti":7628,"Ġbaafachuu":7629,"Ġjaalatam":7630,"Ġtaasifamu":7631,"ĠWarq":7632,"jedhu":7633,"Ġeeggatu":7634,"ĠMararaa":7635,"Gariin":7636,"Ġkaafnee":7637,"Ġgolgaa":7638,"Ġimpaayer":7639,"Ġxiiqii":7640,"Duula":7641,"Ġkasaaraa":7642,".)":7643,"Boor":7644,"gir":7645,"sab":7646,"Â´":7647,"Ġbaddaa":7648,"Ġfa":7649,"Ġkeessaniif":7650,"ayyab":7651,"ĠFaa":7652,"Ġgalle":7653,"Ġxayy":7654,"Ġfudhatamu":7655,"addee":7656,"Ġkennamee":7657,"Ġpost":7658,"ĠWayyaaneetti":7659,"Ġbaasii":7660,"Ġkutee":7661,"Ġjibbaa":7662,"iigal":7663,"Ġwaakk":7664,"Ġtartii":7665,"ĠPre":7666,"Ġkeenyatu":7667,"áĪµ":7668,"áĪĪ":7669,"ĠInd":7670,"Ġguutuuf":7671,"Ġhayyama":7672,"Ġbeeksiseera":7673,"Ġyoona":7674,"Ġmucaa":7675,"Ġdoorsisaa":7676,"Ġmaallaq":7677,"Ġdandayu":7678,"ĠSabboontota":7679,"Ġdukkan":7680,"Ġmeeshaalee":7681,"ĠAhmed":7682,"So":7683,"Ġatt":7684,"any":7685,"Ġdagg":7686,"ummatti":7687,"aatni":7688,"achi":7689,"Ġbarana":7690,"ĠMuu":7691,"Ġcaqasaa":7692,"ĠDaar":7693,"ĠIyy":7694,"ifachuu":7695,"ube":7696,"Ġtaheen":7697,"Ġgaaffi":7698,"Ġsirraa":7699,"Ġrakka":7700,"awwan":7701,"Ġ35":7702,"Ġfiil":7703,"Ġdabalata":7704,"Ġduuluu":7705,"ĠWaaqayyoo":7706,"Ġulee":7707,"Ġqofaadha":7708,"Ġgaara":7709,"Ġdiduun":7710,"ameefii":7711,"Ġhubachiisuun":7712,"ĠKadiir":7713,"Ġdheebuu":7714,"ĠbobaÊ¼aa":7715,"aspora":7716,"Barri":7717,"Fur":7718,"Finfin":7719,"Tor":7720,"ck":7721,"fan":7722,"manaa":7723,"anu":7724,"Ġkallattiin":7725,"Ġdoo":7726,"Ġmudh":7727,"ĠMarii":7728,"ĠGS":7729,"ufa":7730,"Ġgosaa":7731,"Ġammayy":7732,"Ġhundinuu":7733,"ĠThe":7734,"Ġre":7735,"ĠUMM":7736,"udhaa":7737,"Ġmurn":7738,"Ġtika":7739,"Ġijaaran":7740,"Ġbaldh":7741,"ĠItoophiyaan":7742,"ĠHarom":7743,"Ġjijjiiramni":7744,"Ġhambaa":7745,"Ġfayyadamaa":7746,"ĠWaraanni":7747,"aggasaa":7748,"Ġhaaraya":7749,"Ġeenyutu":7750,"bour":7751,"Ġholol":7752,"Ġjumlaan":7753,"Ġwalqixxummaa":7754,"ĠGirmaa":7755,"Karaan":7756,"Ġeen":7757,"Ġdallaa":7758,"Ġhoon":7759,"Ġhadhaa":7760,"Ġqabe":7761,"Ġqabaata":7762,"ĠAL":7763,"ĠAy":7764,"aaraan":7765,"ĠUkk":7766,"Ġshar":7767,"Ġtin":7768,"Ġgaggeessu":7769,"Ġoolanii":7770,"Ġjaars":7771,"Ġwanta":7772,"Ġdigd":7773,"Saba":7774,"keessaa":7775,"Ġ000":7776,"Ġkof":7777,"Ġiyyaa":7778,"abe":7779,"Ġfaal":7780,"chisuu":7781,"Ġqabame":7782,"Ġgarummaa":7783,"Ġturu":7784,"aamaan":7785,"amanis":7786,"ĠFed":7787,"atanis":7788,"arroo":7789,"Ġsirbaa":7790,"Ġhedduuf":7791,"ĠbuÊ¼uun":7792,"Ġdhaabachuu":7793,"ĠRabbi":7794,"Ġdhageettii":7795,"Ġdirqamaan":7796,"Ġoolch":7797,"Ġwareegamaa":7798,"Ġgargaaraa":7799,"sisu":7800,"Ġlakkof":7801,"Ġnyaatee":7802,"Ummat":7803,"Ġlamaanuu":7804,"ĠHawaas":7805,"Ġinjifannoolee":7806,"Ġpaarlaamaa":7807,"Ġkijib":7808,"ĠTasf":7809,"Ġgooft":7810,"phiyummaa":7811,"Ati":7812,"Yaroo":7813,"cii":7814,"hund":7815,"lam":7816,"ziin":7817,"Ġeessaa":7818,"Ġdam":7819,"art":7820,"Ġjarm":7821,"Ġbardhibbee":7822,"Ġwalabaa":7823,"ray":7824,"iyyaaf":7825,"jjiin":7826,"ĠMalee":7827,"ĠMiÊ¼":7828,"Ġcaq":7829,"ase":7830,"ĠSim":7831,"ichaatti":7832,"Ġabaab":7833,"awoo":7834,"Ġdeebi":7835,"Ġinv":7836,"Ġjabeessanii":7837,"absiin":7838,"Ġmiilaa":7839,"Ġkabajamee":7840,"Ġraawwatu":7841,"Ġraawwatamu":7842,"Ġtaasisanii":7843,"Ġhamtuu":7844,"Ġgaag":7845,"Ġufi":7846,"Ġdhuman":7847,"Ġqond":7848,"Ġcabsuuf":7849,"Ġgumaachaa":7850,"Ġ80":7851,"Ġcallisanii":7852,"Akkasuma":7853,"Ġwaaree":7854,"Ġbittinn":7855,"ĠGurraandhala":7856,"GAA":7857,"Lola":7858,"ikaan":7859,"ykn":7860,"Ġhiis":7861,"Ġit":7862,"Ġbol":7863,"Ġbabb":7864,"Ê¼an":7865,"bbee":7866,"Ġlal":7867,"Ġloog":7868,"Ġgaraaf":7869,"ĠDok":7870,"ĠHam":7871,"ĠKenn":7872,"Ġargannee":7873,"ĠEjj":7874,"Ġeegee":7875,"Ġibsanitti":7876,"Ġpl":7877,"Ġdarbuun":7878,"ele":7879,"ootin":7880,"Ġgoototaa":7881,"Ġodeessa":7882,"ĠbaÊ¼u":7883,"ting":7884,"Ġgumii":7885,"Ġgorsaa":7886,"Ġminilik":7887,"ĠSomal":7888,"Ġfuulduraatti":7889,"ĠXaaliyaanii":7890,"Ġwalgayii":7891,"ĠHospitaala":7892,"Ġkubbaa":7893,"ĠTarkaanfii":7894,"ĠAlamaayyoo":7895,"bourne":7896,"25":7897,"dar":7898,"Ãº":7899,"ĠkaaÊ¼ee":7900,"abaab":7901,"Ġwaayeen":7902,"Ġhinh":7903,"unis":7904,"Ġjedhameera":7905,"ĠGootummaa":7906,"itoonni":7907,"Ġammayyuu":7908,"Ġwarrii":7909,"ĠKEEN":7910,"ĠTHBO":7911,"maanaa":7912,"Ġfakkaate":7913,"siisan":7914,"Ġpro":7915,"eellee":7916,"Ġdhiibbaan":7917,"Ġtokkummaadhaan":7918,"Ġhiikkaa":7919,"Ġbuusuun":7920,"Ġhoji":7921,"Ġsirnicha":7922,"Waraana":7923,"Ġgabaabduu":7924,"ĠYunaay":7925,"ĠSagantaa":7926,"ĠQaallittii":7927,"TTI":7928,"fill":7929,"ov":7930,"angaa":7931,"Ġnug":7932,"ĠTOKK":7933,"Ġdhiq":7934,"ĠJamaal":7935,"awaan":7936,"Ġhubann":7937,"sise":7938,"Ġergan":7939,"Ġdhiyeessuun":7940,"Ġbaafnee":7941,"Ġyakkaa":7942,"ĠqabsaaÊ¼otaa":7943,"ĠAmeerik":7944,"ĠMasrii":7945,"ĠWarraaqsa":7946,"Ġnafxanyoota":7947,"Ġhiriirri":7948,"wii":7949,"Ġheeraa":7950,"Ġsoo":7951,"istaan":7952,"ootaafi":7953,"Ġqabeenyaan":7954,"ĠBaatii":7955,"ĠManneen":7956,"ĠMeettaa":7957,"ĠGabaa":7958,"Ġturaniiru":7959,"ĠKaf":7960,"Ġargin":7961,"Ġguddatee":7962,"Ġguddisuuf":7963,"Ġdubbannu":7964,"Ġmaalummaa":7965,"Ġraayyaa":7966,"maak":7967,"Ġdargaggoon":7968,"Ġqawweetiin":7969,"Gabaab":7970,"Ġwaliigalteen":7971,"Ġarraba":7972,"Ġargamsiisuuf":7973,"Ġbarbaanna":7974,"Ġsibii":7975,"acebook":7976,"36":7977,"Balaa":7978,"OROM":7979,"poor":7980,"Ġigg":7981,"timan":7982,"Ġfund":7983,"Ġfaatti":7984,"ums":7985,"Ġkeessi":7986,"iyaasp":7987,"ĠGagg":7988,"ĠGaazex":7989,"ĠKarra":7990,"Ġharmee":7991,"Ġgalg":7992,"Ġhidhanii":7993,"Ġhidhattoota":7994,"aannaa":7995,"ĠEl":7996,"Oromia":7997,"Ġaadde":7998,"ĠWaldaan":7999,"ĠgaÊ¼a":8000,"ĠâĢĺâĢĻ":8001,"ĠInni":8002,"Ġajjeese":8003,"Shira":8004,"Ġshanan":8005,"Ġdaldala":8006,"ĠGuyyaan":8007,"ĠHiriira":8008,"Ġololaa":8009,"Ġqilleensaa":8010,"ĠWoyyaanee":8011,"ĠWaajjira":8012,"ĠMuhammad":8013,"ataskaan":8014,"Warreen":8015,"fataa":8016,"warra":8017,"amti":8018,"Ġgeey":8019,"Ġsamii":8020,"ummaas":8021,"aÊ¼aan":8022,"ĠBoon":8023,"ĠBitoot":8024,"ĠGoota":8025,"Ġarraa":8026,"ĠHasan":8027,"Ġbiyyoolessaa":8028,"Ġguddichi":8029,"Ġolla":8030,"ĠLol":8031,"Ġdhufuuf":8032,"Ġmormuun":8033,"Ġdhiyeessu":8034,"ember":8035,"Ġajjeesu":8036,"Ġ03":8037,"ĠAbbootii":8038,"Ġlabsame":8039,"ĠDargiin":8040,"Ġhordofan":8041,"Ġdhuunfaatti":8042,"thiopia":8043,"Ġdipl":8044,"Ġergamtuu":8045,"Ġroorroon":8046,"Ġbareedaa":8047,"Ġsaddeet":8048,"ĠMelbourne":8049,"EPRDF":8050,"Sillaasee":8051,"fate":8052,"kenn":8053,"Ġ;":8054,"Ġdib":8055,"Ġhaan":8056,"Ġtuu":8057,"chii":8058,"Ġwh":8059,"Ġjirachuu":8060,"ĠMus":8061,"Ġcee":8062,"ĠGaara":8063,"Ġariif":8064,"Ġisaarratti":8065,"aamii":8066,"ifachuun":8067,"onti":8068,"Ġhundii":8069,"Ġdandeessan":8070,"Ġgallee":8071,"Ġgalaatti":8072,"Ġbeeksisuu":8073,"Ġnamii":8074,"Ġhojjate":8075,"Ġhubatamaa":8076,"Ġgodhate":8077,"Ġmartinuu":8078,"Ġdhageenye":8079,"Ġkabajamoo":8080,"ĠPol":8081,"Ġqubatan":8082,"Ġkufa":8083,"Ġxumurame":8084,"ĠWaaqoo":8085,"ĠUummanni":8086,"Ġqabsoofna":8087,"Onkol":8088,"Ġobboleeyyan":8089,"ĠIRRAA":8090,"Ġqaqqaalii":8091,"ĠLiiban":8092,"Utuu":8093,"gah":8094,"amtoonni":8095,"Ġtal":8096,"Ġtola":8097,"ĠDam":8098,"Ġarj":8099,"ĠFudh":8100,"ĠQind":8101,"Ġgaafatanii":8102,"Ġbeekna":8103,"Ġkennamuu":8104,"Ġhafa":8105,"Ġwareegame":8106,"Ġmirkaneesse":8107,"Ġ500":8108,"Ġ06":8109,"Ġdhiyaatu":8110,"ĠIbraahim":8111,"ĠHabashoonni":8112,"Ġgoonu":8113,"Ġxiyyeeffannoo":8114,"Gabaasaa":8115,"Ġbeelaan":8116,"ĠOnkolol":8117,"Ġakeekkachiis":8118,"Ġkeesatti":8119,"ĠMokonn":8120,"Marii":8121,"Maarree":8122,"Poolis":8123,"mata":8124,"reen":8125,"xiin":8126,"Ġkoon":8127,"atch":8128,"aalatti":8129,"Ġnun":8130,"annus":8131,"ĠWAR":8132,"ĠHora":8133,"Ġgorr":8134,"oolaara":8135,"Ġhubanne":8136,"Ġgodhamuu":8137,"eeroo":8138,"iiree":8139,"Ġhimu":8140,"Ġ300":8141,"Ġbarbaadanii":8142,"Ġ400":8143,"Ġmalan":8144,"Ġajandaa":8145,"Ġfacaaf":8146,"Ġdagachuu":8147,"ations":8148,"Ġwayyaneen":8149,"Ġmaxx":8150,"Ġkeennaa":8151,"Ġumuriin":8152,"Ġgooticha":8153,"biyyummaa":8154,"Ammoo":8155,"BAA":8156,"Dar":8157,"gama":8158,"aanna":8159,"Ġbus":8160,"Ġdheekk":8161,"Ġjiruufi":8162,"ĠBoo":8163,"Ġhara":8164,"Ġbeekin":8165,"Ġhidhamuun":8166,"Ġfakkeenyaaf":8167,"Ġeegu":8168,"Ġeeguun":8169,"Ġpiree":8170,"Ġbarruun":8171,"Ġqabsicha":8172,"Ġkaleess":8173,"Ġdargaggootaa":8174,"eelloo":8175,"Ġdalagan":8176,"ĠSabni":8177,"Ã©n":8178,"Ġbilbila":8179,"Ġfaashistii":8180,"FINNEE":8181,"LEE":8182,"be":8183,"jaaj":8184,"uz":8185,"Ġfunyaan":8186,"aÊ¼ama":8187,"Ġori":8188,"ĠtaÊ¼aan":8189,"ĠtaÊ¼ullee":8190,"iifuu":8191,"ĠKol":8192,"Ġdandeett":8193,"Ġbeekaman":8194,"Ġmuraas":8195,"Ġhubatuu":8196,"ennaan":8197,"aannan":8198,"Ġqopheessuun":8199,"axaa":8200,"Ġfurg":8201,"Ġdaandiin":8202,"Ġgaaritti":8203,"Ġdhiyeenya":8204,"Ġhalag":8205,"ĠIslaam":8206,"Ġdabruu":8207,"Namootni":8208,"Ġdachaan":8209,"Ġdiigaa":8210,"Ġrifaas":8211,"gaaffii":8212,"zidaantiin":8213,"Ġsirboota":8214,"Ġxaxaa":8215,"ĠDhaabbata":8216,"ĠAdaamaatti":8217,"Ġboolla":8218,"Ġfottoq":8219,"dir":8220,"http":8221,"jee":8222,"miin":8223,"Ġkoreen":8224,"amummaa":8225,"Ġjann":8226,"Ġjalee":8227,"Ġfaan":8228,"Ġqabeeny":8229,"Ġqabiyyee":8230,"ĠJeneraal":8231,"ĠNamaa":8232,"Ġfudhata":8233,"ĠLond":8234,"Ġhanb":8235,"oofnee":8236,"Oromummaan":8237,"eellaa":8238,"Ġgaggeessuuf":8239,"ĠRabbii":8240,"Ġdhuunfaan":8241,"Ġhiikka":8242,"Ġbuqqisuun":8243,"ĠJimmaatti":8244,"Ġcarraaqq":8245,"uqaa":8246,"UUF":8247,"Ġqindoom":8248,"////":8249,"Ġtorba":8250,"Ġhiikaman":8251,"Ġmuc":8252,"Ġkumoota":8253,"Ġqaanf":8254,"Ġtoora":8255,"Ġolaantummaa":8256,"Ġbuna":8257,"ĠMaammoo":8258,"ĠMahammad":8259,"ĠDhiha":8260,"Ġbattalumatti":8261,">>":8262,"Diddaan":8263,"fuu":8264,"kaatti":8265,"uw":8266,"Ġ%":8267,"atne":8268,"amannee":8269,"Ġiraa":8270,"Ġbek":8271,"Ġaduu":8272,"iseera":8273,"asuu":8274,"iisaan":8275,"ĠTash":8276,"Ġgaafataa":8277,"Ġhidhate":8278,"Ġibsamee":8279,"Ġhojiilee":8280,"Ġraawwatee":8281,"Walitti":8282,"Ġmirkaneeff":8283,"Ġwaliitti":8284,"Ġfalmuu":8285,"Ġ2004":8286,"Ġgandoota":8287,"Ġguutame":8288,"Ġbaayyeen":8289,"aattonni":8290,"Ġlaaffisuu":8291,"ĠbuÊ¼uuraa":8292,"ivil":8293,"Duulli":8294,"Ġtokkotu":8295,"ĠEritrea":8296,"EG":8297,"ke":8298,"Ġjaj":8299,"Ġmuk":8300,"inar":8301,"Ġwas":8302,"Ġjedheef":8303,"ĠMand":8304,"ĠGoob":8305,"Ġgud":8306,"Ġriph":8307,"Ġdeebina":8308,"eeriyaa":8309,"ĠAmbo":8310,"Ġjabaachuu":8311,"ĠRagg":8312,"Ġqubsuma":8313,"Ġgargaarsi":8314,"Ġdhiyeessan":8315,"ĠbobbaÊ¼e":8316,"Ġgaddisiisaa":8317,"ĠAmbootti":8318,"Ġyakki":8319,"Ġukkaamsaa":8320,"Ġbeelaa":8321,"ĠEthiopian":8322,"Artis":8323,"Ġpoolisaa":8324,"ĠSaudi":8325,"UBBII":8326,"37":8327,"AQ":8328,"amna":8329,"Ġgaad":8330,"Ġtaayitaa":8331,"chaaf":8332,"Ġqur":8333,"Ġona":8334,"ĠIf":8335,"Ġarguun":8336,"Ġgalchuuf":8337,"atutti":8338,"oomsuu":8339,"Ġhidhee":8340,"aayii":8341,"Ġbarbaacha":8342,"Ġilaalchaa":8343,"Ġkeenyaas":8344,"Ġhimee":8345,"Ġqopheesse":8346,"Ġhojjechuuf":8347,"Ġdhiheessuun":8348,"Ġdabarsuuf":8349,"Ġbulchiinsi":8350,"Ġmiidhag":8351,"Ġleenc":8352,"Ġhordofuu":8353,"Ġdidan":8354,"Ġsuukan":8355,"Ġfaaruu":8356,"Ġmarsaalee":8357,"Ġwaggaan":8358,"Ġgurraach":8359,"****************":8360,"ĠAjaji":8361,"ĠDassaal":8362,"Gadaa":8363,"Nag":8364,"sine":8365,"Ġkarra":8366,"Ġbaatanii":8367,"Ġjaarr":8368,"Ġqixa":8369,"ĠAD":8370,"ĠGee":8371,"Ġdanda":8372,"ĠTumsa":8373,"Ġharq":8374,"aachuuf":8375,"Ġhireen":8376,"Ġhubatamee":8377,"Ġgodhatanii":8378,"Ġgabrummaan":8379,"ĠAdam":8380,"Ġbuusee":8381,"Ġfayyadamu":8382,"Haati":8383,"Ġjettan":8384,"ĠIsraaÊ¼":8385,"Ġdimokir":8386,"ĠBulchaa":8387,"ĠBirrii":8388,"Ġhagam":8389,"Ġhiraarsaa":8390,"Ġtaateef":8391,"barruu":8392,"26":8393,"Gum":8394,"Gaazex":8395,"Kaleessa":8396,"dent":8397,"sama":8398,"arat":8399,"kkoo":8400,"Ġqabaatanii":8401,"unaa":8402,"ĠAN":8403,"ĠBy":8404,"Ġjedhus":8405,"ĠHaam":8406,"Ġargine":8407,"ĠQaama":8408,"Ġgaluuf":8409,"oomuu":8410,"adhuu":8411,"Ġdubbatee":8412,"Ġkennaniin":8413,"Ġwayyaaneetiin":8414,"Ġuumamee":8415,"Ġgaaffiilee":8416,"Ġgargaarsaa":8417,"Ġkanaafis":8418,"ogogg":8419,"áĪĿ":8420,"Ġbuqqisuuf":8421,"ĠtaaÊ¼uu":8422,"Ġhoogganamu":8423,"Ġwolitti":8424,"ĠBoorana":8425,"Ġorm":8426,"ĠNagaasaa":8427,"Ġthis":8428,"Ġkitaabota":8429,"Hooggan":8430,"ĠProf":8431,"Ġsiyasaa":8432,"FXG":8433,"Hogg":8434,"moota":8435,"oun":8436,"atinaa":8437,"Ġtuttu":8438,"Ġdheera":8439,"Ġsakk":8440,"ishaa":8441,"ĠAM":8442,"ĠHanga":8443,"olle":8444,"ubeen":8445,"awuu":8446,"Ġijibb":8447,"eese":8448,"Ġplan":8449,"Ġmoora":8450,"Ġdhiira":8451,"ĠDhal":8452,"Ġqoodd":8453,"Ġdhugaaf":8454,"Ġnagaatiin":8455,"Ġbulchiinsaa":8456,"Ġfayyadaman":8457,"Ġjajjaboo":8458,"Ġyokaan":8459,"Ġdoorsif":8460,"Ġgalche":8461,"ilbata":8462,"Ġbaratootaa":8463,"Ġyemmuu":8464,"ĠKuttaa":8465,"Ġgaachana":8466,"ĠOslo":8467,"famuun":8468,"jak":8469,"kal":8470,"pph":8471,"warri":8472,"Ġgootaa":8473,"ĠtuÊ¼":8474,"Ġsil":8475,"ĠOromootaa":8476,"Ġnaf":8477,"Ġhintu":8478,"Ġtolaa":8479,"Ġcaas":8480,"ĠGaadd":8481,"ĠKor":8482,"BOJ":8483,"day":8484,"allii":8485,"alleen":8486,"Ġintarnee":8487,"Ġmurnoota":8488,"ĠtaÊ¼uus":8489,"âĢ¦âĢ¦.":8490,"ĠArs":8491,"ĠqabsaaÊ¼aa":8492,"Ġqaamota":8493,"Ġwalabummaan":8494,"ĠtaaÊ¼u":8495,"orgommii":8496,"Ġbarbaannu":8497,"Ġqajeelaa":8498,"Ġbineensa":8499,"ĠObsee":8500,"ĠBuraayyuu":8501,"Goototni":8502,"Akeekni":8503,"ĠTafarraa":8504,"Qophii":8505,"ĠNafxany":8506,"ĠEertiraa":8507,"Ġfiilmii":8508,"Him":8509,"QM":8510,"ajii":8511,"dubb":8512,"fachaa":8513,"Ġgot":8514,"Ġdhad":8515,"agdeen":8516,"ĠOromootin":8517,"aattee":8518,"erman":8519,"ĠBeen":8520,"ĠHogg":8521,"ĠâĢĻ":8522,"ene":8523,"Ġilkaan":8524,"ĠTel":8525,"Ġhardh":8526,"Ġnamooti":8527,"eeshaa":8528,"Ġaansuun":8529,"Ġdirqamaa":8530,"Ġgootan":8531,"Ġagarre":8532,"Ġdabaluun":8533,"Ġqorannoon":8534,"Ġkufaa":8535,"Ġkufanii":8536,"Barattooti":8537,"Ġgaggeeffama":8538,"áĭį":8539,"uudhan":8540,"Ġministi":8541,"Ġjirruuf":8542,"Ġjirreef":8543,"Ġciniin":8544,"ĠSirni":8545,"olloo":8546,"ĠtoÊ¼annaa":8547,"Hawaasni":8548,"Walumaagalatti":8549,"Ġshiroota":8550,"ĠsaÊ¼aatii":8551,"ĠDambi":8552,"filloo":8553,",âĢĻ":8554,"ED":8555,"Jaarraa":8556,"YA":8557,"bi":8558,"cinnii":8559,"jira":8560,"amtootaa":8561,"Ġgeessan":8562,"iroos":8563,"rrii":8564,"Ġisaatu":8565,"Ġqabda":8566,"ĠBooraa":8567,"ĠHayyuu":8568,"Ġgugg":8569,"ĠKum":8570,"eeffannoo":8571,"Ġnamaan":8572,"aaÊ¼u":8573,"Ġbultii":8574,"Ġaanuuf":8575,"Ġbarbaadamu":8576,"ĠBarattooti":8577,"ĠmulÊ¼achuu":8578,"Ġdabaluu":8579,"Ġbulchinsa":8580,"Barnoota":8581,"Ġlaafaa":8582,"Ġlabsa":8583,"Ġgoolaa":8584,"Ġweerara":8585,"ĠqophaaÊ¼e":8586,"ĠGudar":8587,"Ġxixiqqoo":8588,"Ġgaaddisa":8589,"ĠSaaddoo":8590,"Ġqarqara":8591,"ĠLondon":8592,"Source":8593,"Ġanaa":8594,"uuraa":8595,"ataatti":8596,"tic":8597,"Ġqill":8598,"ĠsiÊ¼a":8599,"ĠOromoorraa":8600,"ĠAg":8601,"Ġlaaq":8602,"aaroo":8603,"Ġardii":8604,"baay":8605,"ĠIL":8606,"ĠhoÊ¼aa":8607,"Ġgalaan":8608,"Ġtures":8609,"tta":8610,"Ġakkuman":8611,"Ġhubatuun":8612,"Kanatti":8613,"Ġyaade":8614,"ĠComm":8615,"Ġdhaaban":8616,"Ġeeyy":8617,"ĠAddis":8618,"ĠGalchuu":8619,"Ġhirmaachuu":8620,"Ġhoggansa":8621,"Ġmudatee":8622,"Ġangaw":8623,"Ġmagaalaalee":8624,"Ġguyyaatti":8625,"ĠAng":8626,"Ġyaaddessaa":8627,"Ġkonkolaataan":8628,"Ġtokkoomuu":8629,"Ġgeggeeffame":8630,"Ġwaard":8631,"Ġdaddaf":8632,"ĠJaarsoo":8633,"Sagantaa":8634,"Ġyero":8635,"Karoorri":8636,"Jijjiirama":8637,"Ġsonaan":8638,"Gochaan":8639,"Gan":8640,"haan":8641,"uub":8642,"amun":8643,"absii":8644,"Ġfanni":8645,"Ġmore":8646,"Ġqoof":8647,"Ġqiyyaaf":8648,"Ġficc":8649,"ĠAsoo":8650,"Ġwalin":8651,"orn":8652,"enna":8653,"Ġnutu":8654,"ĠFi":8655,"Ġgaafatamuu":8656,"eeffannaa":8657,"ĠJar":8658,"Ġbiraas":8659,"Ġdabarre":8660,"âĢĿ)":8661,"Ġhubatame":8662,"ĠgaÊ¼an":8663,"Ġqubatee":8664,"áĪĽ":8665,"Ġbaname":8666,"Ġbanamee":8667,"Ġtanee":8668,"Ġjaarmayaan":8669,"ution":8670,"jechuu":8671,"Ġgayee":8672,"Ġdimookir":8673,"áĮį":8674,"Hawaasa":8675,"ĠToron":8676,"Deebiin":8677,"ĠLeellisaa":8678,"ĠTaddasaa":8679,"Ġulaagaa":8680,"ODF":8681,"Sii":8682,"Wagg":8683,"ech":8684,"Ġkumaan":8685,"alaal":8686,"Ġteenyee":8687,"Ġsaayinsii":8688,"Ġqabsa":8689,"Ġqabaate":8690,"ĠAli":8691,"Ġkeessattii":8692,"ĠMaar":8693,"ĠGaraa":8694,"ĠGib":8695,"ayyo":8696,"ĠIm":8697,"ĠIrra":8698,"ĠHaaraa":8699,"ĠKY":8700,"ifame":8701,"ubli":8702,"ĠFacebook":8703,"Ġyeroodhaa":8704,"Ġguddaatu":8705,"Ġxala":8706,"iyoonni":8707,"Ġpeople":8708,"Ġnaannaa":8709,"Ġlammaff":8710,"Ġafaanfaa":8711,"Ġhaalan":8712,"ĠGalma":8713,"Ġakeekaa":8714,"Ġdhumaatii":8715,"Ġ04":8716,"Ġmootumma":8717,"Ġfiniinsuun":8718,"Ġukkaams":8719,"ĠHayila":8720,"Ġfarda":8721,"Hundi":8722,"Ġcinne":8723,"ĠMirgaa":8724,"Barruu":8725,"Dhalooti":8726,"Ġissaa":8727,"ĠyaaÊ¼ii":8728,"Ġgaafatamummaa":8729,"Hoogganni":8730,"Ġraggaas":8731,"Fedh":8732,"HR":8733,"Naann":8734,"Ġkorm":8735,"Ġkaamp":8736,"inn":8737,"insaan":8738,"Ġwaaraa":8739,"Ġfixan":8740,"aalummaa":8741,"Ġnot":8742,"Ġbaran":8743,"Ġwalhub":8744,"ĠBos":8745,"jji":8746,"ĠMaz":8747,"ĠGooroo":8748,"Ġgochi":8749,"Ġgalmaa":8750,"Ġjiranuu":8751,"ĠNadhii":8752,"Ġdhaabbataa":8753,"ĠbuÊ¼oota":8754,"Ġjiraattan":8755,"ĠmulÊ¼atan":8756,"Ġbaafatee":8757,"isiisuuf":8758,"Ġhoggantoota":8759,"ĠIsaanii":8760,"Ġhayyoonni":8761,"Ġhordofuun":8762,"Ġfaarsaa":8763,"Ġaartii":8764,"Ġkallacha":8765,"Biyyoota":8766,"Ġlukkeelee":8767,"ĠBakar":8768,"ĠAyyaanaa":8769,"Ġmaayyii":8770,"Diddaa":8771,"Im":8772,"OL":8773,"RA":8774,"amt":8775,"sse":8776,"Ġqara":8777,"eessinu":8778,"Ġfidaa":8779,"ĠOromootii":8780,"ĠBarsiis":8781,"ĠSillaasee":8782,"Ġarguuf":8783,"Ġguddachuu":8784,"aaÊ¼an":8785,"Ġyaadanii":8786,"ajaaj":8787,"Ġoola":8788,"Ġwareegamaniif":8789,"Ġqoricha":8790,"Ġdandeenyee":8791,"Ġdadhabne":8792,"emen":8793,"Ġbuuse":8794,"Ġaangootti":8795,"Ġfixee":8796,"ĠBiyyatti":8797,"Ġmotummaan":8798,"ĠFayyisaa":8799,"Ġkoloneeffataa":8800,"Ġministeera":8801,"Ġraadiyoo":8802,"Ġsuukanneessaa":8803,"bittee":8804,"Ġmuuziqaa":8805,"Ġsuduudaan":8806,"Koreen":8807,"ture":8808,"anoo":8809,"Ġkoot":8810,"Ġhinj":8811,"ĠIyaa":8812,"Ġgog":8813,"Ġbiyyoonni":8814,"Ġnuyi":8815,"ĠFii":8816,"Ġriq":8817,"Ġsodd":8818,"Ġdeebise":8819,"Ġhaamm":8820,"Ġsirnoota":8821,"Ġshaak":8822,"Ġaanj":8823,"Ġbaaseen":8824,"Ġbarreessee":8825,"Ġutubaa":8826,"Ġdhiittaa":8827,"ĠDhaloota":8828,"Ġmormaa":8829,"ĠmulÊ¼isu":8830,"ĠdeebiÊ¼aa":8831,"Ġbanee":8832,"Ġkenya":8833,"Ġajjeefamuu":8834,"Ġkonyaa":8835,"Ġsuukk":8836,"Ġpoolisiin":8837,"Ġduww":8838,"ĠAbdull":8839,"Ġhadhooftuu":8840,"ĠhintaÊ¼in":8841,"ĠJedhu":8842,"ĠKirist":8843,"Ġwalumaagalatti":8844,"ĠQilxuu":8845,"ĠRakkoo":8846,"HaataÊ¼uutii":8847,"29":8848,"IB":8849,"Irra":8850,"fata":8851,"geen":8852,"sinu":8853,"Ġqomoo":8854,"Ġbarab":8855,"Ġwalf":8856,"Ġisaaniti":8857,"ĠDald":8858,"ĠISAA":8859,"Ġhardhaa":8860,"ĠJaarraan":8861,"ĠOromiyaati":8862,"ated":8863,"iyuu":8864,"aaÊ¼ik":8865,"Ġjabaatu":8866,"Ġaanaalee":8867,"Ġkutaan":8868,"ĠPool":8869,"Ġgootowwan":8870,"Ġnamaatti":8871,"IIS":8872,"Ġjijjiiruuf":8873,"Ġinjifachuu":8874,"Ġhalagaan":8875,"Ġ08":8876,"Ġmagaalaan":8877,"Ġfidan":8878,"Ġcallis":8879,"Ġwaggoottan":8880,"UMMAAN":8881,"Ġafurii":8882,"ĠYunivarsitii":8883,"ĠDimokr":8884,"harÊ¼a":8885,"Ġhospitaala":8886,"ĠDawud":8887,"ĠHaamid":8888,"Garee":8889,"Jun":8890,"ja":8891,"mad":8892,"maree":8893,"atoonni":8894,"Ġjaraa":8895,"Ġtee":8896,"innee":8897,"ism":8898,"Ġqabatu":8899,"bbii":8900,"ĠBishaan":8901,"iyaad":8902,"ĠMiid":8903,"ĠGAB":8904,"Ġgaafatee":8905,"Ġseente":8906,"Ġdhabamee":8907,"Ġibiddaan":8908,"uula":8909,"Ġaanutti":8910,"Ġwarraq":8911,"Ġbobbaa":8912,"Ġek":8913,"Ġfedheen":8914,"Ġmurteef":8915,"Ġcaaluu":8916,"Ġgeggeessan":8917,"Ġbaafatanii":8918,"Ġbiroos":8919,"Ġtuffachuu":8920,"Ġgumaachan":8921,"Ġsirnichi":8922,"âĢ¬,":8923,"DHA":8924,"jjett":8925,"Ġyookin":8926,"ĠhaataÊ¼u":8927,"ĠFaax":8928,"):":8929,"Kitaab":8930,"Qoo":8931,"baq":8932,"bel":8933,"ika":8934,"ami":8935,"Ġwoggaa":8936,"Ġsa":8937,"Ġsurr":8938,"Ġjireessi":8939,"ammaa":8940,"adan":8941,"Ġcaasaan":8942,"asitti":8943,"ĠHub":8944,"Ġaddun":8945,"iiftuu":8946,"Ġtokkorratti":8947,"achuutu":8948,"tus":8949,"âĢĿ.":8950,"Ġhojjatee":8951,"Ġhubachuuf":8952,"Ġdhabaa":8953,"ĠNaann":8954,"Ġdhaabanii":8955,"Ġdhiheessan":8956,"Ġfuruu":8957,"Ġdhiisu":8958,"Ġbanan":8959,"Ġhogganamu":8960,"Ġ07":8961,"Ġcabsuun":8962,"Ġmirgii":8963,"Ġhangi":8964,"Keessumattuu":8965,"ALAT":8966,"Ġsababoota":8967,"Ġhaguug":8968,"ĠAbdiisaa":8969,"Ġwayyaane":8970,"Ġqalbeeff":8971,"Haatahu":8972,"Ġ1974":8973,"Ġdafanii":8974,"Ġhambisuuf":8975,"Magaal":8976,"Ġbekk":8977,"ĠDabalee":8978,"ĠRoobaa":8979,"ĠDubbii":8980,"Wareegamni":8981,"ĠMootummoota":8982,"Itoophiyaa":8983,"Dabalataan":8984,"27":8985,"Kora":8986,"Moo":8987,"PH":8988,"Roo":8989,"lish":8990,"amnaan":8991,"Ġbub":8992,"aboo":8993,"Ġtuni":8994,"ummaatti":8995,"Ġwalig":8996,"Ġlee":8997,"Ġkanadha":8998,"iftee":8999,"Ġdhiba":9000,"ichii":9001,"idhaan":9002,"Ġxumm":9003,"ttps":9004,"eesan":9005,"Ġdhabame":9006,"aaÊ¼e":9007,"qabeessa":9008,"Ġfakkeessanii":9009,"Ġfakkaatanii":9010,"ĠharÊ¼aan":9011,"ĠbuÊ¼uraa":9012,"Ġakkasiin":9013,"Ġqopheessan":9014,"sisan":9015,"Ġeenyummaan":9016,"Waldaan":9017,"Walgahii":9018,"Ġkaanis":9019,"Ġbuqqisanii":9020,"eessitu":9021,"AND":9022,"Ġdhiyaachuu":9023,"ĠAbbabaa":9024,"aadhu":9025,"otikaa":9026,"Addunyaan":9027,"Ġduguugg":9028,"Ergam":9029,"ĠMiseensa":9030,"Ġhojjetamaa":9031,"Guyy":9032,"Ġqunnamtii":9033,"Eega":9034,"Ġfeena":9035,"murtii":9036,"ĠItyoo":9037,"mmartoo":9038,"Ġorigin":9039,"Aadaan":9040,"GA":9041,"IYY":9042,"Tan":9043,"Waajj":9044,"ain":9045,"bu":9046,"con":9047,"doo":9048,"iiraa":9049,"abni":9050,"Ġsaafaa":9051,"omp":9052,"ĠOSA":9053,"ĠBiq":9054,"Ġcuq":9055,"ittuu":9056,"ifi":9057,"Ġgaafatamu":9058,"eeffamaa":9059,"Ġgodhatan":9060,"Kanarraa":9061,"ĠNU":9062,"Ġdhaabbachaa":9063,"ĠYuun":9064,"ĠbuÊ¼anii":9065,"Ġhimanii":9066,"Ġofiitiif":9067,"Dhalli":9068,"ellem":9069,"Ġamanna":9070,"Ġnyaatan":9071,"Ġgargaaruuf":9072,"Ġbanuun":9073,"Ġiyyannoo":9074,"áī°":9075,"Ġachumatti":9076,"Ġukkaamsuu":9077,"Ġdogong":9078,"Biyyoonni":9079,"ĠMallasaa":9080,"ĠsochoÊ¼an":9081,"Minilik":9082,"ĠXaaliyaan":9083,"ĠAyyaanni":9084,"40":9085,"Carraa":9086,"Koree":9087,"danii":9088,"leef":9089,"oy":9090,"amatti":9091,"amnii":9092,"Ġbiiroo":9093,"Ġmalli":9094,"Ġqabneen":9095,"Ġqabdee":9096,"Ġbarsiisa":9097,"Ġwalumaan":9098,"ĠMiti":9099,"ĠGamb":9100,"Ġisaanitiin":9101,"asaas":9102,"ĠDoor":9103,"ĠHAA":9104,"Ġofumaa":9105,"olution":9106,"one":9107,"Ġuumaan":9108,"Ġgaleessa":9109,"Ġhiriyoota":9110,"ĠAmb":9111,"Ġyaadachuu":9112,"Ġhimamee":9113,"Ġuumu":9114,"Ġhammeenyaa":9115,"Ġjalqabaaf":9116,"ĠWalgahii":9117,"Ġfedhee":9118,"Ġnyaate":9119,"Ġadabbii":9120,"Ġgandeen":9121,"ĠGuutamaa":9122,"Ġargamtan":9123,"Ġshororkeessaa":9124,"WBOn":9125,"Ġarrabsuu":9126,"Adeemsi":9127,"Ġgamaagg":9128,"Ġakeekkachiisa":9129,"Bor":9130,"DC":9131,"Siyaa":9132,"Yoom":9133,"his":9134,"liin":9135,"tiifi":9136,"iirri":9137,"Ġkootii":9138,"aane":9139,"Ê¼ina":9140,"Ġwith":9141,"Ġdhang":9142,"Ġsaal":9143,"aafame":9144,"ille":9145,"ĠMoot":9146,"ast":9147,"ĠIti":9148,"ĠHamm":9149,"aye":9150,"Ġdiinaatti":9151,"Ġseenuuf":9152,"udhaaf":9153,"Ġhojjannee":9154,"Ġhubannaa":9155,"aanneef":9156,"Ġfudhatamaa":9157,"itid":9158,"Ġmiseensi":9159,"Ġballee":9160,"Ġuuman":9161,"Ġjalqabu":9162,"ĠmulÊ¼isuu":9163,"Ġeenyuun":9164,"Ġbutu":9165,"Ġdhugaatti":9166,"Ġjijjiiruun":9167,"Ġsabboontonni":9168,"Ġgamoo":9169,"Ġturree":9170,"Ġfidanii":9171,"ĠAngoo":9172,"Ġhaarawaa":9173,"Ġhaarawa":9174,"Lammaffaa":9175,"Ġjijjirama":9176,"Ijoollee":9177,"Ġdhunf":9178,"ĠMulÊ¼":9179,"Qabsaaw":9180,"ĠSalaalee":9181,"Ġpoolisa":9182,"Ġagarsiif":9183,"Muddee":9184,"!.":9185,"34":9186,"GO":9187,"Jaall":9188,"Oduun":9189,"Wayyaan":9190,"gab":9191,"hi":9192,"saatiin":9193,"uumaa":9194,"Ġifii":9195,"chatti":9196,"dhuf":9197,"eessota":9198,"ĠBarsiisaa":9199,"Ġtoh":9200,"ort":9201,"ĠHAR":9202,"ĠKaroo":9203,"eeffamu":9204,"Ġdabaa":9205,"Ġguddatu":9206,"Ġhirree":9207,"Ġfudhatamuu":9208,"ĠLeen":9209,"Ġyaadachuun":9210,"Ġyaadannu":9211,"Ġamanamoo":9212,"ĠRabbiin":9213,"Ġhimameera":9214,"ĠBilisummaati":9215,"dhaab":9216,"immoo":9217,"Ġdhiha":9218,"Ġbaqattoonni":9219,"Ġdadhabaa":9220,"Walii":9221,"Akkaataa":9222,"amsiisuu":9223,"ictor":9224,"Ġguutummaan":9225,"Ġqofatti":9226,"Ġjajjabeessuu":9227,"situu":9228,"Ġdhibbaan":9229,"Ġwoliin":9230,"ĠAnfilloo":9231,"Ġyou":9232,"Ġtapha":9233,"ADAA":9234,"Abbootiin":9235,"Ġqabsiisee":9236,"Ġmiiliyoona":9237,"ĠArtist":9238,"Gochi":9239,"Ġhiriiraa":9240,"Ġbunaa":9241,"ĠIlaalchisee":9242,"Ġgalateeff":9243,"Ġdiimookraat":9244,"Ġtarsimoo":9245,"Warraaq":9246,"ffa":9247,"ial":9248,"suf":9249,"Ġkot":9250,"Ġbaab":9251,"Ġbush":9252,"Ġgatanii":9253,"umatu":9254,"aÊ¼iinsa":9255,"aÊ¼insa":9256,"Ġyad":9257,"Ġluu":9258,"anniin":9259,"iyyeen":9260,"Ġcan":9261,"Ġgarmalee":9262,"orork":9263,"ĠWag":9264,"Ġaraddaa":9265,"Ġgubaa":9266,"Ġbiyyaaf":9267,"ĠKaan":9268,"Ġseenaaf":9269,"Ġhubadh":9270,"Ġtiyya":9271,"Ġfakkeeny":9272,"Ġamanuun":9273,"ĠtaÊ¼etti":9274,"Oromoota":9275,"Ġraajii":9276,"Ġfufanii":9277,"Ġijaaramanii":9278,"Ġex":9279,"Ġtaree":9280,"Ġduubaa":9281,"Ġlakkii":9282,"Ġdhiyeessa":9283,"Ġfayyadamee":9284,"Ġajjeesanii":9285,"Ġmaqaaf":9286,"Ġcufaa":9287,"Ġ60":9288,"Ġilaalla":9289,"Ġhundaanuu":9290,"ishaangul":9291,"ĠBilisoom":9292,"Ġgoolab":9293,"Ġkaayoo":9294,"Ġbaqattummaa":9295,"Fincila":9296,"ĠUrjii":9297,"ĠMinisteera":9298,"Finfinneen":9299,"Jaallan":9300,"Otuu":9301,"SOO":9302,"biyya":9303,"luu":9304,"Ġbaannaan":9305,"Ġgeeny":9306,"Ġmaan":9307,"Ġmoggaa":9308,"ootuma":9309,"aÊ¼us":9310,"ĠMad":9311,"ĠTeed":9312,"ĠQoo":9313,"eeffamanii":9314,"ally":9315,"Ġhojjatuu":9316,"Ġhiriyy":9317,"Ġdhabama":9318,"Ġdubbataa":9319,"Ġfudhatam":9320,"addunyaa":9321,"Ġboodd":9322,"ĠtaÊ¼uusaa":9323,"deey":9324,"ĠCeh":9325,"Ġamansiisaa":9326,"Ġofiitiin":9327,"ĠDheer":9328,"Ġhammam":9329,"effate":9330,"Ġdadhabbii":9331,"...":9332,"Ġwallaggaa":9333,"Ġyakkamaa":9334,"Ġsaaxiluu":9335,"ATAA":9336,"Erg":9337,"ADH":9338,"CHA":9339,"Ġkiyyaatitti":9340,"versiitii":9341,"Ġbadhaasa":9342,"ĠMohaammad":9343,"ĠEebb":9344,"ĠFufe":9345,"Mal":9346,"Moot":9347,"bilisummaa":9348,"nne":9349,"po":9350,"ant":9351,"Ġkoof":9352,"Ġdoof":9353,"Ġbaj":9354,"Ġbixx":9355,"Ġboombii":9356,"Ġmich":9357,"omb":9358,"istummaa":9359,"Ġhinarg":9360,"Ġyaalee":9361,"Ġwalti":9362,"Ġtokkichi":9363,"ĠSeera":9364,"Ġseentee":9365,"Ġind":9366,"Ġdubbisuuf":9367,"ĠNew":9368,"ĠLiib":9369,"ĠAmh":9370,"Ġtarkan":9371,"Ġbarbaadanitti":9372,"Ġdhihaatan":9373,"Ġkoos":9374,"Ġdabalataan":9375,"Ġnagayaan":9376,"Ġdhumu":9377,"Ġfacaasuu":9378,"Ġdagatamuu":9379,"ĠAbba":9380,"ĠBiyyummaa":9381,"Ġachumaan":9382,"Dhaad":9383,"Ġhiikuu":9384,"Ġgalchee":9385,"iliik":9386,"Ġgaffii":9387,"eneral":9388,"Ġherr":9389,"Ġmoy":9390,"Karoora":9391,"Ġinternee":9392,"ĠYohaannis":9393,"Ġhirriba":9394,"Taammanaa":9395,"bata":9396,"gara":9397,"lle":9398,"Ġkadhaa":9399,"amp":9400,"Ġittii":9401,"Ġguun":9402,"inaaf":9403,"Ġsani":9404,"ĠOromiya":9405,"aÊ¼een":9406,"Ġbare":9407,"Ġjedheera":9408,"ĠManni":9409,"ĠGind":9410,"Ġisaanuma":9411,"Ġirraayyi":9412,"ĠHabsh":9413,"Ġilaam":9414,"arsan":9415,"iyee":9416,"Ġibiddaa":9417,"Ġmarih":9418,"ĠbuÊ¼iinsa":9419,"ĠRaaww":9420,"Ġhimanitti":9421,"ĠDhawaa":9422,"Ġqubate":9423,"Ġnyaachaa":9424,"Ġafuura":9425,"Ġkamtu":9426,"Ġmuux":9427,"Ġhanqachuu":9428,"Ġgabaabumatti":9429,"uslii":9430,"Ġawwaalcha":9431,"Ġjijjiirraa":9432,"EESSA":9433,"Ġjarj":9434,"Tokkoffaa":9435,"Ġakaakilee":9436,"Master":9437,"Ġnaamusa":9438,"AMM":9439,"elee":9440,"karaa":9441,"uyyuu":9442,"aaz":9443,"Ġkaatee":9444,"Ġhad":9445,"Ġhaalaa":9446,"iraan":9447,"Ġdhoof":9448,"aarsi":9449,"Ġgartuun":9450,"ĠGU":9451,"ĠGAAF":9452,"Ġtokkuma":9453,"ĠDabb":9454,"ĠDawaa":9455,"ĠSaÊ¼":9456,"ĠSanaa":9457,"ĠSEEN":9458,"ĠHO":9459,"ĠKenya":9460,"Ġargatuu":9461,"ichis":9462,"Ġinn":9463,"aalleen":9464,"Ġmariy":9465,"Ġkennine":9466,"ĠRoob":9467,"Ġkabajamuuf":9468,"Ġisiniin":9469,"Ġcimsuun":9470,"ĠWalaayitaa":9471,"ĠAraar":9472,"Ġasuma":9473,"ĠItoophiyaatti":9474,"Ġxumuramee":9475,"Ġsunis":9476,"Ġbadee":9477,"Ġjirrutti":9478,"Ġmiidhama":9479,"Ġreebichaa":9480,"Ġbeeksisa":9481,"Ġdhagahamu":9482,"oomfataa":9483,"ĠOromootu":9484,"ĠSabboonaa":9485,"Ġcabee":9486,"ĠUmmatootaa":9487,"ĠChaayinaa":9488,"Ġnafxanyootaa":9489,"ĠSanyii":9490,"ĠArabiyaa":9491,"Ġxiiq":9492,"BuÊ¼aa":9493,"Ġdallan":9494,"ustir":9495,"OOMAA":9496,"ĠAfirikaa":9497,"24":9498,"Xumura":9499,"ux":9500,"Ġba":9501,"altummaa":9502,"kkuu":9503,"Ġmog":9504,"Ġqabb":9505,"Ġhinfakk":9506,"ĠADD":9507,"adi":9508,"ĠGO":9509,"ayyoon":9510,"Ġarab":9511,"ifamu":9512,"ĠTola":9513,"Ġbarbaadee":9514,"Ġdubbatamu":9515,"Ġjabaachuun":9516,"Ġdhufne":9517,"Ġyaadame":9518,"Ġaangaw":9519,"Ġeegala":9520,"ĠWayyaanees":9521,"Ġdhihaat":9522,"Ġjaarmaa":9523,"ĠArg":9524,"Ġamb":9525,"Ġkaanu":9526,"Ġbaafachuun":9527,"Ġdhumee":9528,"Ġfaajjii":9529,"Ġwaliigala":9530,"Ġmeetira":9531,"Ġagarsiisan":9532,"Ġhujiin":9533,"ĠbaayÊ¼inaan":9534,"Ġwoyyaan":9535,"Ġbilchina":9536,"Ġcaccab":9537,"Ġdhandh":9538,"Dargaggoonni":9539,"Ġkosii":9540,"Ġáīł":9541,"Ġtaajjab":9542,"ĠAadam":9543,"23":9544,"Dubar":9545,"Labsiin":9546,"VOA":9547,"WAA":9548,"cuu":9549,"ubaa":9550,"Ġdaaraa":9551,"Ġfull":9552,"ĠAsh":9553,"Ġyuu":9554,"amad":9555,"amas":9556,"ĠBall":9557,"ĠarÊ¼a":9558,"ĠSeen":9559,"ole":9560,"iff":9561,"Ġdandeny":9562,"araab":9563,"Ġguddinni":9564,"Ġqabus":9565,"Ġdubbataniiru":9566,"qabaa":9567,"Ġjabeessu":9568,"uulÊ¼":9569,"uullee":9570,"Ġdhuftee":9571,"Ġyaadamee":9572,"Ġilaalame":9573,"Ġhojiidhaan":9574,"Ġhimatan":9575,"Ġijaaru":9576,"ĠDhab":9577,"ĠDhuf":9578,"Ġjiruutti":9579,"Ġwaggaatti":9580,"Ġaddunyaaf":9581,"ĠgaÊ¼uun":9582,"eeysaa":9583,"Ġxiqqeessuu":9584,"Ġjaalatu":9585,"Ġbarreeffame":9586,"iiliik":9587,"Ġminis":9588,"Ġjajjabina":9589,"Ġtumsi":9590,"Ġcalaq":9591,"Ġayyaantuu":9592,"Ġlallabaa":9593,"Ġgodinoota":9594,"Ġ1980":9595,"ĠFayyis":9596,"Ġoomisha":9597,"Ġintala":9598,"ĠInjifannoo":9599,"Wayta":9600,"ights":9601,"Ġirbaata":9602,"ADO":9603,"Hamm":9604,"Ni":9605,"Nuuti":9606,"coo":9607,"hir":9608,"keessa":9609,"sun":9610,"wayyaaneen":9611,"work":9612,"atootni":9613,"Ġgeessee":9614,"Ġgeenyee":9615,"Ġqabamuun":9616,"ĠAsa":9617,"ummaadhaan":9618,"Ġwaldaan":9619,"Ġwaldhab":9620,"Ġlachuu":9621,"ĠBUL":9622,"ĠMaatii":9623,"ĠGidduu":9624,"ĠWaash":9625,"ĠIr":9626,"Ġargachaa":9627,"ĠTan":9628,"Ġbeekaniif":9629,"aachaw":9630,"Ġguddatan":9631,"ĠNews":9632,"ĠRas":9633,"achiisanii":9634,"Ġqoosaa":9635,"âĢľ,":9636,"Ġergif":9637,"ship":9638,"Ġnyaachuu":9639,"Ġbilisaan":9640,"Ġgaaz":9641,"ĠZeen":9642,"Ġmilkoof":9643,"Ġqofatu":9644,"Ġhordofu":9645,"mbaasii":9646,"uummaan":9647,"Ġdhagahame":9648,"ĠMargaa":9649,"barataa":9650,"2009":9651,"ĠDimokir":9652,",,,,":9653,"Ġjeedh":9654,"ĠRoobii":9655,"Mirgi":9656,"Mormiin":9657,"poortii":9658,"Ġgalgalaa":9659,"Ġharqoota":9660,"Manneen":9661,"MOA":9662,"TAA":9663,"UF":9664,"lakk":9665,"lleen":9666,"mis":9667,"ÂŃ":9668,"Ġii":9669,"atamuuf":9670,"Ġgaww":9671,"Ġtumsaa":9672,"umarraa":9673,"Ġjirta":9674,"ĠOromootni":9675,"Ġnarraa":9676,"Ġqabaatee":9677,"ĠAann":9678,"ĠBaay":9679,"Ġaraarri":9680,"iisuuf":9681,"Ġille":9682,"ĠKanaa":9683,"alla":9684,"ĠABOtti":9685,"qabsoo":9686,"Ġyaadi":9687,"Ġhimama":9688,"iigii":9689,"ĠqophaaÊ¼ee":9690,"reedom":9691,"Ġfilachuu":9692,"Ġloluu":9693,"Ġdhiisan":9694,"duraa":9695,"ĠInternational":9696,"Ġeegaluu":9697,"Ġhojee":9698,"Ġyoomitti":9699,"Ġiyyu":9700,"own":9701,"Ġdhuunfatee":9702,"assan":9703,"ĠGoototni":9704,"ĠâĢ¦.":9705,"Ġargamsiise":9706,"Ibsaa":9707,"ADUBBII":9708,"Ġburjaaj":9709,"Ġmammaaksa":9710,"ĠQorannoo":9711,"ĠMotummaa":9712,"ĠIsteets":9713,"DUU":9714,"Hu":9715,"mana":9716,"up":9717,"eewwan":9718,"Ġmus":9719,"Ġmalle":9720,"aasti":9721,"Ġbarc":9722,"Ġbarata":9723,"ilaal":9724,"ĠBokk":9725,"ĠMandii":9726,"Ġgartummaa":9727,"asi":9728,"iisu":9729,"ifamuu":9730,"Ġargamaa":9731,"Ġarginee":9732,"ĠFakk":9733,"Ġbeektoota":9734,"Ġdubbisaa":9735,"Ġfudhatuu":9736,"Ġlafatti":9737,"Ġjabeessaa":9738,"Ġtir":9739,"Ġfakkeessaa":9740,"Ġkennameef":9741,"Ġyaadachiisuu":9742,"Ġyaadachiisa":9743,"Ġibsetti":9744,"Ġwaah":9745,"Ġwaaqa":9746,"ĠPO":9747,"Ġuumanii":9748,"Ġgootonni":9749,"Ġcaalan":9750,"Ġ45":9751,"ĠHarka":9752,"ĠKanaan":9753,"aatiifi":9754,"Ġhawaasota":9755,"Ġboonuu":9756,"Ġleencaa":9757,"???":9758,"Ġlaalchisee":9759,"Ġgeggeeffamu":9760,"Ġhojjettoota":9761,"Ġempayer":9762,"Bakk":9763,"DA":9764,"Gam":9765,"RAA":9766,"guyyaa":9767,"qeerr":9768,"Ġgamni":9769,"Ġgaanfa":9770,"dhal":9771,"Ġqayyab":9772,"raffaa":9773,"ĠSa":9774,"ĠSoo":9775,"ĠSeer":9776,"ens":9777,"ĠQo":9778,"Ġseennee":9779,"Ġibidd":9780,"Ġfudhannu":9781,"ĠLimmuu":9782,"Ġdhaabbanna":9783,"Ġgadaan":9784,"achiisaan":9785,"ĠPiree":9786,"ĠmulÊ¼atee":9787,"Ġduuti":9788,"opiyaa":9789,"Ġfurmaatni":9790,"Ġbarbaachise":9791,"Ġdargag":9792,"Ġtankaar":9793,"Ġbarsiisuuf":9794,"áĭ«":9795,"Ġdidanii":9796,"Ġdalage":9797,"ĠAwroo":9798,"Ġpaartilee":9799,"Ġgowwom":9800,"Ġpoliti":9801,"Ġnaannawaa":9802,"Ġdaddaaq":9803,"Ġjiraanna":9804,"ĠhundaaÊ¼e":9805,"Ġsanyiin":9806,"Ġwixin":9807,"Ajjeechaa":9808,"TOO":9809,"ead":9810,"gr":9811,"hun":9812,"tot":9813,"oophiyaa":9814,"iidhaan":9815,"Ġbataskaan":9816,"Ġjachuun":9817,"Ġay":9818,"ĠAK":9819,"Ġyaall":9820,"ittan":9821,"ĠIN":9822,"ĠHal":9823,"ifamee":9824,"Ġhundaatti":9825,"Ġyaabb":9826,"Ġkeenyadha":9827,"eesii":9828,"ĠLaggasaa":9829,"ajjee":9830,"Ġeegumsa":9831,"Ġdiraamaa":9832,"Ġjechuunis":9833,"Ġhafuura":9834,"Ġmiilaan":9835,"Ġijaare":9836,"Ġwayyaaneetti":9837,"Ġturanis":9838,"Ġkeeww":9839,"Ġgoote":9840,"Ġnagaya":9841,"Ġduuluun":9842,"Ġdhaqab":9843,"ĠOROMO":9844,"ĠBultum":9845,"Ġhiriiruu":9846,"Ġfaarsuu":9847,"Ġtooftaan":9848,"ĠMisooma":9849,"Ġfederaal":9850,"Ġdinqu":9851,"Ġwalfakkaatuun":9852,"ĠDhaabbilee":9853,"ĠQabsaaw":9854,"ĠGulummaa":9855,"timantii":9856,"Fulbaana":9857,"Lakk":9858,"Mooraan":9859,"WU":9860,"Ġkm":9861,"Ġffaa":9862,"Ġtaati":9863,"Ġwixx":9864,"isne":9865,"Ġlaalaa":9866,"ĠBiiroo":9867,"ĠItt":9868,"Ġwaranaa":9869,"Ġbiyyee":9870,"ĠFIN":9871,"Ġgaafataman":9872,"aaÊ¼ii":9873,"Ġshoor":9874,"Ġdeemtu":9875,"ĠtaÊ¼uudhaan":9876,"Ġbule":9877,"Ġibsachuu":9878,"ĠCim":9879,"Ġdhaabate":9880,"Ġkabajuuf":9881,"ĠBarii":9882,"Ġmurteessa":9883,"iqqaa":9884,"isiisee":9885,"Ġdhumaatti":9886,"Ġkutannaa":9887,"Ġdimokiraasii":9888,"áī½":9889,"aadhee":9890,"unity":9891,"ATTI":9892,"Ġcunqurfamoon":9893,"Ġifaadha":9894,"Ġkomii":9895,"Ġargamsiisu":9896,"ĠGuddaa":9897,"ocide":9898,"Ġdhaggeeffachuu":9899,"Ġdhooy":9900,"Ġqabsiisuun":9901,"Ġijji":9902,"Ġbarbaaddu":9903,"Ġhundeeffama":9904,"ĠáĪĺ":9905,"ideo":9906,"ANNOO":9907,"Ġbeellama":9908,"Ġhospit":9909,"Ġbosonaa":9910,"Dhiigni":9911,"Bakki":9912,"Sar":9913,"Ġatatt":9914,"Ġkaah":9915,"Ġdok":9916,"amsa":9917,"Ġitoo":9918,"timen":9919,"dhag":9920,"ssee":9921,"aÊ¼iin":9922,"Ġakkasi":9923,"ĠMAR":9924,"ĠMaangudd":9925,"uly":9926,"ĠDaa":9927,"ĠKoreen":9928,"ĠJaallan":9929,"taara":9930,"Ġdeebisan":9931,"Ġgodheen":9932,"ĠdandaÊ¼aa":9933,"aaÊ¼anii":9934,"Ġshim":9935,"âĢ¦?":9936,"Ġeegamuu":9937,"ĠRabb":9938,"Ġabbaabiyyummaa":9939,"Ġuumamuu":9940,"Ġtaasiseera":9941,"Ġdanqaa":9942,"Ġafran":9943,"Ġdhiyeessaa":9944,"Ġtaasifamee":9945,"Ġmurtiitti":9946,"Ġxiyyeeffannaa":9947,"ijjir":9948,"AMAA":9949,"Ġdhageessisuu":9950,"ĠGuutama":9951,"Ġxiinxala":9952,"Ġpolotikaa":9953,"ĠáĬł":9954,"Ġjilbeeff":9955,"Lammiileen":9956,"Ġheedduu":9957,"ĠDubartoota":9958,"ĠYunaayitid":9959,"75":9960,"Ul":9961,"ariin":9962,"amaafi":9963,"Ġbaati":9964,"aluun":9965,"alag":9966,"Ġfarreen":9967,"kkf":9968,"ument":9969,"inus":9970,"Ġqoon":9971,"ĠObbol":9972,"Ġoto":9973,"achuf":9974,"ahin":9975,"ĠBayy":9976,"attota":9977,"ĠTaas":9978,"ĠTAÊ¼":9979,"ĠQawwee":9980,"Ġhidhatanii":9981,"Ġxurree":9982,"Ġijar":9983,"Ġdeemne":9984,"Ġaanaan":9985,"Ġrakkisu":9986,"Ġibseera":9987,"ĠCaal":9988,"eelaa":9989,"Ġwayyaanees":9990,"Ġakkasumatti":9991,"Ġakkasumaas":9992,"ĠBarnootaa":9993,"ĠAff":9994,"Waliigal":9995,"ement":9996,"Ġhaaluu":9997,"Ġmadoo":9998,"ĠTigiree":9999,"Ġargamanitti":10000,"Ġdhiifne":10001,"Ġmandhee":10002,"Ġgaafiilee":10003,"Ġcallisee":10004,"Ġhaaraatti":10005,"Ġhiikamuu":10006,"Ġhumnootni":10007,"Ġdammaqee":10008,"Ġdeddeb":10009,"Ġoofuu":10010,"ĠbabalÊ¼isuu":10011,"Ġxurii":10012,"ĠSiyaasa":10013,"Ġsodaachisaa":10014,"ĠáĬ¥":10015,"Dhaabbileen":10016,"Ġarrabsoo":10017,"Ġakeekkate":10018,"ĠSumaalee":10019,"Ġbaruumsa":10020,"Ġmitiiree":10021,"Hagayya":10022,"Ġjilbeenf":10023,"Onkoloolessa":10024,"28":10025,"Gurr":10026,"Mot":10027,"Seera":10028,"fannoo":10029,"kaas":10030,"meen":10031,"oad":10032,"Ġeessatti":10033,"ĠdaÊ¼":10034,"Ġdil":10035,"Ġdeeffachuuf":10036,"Ġhee":10037,"Ġjah":10038,"Ġmicc":10039,"iniin":10040,"innaa":10041,"dhaf":10042,"Ġwe":10043,"Ġsax":10044,"Ġkanfal":10045,"isiin":10046,"ĠOromoorra":10047,"ahoo":10048,"ĠBoolee":10049,"ĠGaruu":10050,"attuun":10051,"ĠDUR":10052,"ufuu":10053,"ĠSill":10054,"Ġammuma":10055,"ĠKar":10056,"ĠKof":10057,"ons":10058,"onaa":10059,"taay":10060,"oomsuuf":10061,"arsuu":10062,"Ġrukk":10063,"ĠABOÊ¼n":10064,"Ġqabutti":10065,"Ġshif":10066,"Ġjabaataa":10067,"Ġyaadatamuu":10068,"Ġsadar":10069,"Ġhafte":10070,"Ġdhageetti":10071,"Ġbarreessu":10072,"Ġbarreessanii":10073,"Ġkabajuun":10074,"Ġdhiisa":10075,"Ġhammaatee":10076,"Ġjenn":10077,"ĠWald":10078,"Ġloltoonni":10079,"Ġmurteessuu":10080,"Ġbaafne":10081,"Ġmaddu":10082,"Ġkollee":10083,"Ġgoonf":10084,"Ġeger":10085,"Ġduguuggaa":10086,"Ġnaannicha":10087,"ĠMuslimoota":10088,"Ġdhabamsiif":10089,"ĠTorban":10090,"Ġraabs":10091,"Ġdahoo":10092,"Ġgabroonfataa":10093,"Ġbarbaanne":10094,"::::":10095,"ĠDammaq":10096,"Dabalee":10097,"Ġsassaab":10098,"Ġoriginal":10099,"Aanaa":10100,"Bir":10101,"PDM":10102,"car":10103,"nnee":10104,"aajii":10105,"atameera":10106,"abummaan":10107,"Ġgeg":10108,"Ġgangal":10109,"inne":10110,"rro":10111,"ĠObaa":10112,"urt":10113,"aafa":10114,"ĠAra":10115,"aasummaa":10116,"achew":10117,"ĠGon":10118,"ĠSochiin":10119,"Ġadduunyaa":10120,"Ġofirratti":10121,"ĠTes":10122,"Ġduruu":10123,"Ġharkaan":10124,"ĠQabs":10125,"Ġuummataan":10126,"Ġres":10127,"ĠABOf":10128,"eesu":10129,"Ġjabaate":10130,"Ġfakkaataan":10131,"Ġdhalootaaf":10132,"chisa":10133,"Ġraawwachuuf":10134,"Ġhammaataa":10135,"Ġbilisumma":10136,"Ġmiseensoti":10137,"Ġdargii":10138,"Ġbobbaasee":10139,"ĠbobbaÊ¼anii":10140,"Ġeegalu":10141,"OMT":10142,"Ġbanuu":10143,"ĠItiyoophiyaatti":10144,"Ġmiidhaman":10145,"Ġajjeefamanii":10146,"Ġmootumman":10147,"ĠLammaffaa":10148,"ppil":10149,"Ġwaliigalaatti":10150,"ĠbaayÊ¼ina":10151,"Sababiin":10152,"Ġkeessumattuu":10153,"ĠAmantiin":10154,"Akeeka":10155,"ĠQabsaaÊ¼":10156,"Ġqoqqoo":10157,"ĠwalÊ¼aansa":10158,"Ġwalbira":10159,"--":10160,"GAR":10161,"Mu":10162,"Mata":10163,"TUU":10164,"igaa":10165,"aaniyaa":10166,"Ġhif":10167,"Ġbaaj":10168,"Ġhinbar":10169,"Ġkeessattu":10170,"aasoo":10171,"ĠGaf":10172,"ĠGiddu":10173,"ulee":10174,"ĠWaamicha":10175,"ĠDuree":10176,"ĠDaud":10177,"ĠSi":10178,"ĠHedd":10179,"Ġwarana":10180,"ĠTufaa":10181,"Ġmuraasni":10182,"ĠdandaÊ¼uun":10183,"aaÊ¼a":10184,"ĠNajj":10185,"Ġsheek":10186,"Ġbulcha":10187,"Ġfakkeessuuf":10188,"Ġoromoota":10189,"Ġbarbaaduun":10190,"ĠWaltajjii":10191,"Ġdabarsu":10192,"ĠAbdur":10193,"Ġsaamm":10194,"ĠHararg":10195,"Ġbadu":10196,"Ġbaayee":10197,"Ġbuusu":10198,"Ġtanaan":10199,"Ġdiigu":10200,"Ġirreechaa":10201,"ĠAfrica":10202,"Ġqofaatti":10203,"Ġdhalawwan":10204,"Ġgurmuun":10205,"Ġhuccuu":10206,"Ġgayuu":10207,"ĠAwaash":10208,"ĠVictor":10209,"Ġimala":10210,"Ġegalee":10211,"Ġtaphachuu":10212,"Ġcinatti":10213,"ĠNamoonni":10214,"ĠdhagaÊ¼ame":10215,"ĠUmar":10216,"Ġbilbil":10217,"Ġnafxanyoonni":10218,"Ġbaraaruuf":10219,"Ġgulantaa":10220,"Ġqananii":10221,"Ġqoqqood":10222,"Ġyookiis":10223,"Ġkitila":10224,"Ġaggaam":10225,"ĠAjjeef":10226,"ĠBaddallee":10227,"ĠCehumsaa":10228,"Hang":10229,"Maatiin":10230,"Tas":10231,"nol":10232,"sir":10233,"aadaa":10234,"Ġkuu":10235,"Ġkoom":10236,"Ġhalee":10237,"Ġgeessa":10238,"Ġjireessa":10239,"bban":10240,"Ġbarame":10241,"Ġbarannee":10242,"Ġlub":10243,"Ġlaayy":10244,"ĠMiil":10245,"ĠDil":10246,"olom":10247,"Ġargina":10248,"ĠJim":10249,"aayir":10250,"Ġnamicha":10251,"Kanaanis":10252,"iÊ¼aa":10253,"Ġgahii":10254,"Ġgahanii":10255,"Ġaanichaa":10256,"Oromoof":10257,"Ġnaanno":10258,"maaz":10259,"Ġwaamm":10260,"chisu":10261,"Ġele":10262,"ellaa":10263,"Ġbarbaaduuf":10264,"Ġbarbaadne":10265,"ĠWalis":10266,"Ġergame":10267,"Ġqorannaa":10268,"Ġsaamee":10269,"Ġgargaaran":10270,"Ġduulan":10271,"Ġhawwan":10272,"ĠbobbaÊ¼uu":10273,"durii":10274,"Ġdhaqan":10275,"ĠIncinnii":10276,"Ġeegalanii":10277,"Ġfayyadamanii":10278,"Ġlabsee":10279,"áĭ°":10280,"Ġqindoomina":10281,"Ġulfaata":10282,"Ġbarbach":10283,"izimii":10284,"Ġtattaafatan":10285,"Ġmakmaak":10286,"Ġdhibeen":10287,"Ġwaltajj":10288,"Ġgalchu":10289,"ĠHuman":10290,"Ġmasaraa":10291,"Murtii":10292,"Ġodeeffannoon":10293,"Ġdorgomaa":10294,"ĠToophiyaa":10295,"ĠFalmataa":10296,"ĠlakkaaÊ¼aman":10297,"ĠSuudaan":10298,"ĠShaashamannee":10299,"ĠwaaÊ¼een":10300,"ALATOOMAA":10301,"ĠGindab":10302,"21":10303,"76":10304,"Baatii":10305,"DuÊ¼":10306,"Gamm":10307,"Qubee":10308,"TII":10309,"kut":10310,"yu":10311,"yis":10312,"Ġgeenya":10313,"chiif":10314,"Ġwer":10315,"Ġdheen":10316,"eessaatti":10317,"Ġbaranne":10318,"Ġlolee":10319,"ĠMog":10320,"iish":10321,"ĠSeeraa":10322,"ote":10323,"Ġhong":10324,"Ġaddeess":10325,"ĠKoloneel":10326,"imoonaa":10327,"ĠTul":10328,"ĠQellem":10329,"eeffachaa":10330,"ĠJaall":10331,"oome":10332,"Ġguddaatti":10333,"Ġguddachaa":10334,"Ġdarara":10335,"Ġhojjatame":10336,"Ġhirrii":10337,"essanii":10338,"Ġdubbi":10339,"ĠdandaÊ¼uuf":10340,"Ġdhalatu":10341,"Ġdhalootatti":10342,"Dhib":10343,"Ġdhiheesse":10344,"Walaloo":10345,"ĠQabeenya":10346,"Ġmudatan":10347,"ĠAbbayyaa":10348,"Sababaa":10349,"Ġgoonee":10350,"Ġhaasawaa":10351,"Ġdeeggartoota":10352,"Ġdubartootaa":10353,"ĠGuyyoo":10354,"Ġmaallaqaan":10355,"ĠGurm":10356,"Ġbilisoomti":10357,"Ġtilmaama":10358,"Ġqaqqabe":10359,"Ġidilee":10360,"ĠmilkaaÊ¼uu":10361,"Ġgeejj":10362,"ĠGodinaalee":10363,"Ġdimookraasii":10364,"qunnamtii":10365,"Garaagar":10366,"Ġhongee":10367,"jektii":10368,"Dabb":10369,"Faay":10370,"akaa":10371,"utt":10372,"aang":10373,"atootaa":10374,"tifi":10375,"ummaatu":10376,"ĠAlem":10377,"uufuu":10378,"iyyu":10379,"Ġgarba":10380,"ĠDand":10381,"Ġdhidh":10382,"aggeen":10383,"ĠJibuu":10384,"arsi":10385,"âĢĿâĢĿ":10386,"Ġdeebinu":10387,"Ġdhaabbii":10388,"Ġdhaabbattan":10389,"ĠYus":10390,"Ġguurr":10391,"Ġmaaliin":10392,"Ġdhagahaa":10393,"Ġdhiit":10394,"Ġuumamaan":10395,"âĢĻ,":10396,"Ġjalqabuu":10397,"Ġkaane":10398,"Ġkanaafuu":10399,"Ġbaafachuuf":10400,"Barataan":10401,"Ġdhumuu":10402,"ĠIsin":10403,"Ġfixe":10404,"Ġmiidhu":10405,"Ġdabraniif":10406,"Ġqindeessuun":10407,"Ġgumaachu":10408,"Ġfaarsu":10409,"AME":10410,"Ġkabachiisuu":10411,"Ġtaphachaa":10412,"Ġkumootaan":10413,"ĠdhangalaÊ¼e":10414,"ĠmariÊ¼achuu":10415,"ĠFincilli":10416,"Ġdukkanaa":10417,"Ġqoodni":10418,"Ġhegeree":10419,"ĠArtistoota":10420,"QabsaaÊ¼":10421,"Ġjumlaa":10422,"Habashoonni":10423,"ĠsossoÊ¼u":10424,"ĠKurnan":10425,"Ġhundumtu":10426,"Ġsibiilaa":10427,"AKK":10428,"Baay":10429,"Or":10430,"Sim":10431,"TaÊ¼us":10432,"form":10433,"gadaa":10434,"kaaf":10435,"les":10436,"maaf":10437,"taaf":10438,"Ġhay":10439,"Ġjaha":10440,"Ġqee":10441,"Ġqayee":10442,"isani":10443,"iinis":10444,"Ġosoon":10445,"ĠAaf":10446,"ĠAKK":10447,"ĠyÃ£":10448,"eenyatti":10449,"ĠMak":10450,"ĠGiin":10451,"Ġtokkumma":10452,"Ġgutuu":10453,"ames":10454,"Ġargata":10455,"Ġduri":10456,"ĠQur":10457,"Ġuummaanni":10458,"Ġhubach":10459,"Ġhubata":10460,"Ġdhalachuu":10461,"Ġdhalootni":10462,"ĠbuÊ¼aalee":10463,"ĠCunqur":10464,"Ġhafnee":10465,"eshaa":10466,"Ġturaniin":10467,"Ġnaannoolee":10468,"ĠDhimm":10469,"ĠPar":10470,"Ġfilatee":10471,"Ġdirqame":10472,"Ġdirqamni":10473,"Kuniis":10474,"ĠAbarraa":10475,"Ġkufaniif":10476,"Ġbuqqisaa":10477,"Ġbuusaa":10478,"Ġbirootti":10479,"Ġgantummaa":10480,"Qabeenya":10481,"Ġrooba":10482,"Ġfacaas":10483,"Ġlabse":10484,"Ġlabsan":10485,"Ġhangafa":10486,"situ":10487,"Ġdhabamsiisuun":10488,"Ġdhagahuu":10489,"ĠGaaffiin":10490,"Ġbalaaleffachuu":10491,"evel":10492,"ĠsochoÊ¼u":10493,"Yaadni":10494,"Ġdhoork":10495,"ĠHooggan":10496,"humna":10497,"qalbii":10498,"Umrii":10499,"ĠBeqq":10500,"Ġqilleens":10501,"ĠWagii":10502,"Kamaal":10503,"Laf":10504,"Pr":10505,"Rabbi":10506,"Yakka":10507,"sum":10508,"seera":10509,"Ġkool":10510,"Ġitiyoo":10511,"alan":10512,"Ġtaatan":10513,"inik":10514,"Ġqaab":10515,"eessun":10516,"Ġjirtuuf":10517,"nillee":10518,"Ġnann":10519,"Ġnyaan":10520,"ĠAR":10521,"oone":10522,"ĠMaaÊ¼ik":10523,"ĠHeera":10524,"Ġwaraq":10525,"Ġilal":10526,"ĠQixx":10527,"ĠJE":10528,"Ġraasaa":10529,"ates":10530,"Ġsobuu":10531,"teetti":10532,"Ġfudhatuun":10533,"iiru":10534,"siisanii":10535,"edi":10536,"ĠCall":10537,"Ġgaggeesse":10538,"Ġhimatu":10539,"Ġcimu":10540,"Ġcimsuuf":10541,"Ġfiigaa":10542,"Ġjennuu":10543,"ĠWalitti":10544,"ĠmulÊ¼isaa":10545,"Ġsabboonummaan":10546,"Ġgabaasan":10547,"Ġgabaasetti":10548,"ĠGalataa":10549,"Ġbarsiisuun":10550,"Ġbaayyina":10551,"ĠHojj":10552,"Ġsaaxilame":10553,"Ġfiroota":10554,"Ġukkaamsee":10555,"Ġbeeksisan":10556,"Ġmiidiyaan":10557,"ĠOlaanaa":10558,"Ġdoorsisuu":10559,"Ġtasgabbiin":10560,"Ġhololaa":10561,"ĠYaada":10562,"Ġbebb":10563,"Ġhaaromsa":10564,"Jechuun":10565,"ĠFaranj":10566,"Hidhaa":10567,"Ġyuunivarsiitii":10568,"ĠHayyu":10569,"Ġsablammoota":10570,"pril":10571,"ĠSabbataa":10572,"Ilaalcha":10573,"35":10574,"Ajaj":10575,"KN":10576,"Muumm":10577,"Og":10578,"bakka":10579,"niif":10580,"neefi":10581,"ater":10582,"tir":10583,"Ġgannaa":10584,"Ġtek":10585,"Ġtayee":10586,"Ġmor":10587,"Ġmamiin":10588,"Ġqis":10589,"Ġqoor":10590,"Ġqax":10591,"ĠqeÊ¼":10592,"Ġkanaafi":10593,"ĠON":10594,"Ġjirtii":10595,"aÊ¼i":10596,"Ġqabachuuf":10597,"Ġhinc":10598,"ĠAaddee":10599,"ammaq":10600,"eraan":10601,"Ġofirra":10602,"Ġargamtu":10603,"Ġuuma":10604,"tuul":10605,"ĠQal":10606,"aggee":10607,"Ġabuk":10608,"arsiti":10609,"Ġsaboonni":10610,"Ġdhablee":10611,"Ġdubbatama":10612,"face":10613,"okra":10614,"Ġqorachuu":10615,"ĠbaÊ¼ii":10616,"aawii":10617,"ĠKanaaf":10618,"Ġgaddi":10619,"ĠTigray":10620,"Ġmiidhagaa":10621,"áīł":10622,"Ġgumaache":10623,"jedhe":10624,"Ġdheeraadhaaf":10625,"Ġagarsiise":10626,"Ġhiikuuf":10627,"Ġmarsee":10628,"Ġkiyyoo":10629,"Ġkiyyatti":10630,"2008":10631,"Ġmuldhata":10632,"199":10633,"Ġbelbel":10634,"ĠFaranjii":10635,"Waaqayyo":10636,"Ġbittim":10637,"ĠSoomaalee":10638,"Ġragaalee":10639,"Guutummaa":10640,"ĠQanyii":10641,"Ġteessuma":10642,"Yuunivarsiitii":10643,"ĠUMMATA":10644,"gahiin":10645,"Biyyaa":10646,"HOR":10647,"Tuul":10648,"View":10649,"WW":10650,"bal":10651,"jijjiir":10652,"Ġed":10653,"aarra":10654,"iituu":10655,"Ġbaana":10656,"Ġtees":10657,"Ġsig":10658,"ĠOfii":10659,"Ġnational":10660,"ammii":10661,"addhu":10662,"iyyii":10663,"Ġgarri":10664,"Ġarree":10665,"Ġhog":10666,"aleetti":10667,"ĠFur":10668,"Ġjechi":10669,"Ġdabarree":10670,"ĠOromiyaatiif":10671,"Ġinuma":10672,"essitoota":10673,"Ġhubannu":10674,"ĠdandaÊ¼eera":10675,"aaÊ¼uun":10676,"ĠAmhar":10677,"Ġajjef":10678,"Ġdhaabe":10679,"Ġhafuun":10680,"aaniitti":10681,"Ġbarreessuun":10682,"Ġfufiinsaan":10683,"Ġjiraattu":10684,"ĠDhag":10685,"ĠDhaamsa":10686,"Ġ36":10687,"Ġbituuf":10688,"Ġbulchaan":10689,"Ġgeggeessuu":10690,"Ġmalkaa":10691,"Ġbadiin":10692,"umaanuu":10693,"isiisuun":10694,"ersiti":10695,"Ġgantuu":10696,"Ġhaaloo":10697,"Ġdhokatee":10698,"áĭŃ":10699,"áĬĵ":10700,"Humn":10701,"ĠLammeessaa":10702,"Ġbalaalef":10703,"Ġtakkaan":10704,"Ġhaqaaf":10705,"Ġhaarayaa":10706,"Ġhogganni":10707,"Ġfaaydaa":10708,"Ġololli":10709,"mpayera":10710,"Ġgolg":10711,"Ġ1966":10712,"iwaat":10713,"jjeechaan":10714,"ĠOgad":10715,"Ġfaranjii":10716,"Ġmilish":10717,"Ġrakkachaa":10718,"Ġgooftolii":10719,"Goota":10720,"\\âĢĻ":10721,"err":10722,"esaa":10723,"kanneen":10724,"tumaa":10725,"tileen":10726,"Ġkanaatiin":10727,"Ġqabaan":10728,"Ġbarachuuf":10729,"Ġlaa":10730,"ahun":10731,"ĠBoq":10732,"ĠGet":10733,"ĠDaaww":10734,"Ġariy":10735,"ufii":10736,"itiif":10737,"ĠSah":10738,"Ġilmoon":10739,"olleen":10740,"ggana":10741,"Ġgaafannu":10742,"allu":10743,"Ġdabru":10744,"Ġqoq":10745,"Ġbarbaadaa":10746,"Ġmuree":10747,"teer":10748,"Ġhubanna":10749,"Ġdhabsiisuuf":10750,"Ġdeemna":10751,"Ġdeemnu":10752,"Ġrakkooleen":10753,"Ġbilisummaatti":10754,"Ġdhaabachuun":10755,"Ġhafin":10756,"Ġbaldhaa":10757,"Ġfilate":10758,"Ġbarbaadnu":10759,"Ġjiruus":10760,"Ġwareegamuu":10761,"Ġwareegamtoota":10762,"Ġdhihaatu":10763,"Ġgootu":10764,"Ġmurteesse":10765,"ĠduÊ¼u":10766,"Ġergamaa":10767,"Ġabboom":10768,"Ġsaamamaa":10769,"Ġxumuree":10770,"Ġjiraachisuuf":10771,"Ġdhiyeessuuf":10772,"Ġgumaata":10773,"Ġkutatee":10774,"Ġdagatamu":10775,"Ġhiriiree":10776,"Humnoonni":10777,"Ġdeggar":10778,"etwork":10779,"Ġdhaale":10780,"Murna":10781,"Barreeffama":10782,"ĠYuniversitii":10783,"Ġshororkeessummaa":10784,"Ġhinjirre":10785,"ĠKabajaa":10786,"Sagaleen":10787,"Adoolessa":10788,"Mariin":10789,"zdaantii":10790,"Guraandhala":10791,"ĠHospit":10792,"Ġgaaffilee":10793,"atnoon":10794,"ĠRaggaasaa":10795,"Bit":10796,"Bif":10797,"QEERROO":10798,"SO":10799,"din":10800,"foo":10801,"hii":10802,"xaxaa":10803,"aanu":10804,"Ġdama":10805,"nitti":10806,"ĠOromiyya":10807,"ĠAti":10808,"attiis":10809,"raatti":10810,"ayyaantuu":10811,"Ġgaafachuuf":10812,"new":10813,"Ġbeektoonni":10814,"Ġdubbistoota":10815,"AAD":10816,"ition":10817,"Ġbula":10818,"Ġtaanan":10819,"eden":10820,"Ġamansiisuu":10821,"Ġdhaabatee":10822,"ĠdhagaÊ¼uu":10823,"Ġhojjete":10824,"Ġjalqabanii":10825,"Ġqabsichaa":10826,"Ġqubsiif":10827,"Ġdandeenyeef":10828,"Ġfuullee":10829,"Ġfalmu":10830,"Ġbananii":10831,"Ġtanaaf":10832,"ĠGalmoo":10833,"Ġgalmeesse":10834,"osted":10835,"ĠtaaÊ¼uun":10836,"Ġmootummoonni":10837,"Ilmi":10838,"Ġagarsiisuuf":10839,"Ġdugda":10840,"Ġkakuu":10841,"Ġdhageessif":10842,"Ġdhugoomsuu":10843,"Ġxinnoo":10844,"Dhaabbilee":10845,"ĠPaartii":10846,"Ġgowwoomsuu":10847,"Ġhave":10848,"Ġkaardii":10849,"Ġbaball":10850,"Ġbashannanaa":10851,"Gabrummaa":10852,"Ġqaxxaamur":10853,"ĠTolasaa":10854,"Fir":10855,"UQ":10856,"lin":10857,"pe":10858,"Ã¢":10859,"Ġdul":10860,"amaariyaam":10861,"Ġbak":10862,"Ġbac":10863,"Ġga":10864,"Ġgamee":10865,"Ġgeer":10866,"Ġsaatii":10867,"isummaa":10868,"Ġnub":10869,"aafoo":10870,"aaffaa":10871,"Ġobb":10872,"aatullee":10873,"Ġbarootaaf":10874,"Ġceen":10875,"Ġculul":10876,"uff":10877,"ĠHot":10878,"Ġgug":10879,"ĠKitaaba":10880,"imaan":10881,"ĠTBOJ":10882,"Ġdhibaa":10883,"ĠQulqull":10884,"Ġbeekani":10885,"Ġbeektota":10886,"amuudhaan":10887,"Ġnamichi":10888,"awuun":10889,"ĠLubbuu":10890,"Ġeegamaa":10891,"Ġlammilee":10892,"Ġbarreessuuf":10893,"ĠkaÊ¼umsa":10894,"dhaabb":10895,"Ġummatichaa":10896,"Ġkeesa":10897,"ight":10898,"Ġamanne":10899,"ĠAbdi":10900,"Ġbulchuuf":10901,"Ġhawwa":10902,"Ġdhaqe":10903,"Ġadabaa":10904,"Gaafas":10905,"eessitootaa":10906,"ĠTPLFn":10907,"Ġtureedha":10908,"ĠBiyyi":10909,"Ġdamma":10910,"Keessum":10911,"Ġ1998":10912,"Ġdammaqiinsa":10913,"Ġsirreessuu":10914,"chiisuu":10915,"ĠGamtoom":10916,"Duraan":10917,"Ġollaatti":10918,"5555":10919,"ĠAyyaantuu":10920,"........":10921,"Ġraajeff":10922,"Ġquunnamtii":10923,"Ġqaawwa":10924,"ĠLiberation":10925,"Aadde":10926,"Iyy":10927,"Maar":10928,"faasaa":10929,"keessatti":10930,"tod":10931,"amtootni":10932,"Ġhoolaa":10933,"Ġac":10934,"Ġadaa":10935,"Ġdhee":10936,"Ġdhalaa":10937,"Ġniitii":10938,"Ġqabaach":10939,"Ġloo":10940,"Ġlaataa":10941,"attaaf":10942,"ĠDilbata":10943,"ĠHaaj":10944,"ĠKaayy":10945,"onii":10946,"ittis":10947,"ĠTam":10948,"Ġdursuu":10949,"ĠFar":10950,"neerra":10951,"oomaan":10952,"ĠUl":10953,"Ġdeebitee":10954,"Ġdubbisuun":10955,"ĠLaf":10956,"Ġjabaat":10957,"Ġbultoonni":10958,"Ġdhuftan":10959,"Ġtaana":10960,"Ġtaanu":10961,"Ġhafaa":10962,"ĠRaash":10963,"Dhukk":10964,"Ġeeb":10965,"Ġgurmaa":10966,"Ġdangaa":10967,"Ġbilisaa":10968,"Ġsaaminsa":10969,"Ġbaafatan":10970,"Ġhalk":10971,"Ġsabboontoota":10972,"ANII":10973,"Ġgandummaa":10974,"Ġmadeessuu":10975,"Ġqabsaawoota":10976,"Ġdabrees":10977,"Ġboriif":10978,"Ġbarsiisan":10979,"Ġhangafaa":10980,"jedheen":10981,"Ġhiriiran":10982,"Ġhiriiranii":10983,"Ġfincilaa":10984,"accee":10985,"Ġtumsuu":10986,"Ġbabaldh":10987,"ĠErg":10988,"gaafatama":10989,"Ġgodaanan":10990,"Ġgonfachuuf":10991,"Ġburq":10992,"Ġgabaafameera":10993,"Ġtilmaamuun":10994,"Ġfuny":10995,"Ġimpaayara":10996,"Ġalagaaf":10997,"Ġmiliyoonaan":10998,"ĠTafarii":10999,"Itoophiyaan":11000,"Tooftaa":11001,"ĠIdil":11002,"ĠMangistuu":11003,"IYYA":11004,"Ġitoophiyaa":11005,"AS":11006,"Hedduun":11007,"IBB":11008,"ham":11009,"Ġkaasa":11010,"Ġgoob":11011,"ĠmuulÊ¼":11012,"chiisaa":11013,"Ġqir":11014,"iinsii":11015,"Ġhinq":11016,"annaaf":11017,"ĠBr":11018,"ĠtaÊ¼un":11019,"Ġjedhamaa":11020,"ĠMumm":11021,"ĠMarg":11022,"ĠGor":11023,"ĠGand":11024,"Ġisaanif":11025,"ĠHD":11026,"ĠHor":11027,"ĠHord":11028,"Ġgowwaa":11029,"Ġkuniis":11030,"ĠKil":11031,"ĠKall":11032,"ĠKaab":11033,"ĠTuu":11034,"ĠFayyaa":11035,"Ġrabbi":11036,"Ġgodhaniin":11037,"Ġdubbisee":11038,"Ġmartuu":11039,"ĠAmnes":11040,"Ġjabaannee":11041,"Ġpar":11042,"akoo":11043,"Ġqophaa":11044,"ooticha":11045,"Ġamal":11046,"áĪ¨":11047,"Ġkeessanitti":11048,"eessitan":11049,"Ġguutumatti":11050,"Ġmiidhamaa":11051,"Ġukkan":11052,"Ġqabsaawan":11053,"Ġborii":11054,"ĠSadaasaa":11055,"Ġagarsiisuun":11056,"Ġmakamuun":11057,"Ġdubartiin":11058,"oolleejjii":11059,"ĠIrraan":11060,"ĠsochoÊ¼uu":11061,"Ġsarbamee":11062,"iqaaduu":11063,"Deebii":11064,"Ġwalgahiin":11065,"ĠOgaadeen":11066,"ĠlakkaÊ¼aman":11067,"Ġinvas":11068,"Ġcarraaqqii":11069,"ĠBULAA":11070,"Bishaan":11071,"GS":11072,"Waayeen":11073,"namaa":11074,"Ġ@":11075,"Ġdudhaa":11076,"Ġfoo":11077,"Ê¼ii":11078,"ootee":11079,"Ġjirtanii":11080,"aalchaa":11081,"ĠOromoodha":11082,"Ġour":11083,"Ġopd":11084,"ĠMedia":11085,"ĠGAL":11086,"afii":11087,"iisii":11088,"ittu":11089,"ittummaa":11090,"pha":11091,"ifatee":11092,"ĠQalloo":11093,"eeffatu":11094,"ĠUS":11095,"Ġmuraa":11096,"eesuun":11097,"Ġdhalataa":11098,"Ġhimamu":11099,"chise":11100,"Ġkeesaa":11101,"Ġhammayyaa":11102,"Ġ195":11103,"oprotests":11104,"Ġqoratee":11105,"Ġyaalanii":11106,"Ġsaamanii":11107,"Ġkeenyarraa":11108,"Ġjiraachu":11109,"Ġjijjiiramu":11110,"Ġwantoota":11111,"isiisan":11112,"ĠAbbichuu":11113,"Ġwallaalaa":11114,"Ġhawaasi":11115,"Ġbaand":11116,"Ġgumaachuuf":11117,"Ġhangamuu":11118,"Ġeeggannoo":11119,"Ġgareelee":11120,"diinni":11121,"aphee":11122,"ĠAwustir":11123,"oromo":11124,"Ġguyyuma":11125,"Ġwarruma":11126,"Ġoofan":11127,"Ġobsaan":11128,"Ġgubatee":11129,"Ġjirretti":11130,"Ġadeemsifame":11131,"Jechi":11132,"Ġeebbifamaa":11133,"Ġaangoon":11134,"ĠSheekh":11135,"Ġministeer":11136,"Ġgosoota":11137,"Baqattoonni":11138,"ĠOFC":11139,"Ġmararfannoo":11140,"Ġmaadhee":11141,"Ġmidiyaa":11142,"FFAA":11143,"Ġlammiwwan":11144,"AYYAAN":11145,"Ġimpaayerittii":11146,"Ġtartiiba":11147,"38":11148,"Ish":11149,"Mil":11150,"Piree":11151,"Rev":11152,"jal":11153,"tarri":11154,"xe":11155,"Ġkootiin":11156,"tik":11157,"Ġjil":11158,"umsaaf":11159,"Ġakaa":11160,"aaluun":11161,"Ġlaatu":11162,"ĠBan":11163,"ayyu":11164,"ĠSaphaloo":11165,"achuudhaaf":11166,"Ġdursinee":11167,"ĠJaag":11168,"adhaan":11169,"Ġijaajj":11170,"Ġmurtoo":11171,"Ġdhabsiisuu":11172,"ĠharÊ¼atti":11173,"ĠRep":11174,"Ġlammaffaan":11175,"Ġfufeera":11176,"Ġwayyaaneedhaan":11177,"Ġdadhabb":11178,"Ġhawwu":11179,"..?":11180,"ĠInves":11181,"Ġdiiguun":11182,"Ġhirmaachuun":11183,"Ġseeran":11184,"Ġmankar":11185,"ĠHawaasni":11186,"ĠdhangalaÊ¼ee":11187,"Ġhubachiise":11188,"Ġkiyyaan":11189,"Ġwaggota":11190,"ĠOromootif":11191,"tokkummaa":11192,"ĠhindandaÊ¼u":11193,"Ġkijiba":11194,"Jireenya":11195,"Ġfayidaa":11196,"Daandii":11197,"TVOMT":11198,"ĠKuttaayee":11199,"Ġhinturre":11200,"qeerroo":11201,"Ham":11202,"Jara":11203,"Muu":11204,"Mammaak":11205,"Qondaal":11206,"sad":11207,"xu":11208,"yahoo":11209,"Ġkaaww":11210,"Ġhala":11211,"Ġjila":11212,"inaafi":11213,"oott":11214,"ummoo":11215,"ĠjeÊ¼":11216,"ĠWM":11217,"ĠHii":11218,"Ġgubee":11219,"Ġilm":11220,"Ġarginu":11221,"atanitti":11222,"Ġdiinarratti":11223,"aaya":11224,"Ġsokk":11225,"Ġgodheera":11226,"Ġsirumaa":11227,"ĠLal":11228,"Ġfakkii":11229,"Ġfakkata":11230,"Ġfakkeessii":11231,"ormaata":11232,"Ġlammata":11233,"Ġqopheessaa":11234,"ĠmilÊ¼":11235,"Ġhoriin":11236,"Ġhammatu":11237,"ĠWalda":11238,"ĠItoophiyummaa":11239,"ĠAddunyaan":11240,"Ġfurmaataa":11241,"isuufi":11242,"Ġjaalatamaa":11243,"Ġfacaasaa":11244,"SAT":11245,"Ġqindeessuu":11246,"Ġyakkoota":11247,"Ġqeerran":11248,"Ġhubachuudhaan":11249,"Ġfaarsuun":11250,"jedha":11251,"ĠAnni":11252,"Ġobsaa":11253,"ĠAsm":11254,"Ġcinaatti":11255,"Ġ1970":11256,"Ġkaffalaa":11257,"Ġqeeqa":11258,"Ġviid":11259,"ĠMohammad":11260,"Ġmeeshaan":11261,"Ġfaashistummaa":11262,"ĠSudan":11263,"ĠKiristaan":11264,"Ġfayad":11265,"Ġraadiyoon":11266,"Ġsuph":11267,"Ġcitne":11268,"ĠDhiiga":11269,"ĠFaaxumaa":11270,"ĠItyoophiyaa":11271,"AH":11272,"Gand":11273,"Kuf":11274,"Leen":11275,"Qal":11276,"ds":11277,"ue":11278,"yan":11279,"zed":11280,"âĤ":11281,"amsaa":11282,"amtanii":11283,"Ġhik":11284,"eessummaan":11285,"oonn":11286,"uufaa":11287,"adaay":11288,"iyyaan":11289,"ĠMaraa":11290,"Ġce":11291,"Ġcarra":11292,"ĠWand":11293,"ĠDaj":11294,"Ġisaatin":11295,"Ġwaanjoo":11296,"aamoo":11297,"Ġaddan":11298,"ĠKoo":11299,"ifama":11300,"ĠhariÊ¼":11301,"Ġgalanni":11302,"idhaa":11303,"ĠJaaf":11304,"Ġollaan":11305,"Ġdeebisa":11306,"Ġhiriyyaa":11307,"Ġhubadhe":11308,"Kanumaan":11309,"Ġshall":11310,"ĠmarÊ¼":11311,"Ġkennama":11312,"Ġguute":11313,"Ġeeguuf":11314,"Ġmootummaatti":11315,"Ġsanas":11316,"Ġbarreessaan":11317,"ashii":11318,"Ġalbuu":11319,"ĠSham":11320,"Ġmormu":11321,"Ġmagaalaawwan":11322,"ulleen":11323,"Ġbiraati":11324,"Ġhammaate":11325,"reak":11326,"Ġlolu":11327,"ibu":11328,"ĠWBOf":11329,"ugust":11330,"Ġdantaan":11331,"Ġgeggef":11332,"Ġjijjiiree":11333,"Ġjirtutti":11334,"Ġaduun":11335,"Ġbuusanii":11336,"Ġhooggantoota":11337,"Ġdiim":11338,"Ġdhangalaas":11339,"bulaa":11340,"Ġjilbiif":11341,"Ġbaqattootaa":11342,"Ġmatad":11343,"Ġzoonii":11344,"Baarentuu":11345,"Gabaabumatti":11346,"Ġqoofa":11347,"ĠJibuutii":11348,"âĤ¬":11349,"It":11350,"Pre":11351,"Qaamni":11352,"TOKK":11353,"cl":11354,"ie":11355,"iiz":11356,"Ġkumaa":11357,"Ġkuusaa":11358,"ari":11359,"ator":11360,"abiin":11361,"ĠjaÊ¼a":11362,"dhimma":11363,"Ġqulq":11364,"aalota":11365,"Ġqabanne":11366,"ĠAtilee":11367,"annuuf":11368,"ĠBin":11369,"ĠDarraa":11370,"ĠDaran":11371,"ĠHad":11372,"Ġguduun":11373,"aame":11374,"Ġofis":11375,"amed":11376,"eeffamuun":11377,"Ġdabraa":11378,"aayoo":11379,"Ġrep":11380,"ennu":11381,"Ġsiree":11382,"Ġbahuudhaan":11383,"Ġbakkayyuu":11384,"Ġkennin":11385,"Ġkenneef":11386,"Ġkennamuuf":11387,"Ġhafanii":11388,"Ġijaaramuun":11389,"Ġempaayera":11390,"aabaan":11391,"Ġamoo":11392,"Ġnagahaa":11393,"Ġkanattis":11394,"Ġwaamu":11395,"Ġxiqqoon":11396,"Ġballeess":11397,"therland":11398,"Ġdeeggaruu":11399,"Ġhordofee":11400,"Ġhordoftoota":11401,"ĠBultoo":11402,"ĠHabashootni":11403,"Ġpoolisoonni":11404,"Ġdalaguu":11405,"Ġsababaan":11406,"Ġkakaase":11407,"Ġhaarawaan":11408,"Ġfardaa":11409,"ĠErtiraa":11410,"âĢ¦âĢ¦âĢ¦âĢ¦âĢ¦âĢ¦âĢ¦âĢ¦âĢ¦âĢ¦âĢ¦âĢ¦âĢ¦âĢ¦âĢ¦âĢ¦":11411,"Lammiin":11412,"Ġirk":11413,"Ġhambisuu":11414,"Dhaloonni":11415,"Ġroorrisaa":11416,"Jech":11417,"Ġkaaba":11418,"Ġdhageesisuun":11419,"Ġciccir":11420,"Amantiin":11421,"Dhiiga":11422,"ĠGondar":11423,"ĠGinb":11424,"ĠGoobanaa":11425,"Dabalataanis":11426,"facebook":11427,"46":11428,"Bifa":11429,"IC":11430,"Is":11431,"News":11432,"YYAA":11433,"eti":11434,"out":11435,"Ġkaate":11436,"Ġdaar":11437,"Ġhaph":11438,"Ġgatiin":11439,"iins":11440,"ĠAss":11441,"Ġbaruuf":11442,"Ġbaruma":11443,"aaran":11444,"ĠGinc":11445,"ĠWAA":11446,"ĠDoolloo":11447,"ĠSolom":11448,"Ġtureefi":11449,"ĠHim":11450,"Ġbiyyarraa":11451,"Ġilaamee":11452,"Ġofiis":11453,"ĠFiqaaduu":11454,"ubbii":11455,"ooleessa":11456,"arriffaa":11457,"Ġhaaw":11458,"Ġhubatama":11459,"Ġdubbatuu":11460,"bass":11461,"Ġdhaabbatuun":11462,"Ġbahani":11463,"Ġdhufeef":11464,"Ġdhalatte":11465,"Ġamanamaa":11466,"Ġhafaniif":11467,"Ġhimamaa":11468,"Ġbokkaa":11469,"Ġqopheessee":11470,"Ġummaticha":11471,"Ġash":11472,"Ġbaqate":11473,"Ġtahetti":11474,"Ġqoratanii":11475,"Ġkufuu":11476,"Ġhawwinu":11477,"Ġbaafame":11478,"Ġfalmachuuf":11479,"ĠbobbaÊ¼ee":11480,"eeysa":11481,"Ġbuutee":11482,"Ġfageenya":11483,"Ġgandaan":11484,"Ġdiigee":11485,"Ġlabsuu":11486,"Ġqindeessaa":11487,"Ġhanqatee":11488,"Ġsaaxilaman":11489,"Ġgayan":11490,"ATI":11491,"Ġkakaasuu":11492,"Ammallee":11493,"ĠHayiluu":11494,"ĠdhangalaÊ¼aa":11495,"Ġfederal":11496,"Ġhubachiisan":11497,"Ġdhagayame":11498,"Ġgodinichaa":11499,"ĠRoobee":11500,"ĠDiimaan":11501,"hojj":11502,"ĠWaaqayyoon":11503,"Ġmanguddoo":11504,"Eenyummaa":11505,"Ġdemokraasii":11506,"ĠNafxanyaa":11507,"ĠImpaayer":11508,"Ġhubatameera":11509,"Ġhundaawe":11510,"Ġteeknool":11511,"Ġmummee":11512,"oromiapo":11513,"ĠBeenishaangul":11514,"ĠNajjoo":11515,"45":11516,"Dach":11517,"Gootummaan":11518,"If":11519,"Qar":11520,"Xalayaa":11521,"eyyii":11522,"gumaa":11523,"qaaq":11524,"ratti":11525,"rati":11526,"seenaa":11527,"taatti":11528,"the":11529,"eetiin":11530,"aanaan":11531,"atummaa":11532,"Ġbinee":11533,"Ġgat":11534,"Ê¼uma":11535,"Ġwill":11536,"Ġaw":11537,"Ġsaani":11538,"istan":11539,"isutti":11540,"Ġnaas":11541,"aattiin":11542,"ammuun":11543,"ĠGQM":11544,"ĠDeegg":11545,"ĠKal":11546,"ĠKaar":11547,"Ġargattu":11548,"Ġdursaa":11549,"Ġisaaniirraa":11550,"ĠQonnaa":11551,"Ġyaadee":11552,"eeffata":11553,"Ġgaltuu":11554,"Ġbirrii":11555,"aayi":11556,"Ġxiq":11557,"Ġxuq":11558,"Ġheddun":11559,"Ġhangaa":11560,"ĠYoom":11561,"Ġkennamaa":11562,"oorm":11563,"isuudhaan":11564,"Ġjedhanis":11565,"Ġeebbaa":11566,"Ġdhiheessa":11567,"Ġfedhaa":11568,"âĢľâĢľ":11569,"Ġdadhabanii":11570,"Ġhawwaa":11571,"Ġfalmatu":11572,"ĠbobbaÊ¼":11573,"Ġjijjiiramuu":11574,"Ġkami":11575,"ĠXal":11576,"Ġfagaachuu":11577,"Ġganam":11578,"Ġdiiggaa":11579,"Ġgalmees":11580,"Ġbarsiisu":11581,"Ġcabse":11582,"ĠtaaÊ¼e":11583,"Ġbiliyoona":11584,"AANN":11585,"Ġsaaxiluun":11586,"Ġwarraaqsi":11587,"Ġqulqullina":11588,"Ġsossoh":11589,"Ġrasaasaa":11590,"Ġdhukaasaa":11591,"Ġormi":11592,"Ġdandayama":11593,"Ġwallaalummaa":11594,"Ġsiidaan":11595,"xeem":11596,"ĠDaaniyaa":11597,"Ġbadhaaf":11598,"eviz":11599,"Gochaa":11600,"Ġbittin":11601,"maaliif":11602,"Amantii":11603,"ĠHogganoota":11604,"Ġkeysatti":11605,"Ġfoyy":11606,"Ġdandeessisu":11607,"Ġafanfaa":11608,"Ġgibira":11609,"Ġaffeer":11610,"apolis":11611,"ĠMiÊ¼eessoo":11612,"Ġriqicha":11613,"Ġhinfakkaatu":11614,"evelop":11615,"AK":11616,"Ch":11617,"Hii":11618,"Haga":11619,"Yoon":11620,"maqaa":11621,"tam":11622,"wanii":11623,"xxoo":11624,"Ġâ":11625,"Ġann":11626,"Ġkiiloo":11627,"Ġjim":11628,"Ġmand":11629,"choo":11630,"Ġwaayy":11631,"eennaa":11632,"ĠOromummaaf":11633,"ĠAdaa":11634,"Ġyaanni":11635,"ĠBachoo":11636,"ĠtaÊ¼ani":11637,"attummaa":11638,"ĠSource":11639,"Ġwarshaa":11640,"Ġargatin":11641,"ĠFiil":11642,"Ġgaafanne":11643,"Ġmaleetti":11644,"Ġabidda":11645,"Ġguddittii":11646,"Ġseenaatu":11647,"udhaf":11648,"Ġhojjenne":11649,"Ġgabatee":11650,"Ġdhaabbiilee":11651,"ĠYemen":11652,"eerratti":11653,"Ġhimaan":11654,"Ġhimata":11655,"Ġdarbuuf":11656,"Ġmiseen":11657,"Ġkanaati":11658,"ĠArb":11659,"ĠAbaba":11660,"Ġqubeen":11661,"Ġdhiisnee":11662,"ĠbaÊ¼a":11663,"Ġmalaan":11664,"ĠQBOn":11665,"Ġbobbaase":11666,"Baroota":11667,"Ġwantin":11668,"Ġballeessu":11669,"Ġkutannoon":11670,"Ġcufuun":11671,"Ġlabsuun":11672,"ookr":11673,"áĭ¨":11674,"Ġsarara":11675,"Ammaan":11676,"Ġdureewwan":11677,"Ġbalaaleffachuun":11678,"ĠGarbummaa":11679,"Ġhadhaaw":11680,"Ġbilisoomsuu":11681,"Ġgoolii":11682,"Ġfashalsuuf":11683,"Ġolloota":11684,"Ġfeete":11685,"Ġfeetan":11686,"iyyeewwan":11687,"Ġgootichi":11688,"Ġsukkan":11689,"ĠHaayil":11690,"ĠDimookiraasii":11691,"ĠEjer":11692,"Ġmudhii":11693,"ĠFINFINNEE":11694,"Gurraandhala":11695,"Ġdheenga":11696,"By":11697,"Bur":11698,"Balaan":11699,"Gaash":11700,"Maq":11701,"Maatii":11702,"fir":11703,"ida":11704,"tur":11705,"ysaa":11706,"ĠáĮ":11707,"aatin":11708,"Ġdiyaasp":11709,"tirraa":11710,"Ġgit":11711,"Ġteenye":11712,"Ġtalii":11713,"dheen":11714,"eenis":11715,"urce":11716,"aalu":11717,"ddii":11718,"aniitti":11719,"Ġotuma":11720,"aatuma":11721,"Ġwalfaan":11722,"Ġlaachuun":11723,"mmii":11724,"ĠBBC":11725,"eefachuu":11726,"ĠMAAL":11727,"Ġcubb":11728,"ĠGaree":11729,"Ġtokkumaa":11730,"ĠDaadhii":11731,"Ġbiyyuma":11732,"Ġdaboo":11733,"ayii":11734,"Ġmirkana":11735,"Ġijoon":11736,"Ġdhabamu":11737,"Ġwaliinii":11738,"ĠNug":11739,"ĠLix":11740,"Ġfakkaachuu":11741,"ĠElem":11742,"ajjab":11743,"isuudha":11744,"ĠRights":11745,"ĠsochaÊ¼uu":11746,"ĠShG":11747,"Ġ33":11748,"Ġoolchuun":11749,"Ġdhiheessuuf":11750,"ĠmulÊ¼isan":11751,"effame":11752,"Ġamna":11753,"Ġfurmaanni":11754,"Ġbilisom":11755,"Ġdhaama":11756,"Ġmirkaneessan":11757,"ĠQBOf":11758,"Ġhundaati":11759,"ahaammad":11760,"Ġshakku":11761,"Ġjibban":11762,"Ġhangana":11763,"Ġmaxxansaa":11764,"Ġsababeeffachuun":11765,"ABA":11766,"Ġdubartoonni":11767,"Ġmukaa":11768,"Ġdirreetti":11769,"waliin":11770,"Ġkaroorfame":11771,"Ġmuldhatu":11772,"vern":11773,"zidaant":11774,"Ġgabaabb":11775,"ĠAmerik":11776,"Ġkamiinu":11777,"ĠNaqamte":11778,"ĠBeekan":11779,"Ġbasaasota":11780,"Ministi":11781,"Miseensota":11782,"Ġdoorsisa":11783,"Ġquuqama":11784,"ilaaniin":11785,"Ġiddoon":11786,"Ġjaalatamoo":11787,"ĠTasfahuun":11788,"Ġloogii":11789,"ĠOnkololeessa":11790,"ĠKaroora":11791,"ĠAwrooppaa":11792,"ĠVictoria":11793,"Ġbebbeek":11794,"HORAA":11795,"70":11796,"86":11797,"GALATOOMAA":11798,"IM":11799,"Jab":11800,"MulÊ¼":11801,"Nagaa":11802,"Obbol":11803,"THBO":11804,"kabaj":11805,"ou":11806,"rop":11807,"summaa":11808,"varsiitii":11809,"Ä°":11810,"Ġdaak":11811,"ameefi":11812,"Ġhuu":11813,"Ġimaanaa":11814,"Ġfann":11815,"Ġmamm":11816,"Ġqaar":11817,"iseen":11818,"Ġnadh":11819,"Ġnarra":11820,"Ġnammi":11821,"Ġone":11822,"ĠAj":11823,"Ġkeessani":11824,"iloo":11825,"Ġlamuu":11826,"Ġlak":11827,"ĠBen":11828,"jjaa":11829,"Ġcaffee":11830,"ĠWaaÊ¼ee":11831,"ĠDabal":11832,"iftuu":11833,"Ġdandeenne":11834,"Ġtahaniif":11835,"ĠFaanaa":11836,"ubbaa":11837,"Ġgaafachiisu":11838,"Ġgaleessaa":11839,"ĠJib":11840,"amuudha":11841,"Ġhirr":11842,"ĠCa":11843,"Ġsadiin":11844,"Ġsadaasa":11845,"Ġajjeessaa":11846,"ĠdhagaÊ¼aa":11847,"Ġfufsiisuuf":11848,"ĠShif":11849,"Ġhojjetee":11850,"Ġfilatu":11851,"axxan":11852,"Ġeenyullee":11853,"Waldaa":11854,"ĠOPDOtti":11855,"Ġwaamichaa":11856,"Ġtae":11857,"Ġdadhabnee":11858,"Ġxumure":11859,"ĠbobbaÊ¼uun":11860,"Ġbuusan":11861,"Harka":11862,"affeen":11863,"Ġtolchuu":11864,"Ġaangoorra":11865,"Ġtaasifnu":11866,"Ġjibbu":11867,"Ġhanqate":11868,"taroota":11869,"ĠqabsaaÊ¼u":11870,"ĠqabsaaÊ¼uu":11871,"Ġtarkaanfachuu":11872,"Ġbasaasaa":11873,"Ġobboleessi":11874,"Ġmidhaa":11875,"Ã©e":11876,"Ã©ss":11877,"Ġofiifuu":11878,"Ġwaaroo":11879,"Ġ1973":11880,"Ġ1976":11881,"Ġkophaatti":11882,"Yaadannoo":11883,"ĠSouth":11884,"Ġstate":11885,"Ġfokkisaa":11886,"Ġcomment":11887,"OOTUMMAA":11888,"Ġgubbaatti":11889,"ĠMaandeellaa":11890,"Duuba":11891,"ĠKEENYA":11892,"ĠKarrayyuu":11893,"ĠSEENAA":11894,"news":11895,"Gootummaa":11896,"Harra":11897,"Hanq":11898,"Kolon":11899,"Maall":11900,"Maangudd":11901,"TU":11902,"qixx":11903,"ven":11904,"Ġheerri":11905,"ĠjaÊ¼an":11906,"chun":11907,"Ê¼oo":11908,"Ġsaaf":11909,"omsa":11910,"ĠOromÃ¸":11911,"Ġjettuu":11912,"ĠBaallii":11913,"Ġcuun":11914,"ulaan":11915,"ĠarÊ¼":11916,"Ġittis":11917,"leewwan":11918,"ĠIty":11919,"Ġgogg":11920,"ubs":11921,"ĠTPDM":11922,"ĠQum":11923,"Ġgaafasii":11924,"Ġdhadhaa":11925,"Ġbeektuu":11926,"amuutti":11927,"ĠOromiyaas":11928,"Ġhidhan":11929,"Ġhojjanne":11930,"Ġinnii":11931,"ĠdandaÊ¼anii":11932,"use":11933,"Ġkenneen":11934,"Ġrakkinni":11935,"oork":11936,"Ġijaarsi":11937,"ĠkaÊ¼eef":11938,"Ġtahuudhaan":11939,"Ġamannee":11940,"ĠduÊ¼anii":11941,"Ġnageenyi":11942,"Ġbittoota":11943,"Ġyaalamaa":11944,"Ġ46":11945,"Ġtau":11946,"ĠAlmaaz":11947,"Ġballeessuun":11948,"Ġgaddaan":11949,"Ġdhume":11950,"Ġbarnoot":11951,"Ġbarnootaaf":11952,"Ġroobaa":11953,"Ġdeeggaraa":11954,"Ġcabsu":11955,"Ġboonsu":11956,"Ġleenca":11957,"Ġsodaatu":11958,"ĠHabasha":11959,"Ġsaaxile":11960,"Ġdhibbootaan":11961,"Ġbeelli":11962,"ĠHayile":11963,"Ġdhageessisan":11964,"Ġhubachiisee":11965,"Ġlaalu":11966,"ĠAkkasumas":11967,"Ġdeggertoota":11968,"ĠErga":11969,"ĠdhamaÊ¼aa":11970,"gaÊ¼ii":11971,"Ġergamtoonni":11972,"Ġqeequu":11973,"Ġdabalees":11974,"Ã¼n":11975,"Ġbakkeewwan":11976,"ĠJaarmayaa":11977,"Ġbeeyl":11978,"Ġshiraan":11979,"ĠJechuun":11980,"ĠUsmaan":11981,"Ġbuune":11982,"Jalqaba":11983,"ĠNetherland":11984,"ĠTsahaayyee":11985,"Ġsuukaneessaa":11986,"ermany":11987,"ĠBiqilaa":11988,"Ġherreg":11989,"ĠAsaffaa":11990,"ĠAannolee":11991,"33":11992,"Dand":11993,"Ejj":11994,"Garg":11995,"Gootichi":11996,"IRR":11997,"UK":11998,"Warrii":11999,"pol":12000,"qoph":12001,"sochii":12002,"eesaa":12003,"atuufi":12004,"Ġbana":12005,"altal":12006,"Ġfuuf":12007,"Ġwax":12008,"Ġagaazii":12009,"urg":12010,"Ġniin":12011,"aÊ¼amu":12012,"Ġqabamuu":12013,"Ġyeer":12014,"oonnis":12015,"Ġloonii":12016,"Ġjedhaniif":12017,"ĠMIR":12018,"Ġgaraatiin":12019,"ĠGiddaa":12020,"Ġittisuun":12021,"itootaa":12022,"ĠIJ":12023,"ĠHool":12024,"ĠKot":12025,"ĠKFO":12026,"amaniin":12027,"ĠhundaaÊ¼ee":12028,"ĠTaammanaa":12029,"Ġdursu":12030,"Ġyookan":12031,"ĠOromiyaatiin":12032,"Ġguddisuun":12033,"Ġdararuu":12034,"ĠUumaa":12035,"Ġdeebin":12036,"Ġhiriy":12037,"Ġwaliinis":12038,"ĠdandaÊ¼ameera":12039,"addii":12040,"ooftu":12041,"ĠCar":12042,"Ġajjeessuu":12043,"esuu":12044,"aasaadd":12045,"Ġturanitti":12046,"Ġ39":12047,"Ġcimsanii":12048,"ulle":12049,"ĠduÊ¼aaf":12050,"Ġkaans":12051,"Ġmirkaneessee":12052,"Ġwaamee":12053,"áĪĺ":12054,"Ġtolch":12055,"Ġcarraaqaa":12056,"Ġjetteen":12057,"atameef":12058,"Ġsaaxilee":12059,"Ġdabartee":12060,"Ġ90":12061,"sifamaa":12062,"Ġbayuu":12063,"ATT":12064,"Ġonneen":12065,"Ġsababii":12066,"Ġ1990":12067,"Ġtuqaa":12068,"ebsite":12069,"Ġtasgabbaa":12070,"Ġqondaalonni":12071,"Ġbeeyne":12072,"Gootota":12073,"iviliz":12074,"ĠItopiyaa":12075,"Ġsaaniif":12076,"ĠJaarmay":12077,"Ġbashannan":12078,"Leencoo":12079,"Ġdungoo":12080,"ĠAFAAN":12081,"ovember":12082,"Ġsakkatt":12083,"ĠAbdullaah":12084,"Ġwixxif":12085,"ĠBeqqelee":12086,"ĠQixxeessaa":12087,"vernment":12088,"80":12089,"Bo":12090,"DaaÊ¼":12091,"Imaamm":12092,"Keessaa":12093,"US":12094,"biyaa":12095,"bor":12096,"hamm":12097,"orra":12098,"Ġjii":12099,"Ġteenna":12100,"Ġmoonaa":12101,"inf":12102,"Ġwa":12103,"Ġdhama":12104,"ĠOlaan":12105,"ĠAhim":12106,"aaru":12107,"ĠDod":12108,"Ġtokkof":12109,"Ġabsh":12110,"Ġseensa":12111,"ĠUni":12112,"ĠABOtiin":12113,"Ġgodhachuu":12114,"Ġdubbanne":12115,"Ġdubbisu":12116,"Ġsirri":12117,"aaÊ¼oo":12118,"Ġmarga":12119,"Ġdhaabbannu":12120,"Ġbaheef":12121,"Ġlafaan":12122,"Ġaanan":12123,"Ġeegan":12124,"Ġsadiif":12125,"Ġdhaaboota":12126,"Ġhimuuf":12127,"Ġmiidha":12128,"ĠkaÊ¼a":12129,"Dhih":12130,"Kanaafu":12131,"Ġaddaatin":12132,"Ġdirqiin":12133,"Ġhorate":12134,"Ġjalqabamee":12135,"ĠduÊ¼uun":12136,"Ġmirkaneessaa":12137,"Ġdadhabsiisuu":12138,"ĠMinnes":12139,"Ġhiikaa":12140,"Ġdiigamu":12141,"Ġgaddisiisa":12142,"Ġgamtoom":12143,"kfurt":12144,"ĠBiyyoo":12145,"Ġeeggachuun":12146,"Ġajajni":12147,"Ġdhaadannoon":12148,"Ġqajeele":12149,"Ġkonkolaat":12150,"Ġkallatti":12151,"ĠOrtod":12152,"ocra":12153,"Ġboodarra":12154,"Ġpolisii":12155,"ĠRoorroo":12156,"Ġduguuginsa":12157,"Ġbarbaaddan":12158,"Ġreeffi":12159,"Nutis":12160,"ĠSiidaa":12161,"Ġkudhanii":12162,"Ġwarshaalee":12163,"Ġbaldhinaan":12164,"ĠKenname":12165,"Ġbarabaraan":12166,"ĠAafrikaa":12167,"Fkn":12168,"Nafxan":12169,"Yakki":12170,"diyaa":12171,"gy":12172,"haala":12173,"tootaaf":12174,"Ġ//":12175,"Ġeessaan":12176,"uugaa":12177,"amtii":12178,"abaan":12179,"ins":12180,"Ġdhorkaa":12181,"Ġsiir":12182,"aÊ¼inaa":12183,"anneerra":12184,"ĠGiz":12185,"Ġwaraqaan":12186,"Ġaddummaa":12187,"gayii":12188,"Ġduris":12189,"ĠQotee":12190,"Ġhojjata":12191,"Kanaa":12192,"Ġjabeessa":12193,"Ġfakkatu":12194,"Ġyaadata":12195,"Ġyaadamu":12196,"ĠRad":12197,"Ġwaaqaa":12198,"Ġfilachuun":12199,"Ġaara":12200,"ishoo":12201,"Ġfalmatan":12202,"Ġfalmachaa":12203,"Ġjijjiiramee":12204,"Ġfagaatee":12205,"Ġxiqqeessuuf":12206,"Ġfayyadu":12207,"Ġfayyadama":12208,"Ġisheetti":12209,"Ġguutamee":12210,"ĠWallaa":12211,"Ġqabsaawuu":12212,"Ġwayyan":12213,"Ġakkanaan":12214,"ĠtaaÊ¼aan":12215,"Ġbarreeffamaa":12216,"Ġyakkamanii":12217,"ĠMiniliki":12218,"Ġpaartiin":12219,"ĠOROMOOTA":12220,"ĠOliiqaa":12221,"Ġorma":12222,"Ġdhiphina":12223,"ĠHindii":12224,"ĠGurmuu":12225,"Ġduraanuu":12226,"Ġwalqun":12227,"ĠHundaaf":12228,"Ġgaraagaraatti":12229,"Ġgaraagarummaan":12230,"Ġeerga":12231,"Ġhiraarfamaa":12232,"Ġatilee":12233,"Ġsummiin":12234,"ĠáĬ¨":12235,"Sagantaan":12236,"Dirqama":12237,"ĠKunoo":12238,"Ġwaalt":12239,"Ġreebaa":12240,"Ġempayera":12241,"ĠDinagdee":12242,"ĠHaile":12243,"Ilaalchi":12244,"Ġsabbon":12245,"ĠInjinar":12246,"Ġhedduminaan":12247,"Ġwalaloon":12248,"ĠJarman":12249,"ĠTorontoo":12250,"Ġbarcuma":12251,"Alaa":12252,"nen":12253,"Ġkit":12254,"Ġkash":12255,"atoon":12256,"Ġjaala":12257,"chaatti":12258,"Ġdhas":12259,"ĠseÊ¼":12260,"ĠOLF":12261,"ĠBurr":12262,"Ġjedhetti":12263,"ĠMaaster":12264,"Ġgarbuu":12265,"ĠGegg":12266,"ĠWan":12267,"ĠSeenaan":12268,"enter":12269,"ifna":12270,"Ġargamuuf":12271,"ĠFay":12272,"ĠQub":12273,"Ġbeektan":12274,"oomanii":12275,"Ġguddataa":12276,"Ġnamtichi":12277,"adhan":12278,"iyam":12279,"Ġnim":12280,"Ġfudhattee":12281,"Ġfakkeessuun":12282,"Ġdhufeen":12283,"Ġkennaniif":12284,"finaa":12285,"rugg":12286,"Ġajjechaa":12287,"Ġhedduumm":12288,"Ġgaggeessanii":12289,"Ġdhaabatanii":12290,"ĠtaÊ¼utti":12291,"Ġedaa":12292,"ashee":12293,"ĠPh":12294,"ĠAfaanii":12295,"Ġdhihaachuu":12296,"Ġqooduun":12297,"Ġtahuus":12298,"Ġduubbee":12299,"Ġalaabaan":12300,"Ġagarra":12301,"Ġbifaa":12302,"Ġdhaamsuu":12303,"Ġwaamuun":12304,"Ġmaliif":12305,"Ġmiseensot":12306,"Waanuma":12307,"amsiisu":12308,"Ġbarbaachisuu":12309,"Ġtolchee":12310,"iyoonaa":12311,"ĠYuuniversiitii":12312,"Ġboruuf":12313,"Namooti":12314,"ĠBiyyattii":12315,"áī¥":12316,"Ġmurteeffatan":12317,"Ġukkaamsuun":12318,"ALEE":12319,"Ġtooftaalee":12320,"mber":12321,"Ġmakaman":12322,"Ġdhangalaasaa":12323,"Hunduu":12324,"Ġdhaabaatti":12325,"Ġwalqabannee":12326,"ĠLeencoon":12327,"Ġmijataa":12328,"Magaalaan":12329,"ĠHagayyaa":12330,"Ġqabsiisanii":12331,"Ġgaazexaa":12332,"Ġhundeeffame":12333,"Ġwaldaalee":12334,"Ġmuddama":12335,"Ġgeej":12336,"cial":12337,"ĠBaankii":12338,"Hawwii":12339,"usliimaa":12340,"ĠAffaar":12341,"ĠAwustiraaliyaa":12342,"Lolli":12343,"ave":12344,"ej":12345,"maatti":12346,"mootummaa":12347,"ress":12348,"ten":12349,"tol":12350,"xa":12351,"xaan":12352,"xata":12353,"yatti":12354,"eeyy":12355,"andh":12356,"Ġdaaw":12357,"Ġdinni":12358,"Ġhis":12359,"Ġbaala":12360,"Ġmork":12361,"Ġmso":12362,"inan":12363,"inaatti":12364,"eessani":12365,"ddo":12366,"ĠAga":12367,"ĠAmaan":12368,"ĠApp":12369,"oonaan":12370,"Ġlagaa":12371,"eefama":12372,"ĠMata":12373,"Ġcite":12374,"ĠGaan":12375,"ayyee":12376,"iisuun":12377,"ĠImpay":12378,"Ġwara":12379,"Ġargataa":12380,"Ġhariiroon":12381,"ĠFran":12382,"eeffannee":12383,"eeffamni":12384,"ĠJahan":12385,"Ġkeessaati":12386,"ĠUff":12387,"Ġshak":12388,"Ġrak":12389,"Ġbooree":12390,"Ġdhuftu":12391,"ĠjalÊ¼":12392,"Ġjalatt":12393,"Ġyaadachuuf":12394,"Ġibsina":12395,"ĠCaayaa":12396,"Ġamanamummaa":12397,"ĠRiy":12398,"Ġbarbaadna":12399,"Ġjechuutu":12400,"Ġoolaa":12401,"Ġooluun":12402,"Ġkeeti":12403,"Ġkeeyy":12404,"ishee":12405,"iberation":12406,"Ġkamiifuu":12407,"tober":12408,"Ġhamileen":12409,"Ġhalgaa":12410,"Ġanatu":12411,"Ġakkanuma":12412,"áĬĲ":12413,"Ġgumaachuun":12414,"ĠBulaa":12415,"Ġdalagamaa":12416,"Ġbayan":12417,"ĠJiran":12418,"allattoo":12419,"Ġtarkaanfachuun":12420,"Ameer":12421,"Hiriirri":12422,"ĠIjoollee":12423,"Ġtajaajiluu":12424,"ĠLammiilee":12425,"ĠMulaatuu":12426,"Ġkurnan":12427,"ĠhundaaÊ¼uun":12428,"Ġgeegg":12429,"Ġgartuulee":12430,"Ġsablammii":12431,"ĠAanolee":12432,"Odoo":12433,"Ġfuudhaa":12434,"Ġyaroon":12435,"Ġqaawwaa":12436,"Ġdheereffachuuf":12437,"ĠEbila":12438,"Ġfedheenuu":12439,"ĠGindabarat":12440,"ĠJaafar":12441,"reaking":12442,"At":12443,"Fak":12444,"LO":12445,"Ofii":12446,"Qaam":12447,"gum":12448,"goota":12449,"gani":12450,"naaf":12451,"saas":12452,"zaa":12453,"âĦ":12454,"Ġdeg":12455,"amal":12456,"Ê¼tti":12457,"aasiif":12458,"ilmaan":12459,"ammoon":12460,"ade":12461,"ĠGumaa":12462,"ĠGabb":12463,"asiin":12464,"ĠDoo":12465,"Ġgurraa":12466,"Ġhobb":12467,"Ġgosaan":12468,"Ġbiyyaalessaa":12469,"ĠKollee":12470,"ĠFront":12471,"Ġgalte":12472,"akkasumas":12473,"Ġdiinaatiin":12474,"awaatti":12475,"Ġjabb":12476,"Ġgahutti":12477,"Ġbuluun":12478,"Ġmagar":12479,"Ġilaaluuf":12480,"Ġdhaabatan":12481,"Ġdhagaan":12482,"Ġjiraatus":12483,"oduu":12484,"ĠPer":12485,"ĠPire":12486,"ĠShaam":12487,"Ġhojjetoota":12488,"Ġdhihaatee":12489,"Ġisheef":12490,"Ġgootee":12491,"amnetti":12492,"ikii":12493,"Ġbilisumaa":12494,"Ġgeggeessu":12495,"Ġafoo":12496,"ĠAdunyaa":12497,"Ġgammachiisaa":12498,"ical":12499,"ĠAbbootiin":12500,"Ġcabsan":12501,"áīħ":12502,"Ġjibbee":12503,"Ġjaarmayoonni":12504,"Ġkabach":12505,"Ġgurguddoon":12506,"Ġwaraanaatti":12507,"oci":12508,"ĠbabalÊ¼achaa":12509,"Ġtokkoomsuu":12510,"Ġbineensaa":12511,"Ġjijjiramaa":12512,"Ġiratti":12513,"ĠHidhaman":12514,"Ġcabe":12515,"ĠKonkol":12516,"Dhuguma":12517,"Ġhintahin":12518,"ĠBaaroon":12519,"oqor":12520,"Miseensonni":12521,"Dargaggoon":12522,"AGGAR":12523,"Ġfulduratti":12524,"Ġwayiituu":12525,"________________________________":12526,"Ġcaqas":12527,"Ġdandeettiin":12528,"Ġsaxil":12529,"ĠMargoo":12530,"âĤ¬âĦ":12531,"âĤ¬âĦ¢":12532,"50":12533,"87":12534,"BS":12535,"CO":12536,"Keessa":12537,"SWO":12538,"der":12539,"fe":12540,"iaa":12541,"ko":12542,"mag":12543,"oodha":12544,"ataas":12545,"amneen":12546,"amullee":12547,"Ġhama":12548,"Ġhiddaan":12549,"Ġbaatuu":12550,"Ġfafa":12551,"Ġtaab":12552,"inis":12553,"Ġwho":12554,"Ġqom":12555,"Ġkanumaan":12556,"Ġfidd":12557,"ĠOromedia":12558,"Ġqabamu":12559,"Ġwalm":12560,"atteen":12561,"ĠDee":12562,"ĠDaaÊ¼":12563,"ĠHassan":12564,"Ġammata":12565,"Ġnutt":12566,"ĠTull":12567,"Ġgalcha":12568,"Ġdhadh":12569,"ayi":12570,"Ġreg":12571,"eegama":12572,"Ġsabootni":12573,"Ġsabaafi":12574,"Ġsoq":12575,"Ġhojjenna":12576,"ooftee":12577,"tember":12578,"ĠEel":12579,"ĠEthi":12580,"Ġhaftee":12581,"âĢ¦âĢ¦..":12582,"Ġafaanota":12583,"Ġcimtuu":12584,"ĠBarattootaa":12585,"Ġjaarsa":12586,"shan":12587,"Ġqoratu":12588,"Ġkuftee":12589,"Ġsaaman":12590,"Ġdadhabu":12591,"Ġbaafate":12592,"Ġadoo":12593,"Ġhamil":12594,"ANA":12595,"ĠfacaÊ¼ee":12596,"Ġdhoksuuf":12597,"Ġfixuuf":12598,"Ġajjeefamu":12599,"Ġhawaasti":12600,"illii":12601,"Ġjibbuu":12602,"Ġachirraa":12603,"Ġulfaataan":12604,"Ġfiniinsu":12605,"Ġsaaxilamee":12606,"Ġtattaf":12607,"Ġreebichi":12608,"laand":12609,"Ġbeekkama":12610,"Ġtuquun":12611,"ĠAddunyaatti":12612,"Ġseeraatti":12613,"Ġhubachiiseera":12614,"Ġlabsaa":12615,"Ġbaatiilee":12616,"ĠBilisummaaf":12617,"Ġdandahan":12618,"ĠMurt":12619,"ILIK":12620,"lammii":12621,"ollow":12622,"ĠMacca":12623,"Ġsarbame":12624,"Ġkuffisuu":12625,"eptember":12626,"Ġkurna":12627,"ĠAmmas":12628,"Akeeki":12629,"áįį":12630,"Ġheeraan":12631,"Ġaadaafi":12632,"ĠDhugaasaa":12633,"Baaroon":12634,"ĠTasfaayee":12635,"oollejjii":12636,"Ġkabachiifachuuf":12637,"ĠPlaanii":12638,"ĠUkkaam":12639,"ĠIsraaÊ¼el":12640,"WUI":12641,"Bifuma":12642,"altalk":12643,"!,":12644,"Arra":12645,"DAA":12646,"Jaarraan":12647,"ctober":12648,"ler":12649,"laama":12650,"xil":12651,"xummii":12652,"ĠfaÊ¼a":12653,"Ġmum":12654,"iniif":12655,"Ê¼uun":12656,"dhoo":12657,"Ġwag":12658,"Ġwonti":12659,"Ġsummaa":12660,"omii":12661,"isun":12662,"una":12663,"Ġodaa":12664,"ĠAdeem":12665,"Ġlaatan":12666,"amman":12667,"ĠGaamb":12668,"ĠDaal":12669,"ĠDoolaara":12670,"Ġturtan":12671,"Ġaddeessee":12672,"Ġofirr":12673,"ĠKa":12674,"ime":12675,"ĠFor":12676,"ĠyaaÊ¼ee":12677,"Ġgalaanaa":12678,"Ġbiraaf":12679,"Ġoliin":12680,"Ġmootum":12681,"ĠâĢľ-":12682,"ĠLafee":12683,"ooftaa":12684,"Ġfakkeessee":12685,"Ġyaadachiisuun":12686,"Ġguuree":12687,"ĠharÊ¼aaf":12688,"Ġamantaan":12689,"sion":12690,"awwaa":12691,"ĠRiyaad":12692,"Ġfufna":12693,"Ġijaarsaa":12694,"Ġegg":12695,"Ġqabanis":12696,"Dhaam":12697,"egger":12698,"Ġqooph":12699,"ĠAddisuu":12700,"Ġkufaatiin":12701,"Ġsochiilee":12702,"Ġmirkaneessanii":12703,"Ġhawwamu":12704,"áĪĭ":12705,"Ġjijjiirame":12706,"Ġ2002":12707,"Ġtheir":12708,"ĠOromummaarratti":12709,"isiisanii":12710,"Ġdiiganii":12711,"Haadha":12712,"ĠIlma":12713,"Ġface":12714,"Ġyoomillee":12715,"ĠZen":12716,"Ġmootummaatiin":12717,"Ġdalagu":12718,"ĠJiruu":12719,"ĠJiraat":12720,"ppii":12721,"Ġsareen":12722,"Ġdhagahu":12723,"obi":12724,"Ġbalaaleffatan":12725,"Ġyaaddoon":12726,"Ġdippil":12727,"Ġdandaye":12728,"Ġguuramaa":12729,"tokkee":12730,"Ġijaarrachuu":12731,"ooyyee":12732,"ĠWayyaane":12733,"ĠUmmataaf":12734,"ĠTuulama":12735,"Ġwojjiin":12736,"ĠMaccaafi":12737,"Ġmeesha":12738,"Hawaasi":12739,"Ġramadame":12740,"ĠMuslimaa":12741,"ĠIlaalcha":12742,"Ġxixiqqaa":12743,"aakkof":12744,"ĠlakkaaÊ¼amu":12745,"Ġadeema":12746,"Kabajaa":12747,"ĠolÊ¼aantummaa":12748,"Ġayyaanaa":12749,"Ġhaamilee":12750,"Itiyoophiyaa":12751,"Ġqondaala":12752,"ĠKafichoo":12753,"Ġfundur":12754,"ĠEebbisaa":12755,"!?":12756,"56":12757,"99":12758,"BA":12759,"RE":12760,"ces":12761,"hanga":12762,"udii":12763,"Ġdool":12764,"aratti":12765,"araalaa":12766,"amtan":12767,"Ġgees":12768,"Ġgitu":12769,"irree":12770,"Ġfe":12771,"ĠfaÊ¼aa":12772,"Ġtaatanii":12773,"Ġwww":12774,"Ġwell":12775,"ĠOmoo":12776,"yyis":12777,"Ġjiratan":12778,"Ġjiraann":12779,"ĠAkeek":12780,"aashaa":12781,"ahanii":12782,"ĠGADAA":12783,"leet":12784,"ĠSul":12785,"achuudha":12786,"ĠQEERROO":12787,"Ġdhadd":12788,"ooless":12789,"Ġguddisaa":12790,"Ġuummaata":12791,"Ġdarba":12792,"ĠUlee":12793,"eesina":12794,"Ġdhabuudha":12795,"ĠYKN":12796,"Ġbahii":12797,"Ġjabduu":12798,"Ġgaheera":12799,"Ġkenninu":12800,"Ġyaadachiifna":12801,"arraaqaa":12802,"Ġijaaramaa":12803,"chisuun":12804,"Ġjiraattoota":12805,"Ġmoofaa":12806,"ĠDhiig":12807,"Ġjalqabne":12808,"ĠmulÊ¼atuu":12809,"ĠAbra":12810,"Ġdhaamna":12811,"Ġdaand":12812,"ĠAdaree":12813,"Ġdhaqu":12814,"Ġdhaquun":12815,"ĠbuqqaÊ¼ee":12816,"ĠXumur":12817,"Ġgammachiisu":12818,"Ġajjeesuuf":12819,"ĠGalaasaa":12820,"Ġbarreeffamee":12821,"oleeraa":12822,"enyi":12823,"AANAA":12824,"Ġmindaa":12825,"sitoota":12826,"ĠBiraanuu":12827,"Ġhagana":12828,"ĠkaaÊ¼e":12829,"Ġkafalaa":12830,"Ġgalaafate":12831,"ĠBaqqalaan":12832,"Jecha":12833,"Ġgeggeessame":12834,"ĠJawar":12835,"Ġwaaqeff":12836,"Filannoon":12837,"Dirree":12838,"ĠSHG":12839,"Ġcehumsaa":12840,"ustirii":12841,"Ġartistoota":12842,"Ġlaallu":12843,"ĠGeetaachoo":12844,"Ġmalaamm":12845,"ajaajila":12846,"ĠWaashing":12847,"Ġlaayyootti":12848,"Ġitiyoophiyaa":12849,"evelopment":12850,"88":12851,"En":12852,"QC":12853,"UMN":12854,"dummaa":12855,"tsi":12856,"Ġama":12857,"Ġver":12858,"Ġ==============":12859,"Ġkaach":12860,"Ġdaa":12861,"Ġhaaf":12862,"Ġimp":12863,"Ġbiy":12864,"Ġtulluu":12865,"Ġmeshaa":12866,"ssin":12867,"Ġsum":12868,"ummaasaa":12869,"Ġislaamaa":12870,"Ġkeessummaa":12871,"ĠBaa":12872,"ĠBuu":12873,"Ġcirr":12874,"attani":12875,"ĠKab":12876,"Ġduraatiif":12877,"Ġisaaniituu":12878,"Ġgaafan":12879,"neapolis":12880,"Ġbeekaan":12881,"Ġbeeksisaa":12882,"Ġyeroodhaaf":12883,"Ġbiroof":12884,"Ġabdi":12885,"ttaan":12886,"uÊ¼eel":12887,"Ġdubbatamaa":12888,"iÊ¼ii":12889,"Ġhankaak":12890,"ĠAmantaa":12891,"Ġbultu":12892,"Ġyaadatamaa":12893,"Ġrakkataa":12894,"qqoo":12895,"Ġhafnaan":12896,"Ġdhageey":12897,"Ġfilatanii":12898,"ĠWallee":12899,"ĠAraaraa":12900,"ike":12901,"Ġerge":12902,"Ġdadhabs":12903,"Ġfurmaati":12904,"Ġxumuramu":12905,"Ġjiraachisuu":12906,"Ġfalmachuun":12907,"ĠIntarnee":12908,"Baratt":12909,"Ġadaraa":12910,"Ġxiqqaan":12911,"Ġijooll":12912,"INILIK":12913,"Ġgalmeessee":12914,"Ġguutummatti":12915,"Ġmudataa":12916,"Ġcufamee":12917,"Ġdagachuun":12918,"Ġmiidhuu":12919,"aÊ¼udii":12920,"ĠBiyyaalessaa":12921,"Ġqindeessee":12922,"iillee":12923,"Maaltu":12924,"Ġxiyyeeffatu":12925,"Ġxiyyeeffachuun":12926,"Ġjajjabeessaa":12927,"Ġtasumaa":12928,"Ġjirtanitti":12929,"Ġgalchanii":12930,"ĠHumnoota":12931,"ĠOroom":12932,"Ġafurtama":12933,"Ġlagachuun":12934,"Ġhiraarsuu":12935,"196":12936,"ĠGamtaan":12937,"Ġijjannoo":12938,"ĠdaaÊ¼im":12939,"Ġ1960":12940,"ĠKabajame":12941,"Dargaggoo":12942,"Ġmanguddoota":12943,"ĠFalm":12944,"ANNI":12945,"Eenyu":12946,"Ġgooftaa":12947,"Ġakeekkatee":12948,"Wallagga":12949,"Ġsuukann":12950,"Ġkannen":12951,"Ġeddu":12952,"IYYAA":12953,"ĠMaandeellaan":12954,"Ġuniversity":12955,"ĠKibbaatti":12956,"ĠIyaasuu":12957,"ĠZeenaawii":12958,"UQQ":12959,"ĠAhimad":12960,"32":12961,"Ak":12962,"Dim":12963,"Hay":12964,"Miidhaa":12965,"erri":12966,"hol":12967,"loo":12968,"laaf":12969,"ochuu":12970,"qi":12971,"ys":12972,"zation":12973,"Ġdik":12974,"Ġhurr":12975,"Ġhulluu":12976,"Ġbeenyaa":12977,"umaatti":12978,"ĠwaÊ¼ee":12979,"Ġqaal":12980,"Ġqoma":12981,"isif":12982,"ddiin":12983,"Ġnarratti":12984,"Ġqabuudha":12985,"ĠAz":12986,"ĠAjjeechaa":12987,"ĠAangoo":12988,"aatte":12989,"Ġbarannu":12990,"ooniin":12991,"Ġlu":12992,"Ġlaphee":12993,"ĠBantii":12994,"ĠGuraa":12995,"ĠDag":12996,"iisee":12997,"ĠSaayinsii":12998,"Ġhora":12999,"Ġwarqee":13000,"ĠKoom":13001,"ĠKos":13002,"amanitti":13003,"Ġargatte":13004,"tuulummaa":13005,"ĠQajeel":13006,"Ġgaafannee":13007,"oomu":13008,"Ġgodhaniiru":13009,"Ġheddutti":13010,"aannisa":13011,"Ġshubb":13012,"ĠLiyyuu":13013,"oofte":13014,"Ġfakkeessuu":13015,"Ġilaalama":13016,"Ġoromooti":13017,"Ġeegallee":13018,"Ġsanaatti":13019,"ĠkaÊ¼uudhaan":13020,"Ġmiseensaa":13021,"Ġdhiibaa":13022,"Ġtaasisaniin":13023,"rek":13024,"Ġfedhanitti":13025,"Ġmurteessee":13026,"Ġdabarsine":13027,"Ġfurtuu":13028,"Ġnyaachuuf":13029,"Ġabboolii":13030,"Walgahiin":13031,"eessuufi":13032,"Ġgeggeef":13033,"ĠYuunib":13034,"Ġgaafadha":13035,"Ġballeesse":13036,"Ġbarnotaa":13037,"Ġmudateen":13038,"Ġmilkeessuu":13039,"Ġbarreeffata":13040,"Maali":13041,"Ġtakkallee":13042,"Ġtarkaanfilee":13043,"ĠDirqama":13044,"Ġejje":13045,"Ġhaqamuu":13046,"Ġbalaaleffanna":13047,"Ġobbolummaa":13048,"namtiin":13049,"Ġdiaspora":13050,"Ġkadhachuu":13051,"Ġdandaya":13052,"Ġwallaaluu":13053,"Ġguuramanii":13054,"Ġcichanii":13055,",,,":13056,"ĠtoÊ¼annoo":13057,"Ġabaaruu":13058,"Ġsodaachisu":13059,"ĠUmurii":13060,"iroobii":13061,"ĠJuneey":13062,"Daandiin":13063,"Ġurjii":13064,"Ġsaffisaan":13065,"Ġgaragaraatti":13066,"ĠUsm":13067,"ĠHuss":13068,"Ġdiplomaasii":13069,"Ġxalayaan":13070,"Siyaasa":13071,"ĠTeediroos":13072,"ĠDheeressaa":13073,"iyeemii":13074,"ĠBayyanaa":13075,"ĠGiincii":13076,"49":13077,"?,":13078,"Aangoo":13079,"Bal":13080,"Iddoo":13081,"KAN":13082,"Maaf":13083,"Ykn":13084,"barsiitii":13085,"https":13086,"laall":13087,"taraa":13088,"Ä±":13089,"Ġbii":13090,"Ġgumaan":13091,"Ġfed":13092,"chiisa":13093,"Ġwaay":13094,"Ġsaayin":13095,"oms":13096,"Ġolee":13097,"ĠAraa":13098,"ĠjeÊ¼ee":13099,"aatawa":13100,"Ġwalc":13101,"rakk":13102,"ĠBIYYA":13103,"ĠMahaammad":13104,"ĠGub":13105,"Ġjirutu":13106,"ĠDibaa":13107,"ĠSin":13108,"otaatti":13109,"Ġgugudd":13110,"Ġofitt":13111,"eektaara":13112,"Ġharraa":13113,"Ġtahullee":13114,"amuus":13115,"Ġhidhaatii":13116,"arru":13117,"Ġakki":13118,"Ġmuraasaa":13119,"Ġfudhatani":13120,"ĠEgaa":13121,"Ġyaadach":13122,"Ġyaadatu":13123,"Ġyaadachiis":13124,"Ġijaaramte":13125,"akar":13126,"Ġ38":13127,"Ġcimina":13128,"Ġcimsu":13129,"Ġummataatti":13130,"Ġeey":13131,"Ġdirqisiif":13132,"Ġkeetiin":13133,"Ġhooda":13134,"Ġqabso":13135,"likk":13136,"Ġbaqachuu":13137,"Ġdabalamee":13138,"Ġnyaatanii":13139,"Ġsaamame":13140,"Ġfalmiin":13141,"emb":13142,"ĠXalayaa":13143,"Ġijoollummaa":13144,"ther":13145,"Ġdabruun":13146,"Ġtuffiin":13147,"Ġmagaalatti":13148,"áī£":13149,"ommiin":13150,"Ġtorbaa":13151,"Ã£f":13152,"ĠqabsaaÊ¼an":13153,"ALL":13154,"Ġtattaaffiin":13155,"Ġgayu":13156,"ĠItophiyaan":13157,"Ġdhibe":13158,"ebru":13159,"ĠBooran":13160,"Ġkomee":13161,"Ġ!âĢĿ":13162,"Ġdhiphuu":13163,"ĠObseen":13164,"Ġkaafne":13165,"chiisu":13166,"Ġwalqix":13167,"Ġdagaagaa":13168,"ect":13169,"Ġgeessisaa":13170,"Ġmiilla":13171,"Ġmuummiyyeewwan":13172,"ĠFufa":13173,"ĠPaarlaamaa":13174,"Beekan":13175,"Ġqabnuun":13176,"ĠSHAGGAR":13177,"Ġsanyummaa":13178,"Ġtaye":13179,"Ġhudhee":13180,"Ġgateettii":13181,"Itiyoophiyaan":13182,"ĠDirribaa":13183,"Ġdaggala":13184,"Ġwarraqsaa":13185,"ĠYusuuf":13186,"Ġqirc":13187,"ATION":13188,"ĠCairo":13189,"ĠWallaaggaa":13190,"Ana":13191,"GG":13192,"Hiree":13193,"IV":13194,"Seer":13195,"Wol":13196,"baaf":13197,"fer":13198,"fanne":13199,"kam":13200,"Ġ>>":13201,"eesa":13202,"ance":13203,"Ġkitti":13204,"Ġdawaa":13205,"Ġhalaa":13206,"Ġhadoo":13207,"inxoo":13208,"Ġwogg":13209,"Ġdharaan":13210,"omsaa":13211,"Ġkani":13212,"ageenyaan":13213,"ero":13214,"ĠBaab":13215,"ĠBadii":13216,"Ġcaph":13217,"Ġgaramitti":13218,"Ġisaantu":13219,"ĠWaar":13220,"ĠWay":13221,"asuus":13222,"Ġgubuu":13223,"ĠhoÊ¼aan":13224,"Ġbiyyuummaa":13225,"Ġkunii":13226,"Ġisaaniitii":13227,"ĠQonnaan":13228,"Ġdabala":13229,"oomsa":13230,"aayaan":13231,"Ġrel":13232,"Ġakkaataan":13233,"Ġjiranillee":13234,"Ġgodhaman":13235,"Ġdhaabbatuuf":13236,"ĠYakka":13237,"Ġjabiina":13238,"Ġtibb":13239,"Ġtibba":13240,"usee":13241,"Ġaanuu":13242,"ĠbuÊ¼iinsi":13243,"Ġbaasuudhaan":13244,"sident":13245,"Ġdhaabichi":13246,"Ġbarrees":13247,"âĢ¦âĢ¦âĢ¦":13248,"Ġalaas":13249,"ĠPor":13250,"Ġuumaman":13251,"Ġhoree":13252,"Ġhammaachaa":13253,"ĠBaratoota":13254,"angul":13255,"Ġdhugaadha":13256,"ĠItoopiyaa":13257,"Ġwajjira":13258,"ugee":13259,"Waliin":13260,"ĠAdan":13261,"áĪ«":13262,"Ġkeessaniin":13263,"Ġbuusii":13264,"ariisa":13265,"Ġtolfame":13266,"Ġhoje":13267,"Ġcunqursaan":13268,"Ġkaraalee":13269,"aawwii":13270,"ĠHabashaan":13271,"Ġfaarf":13272,"Ġdhuunfate":13273,"Ġdabrerraa":13274,"Ġhaqaan":13275,"Ġdoormii":13276,"Ġcunqurfamaa":13277,"ĠâĢ¦..":13278,"usliim":13279,"Ġwaajjirri":13280,"Ġtooh":13281,"ĠfeÊ¼ame":13282,"Ġargatutti":13283,"fufa":13284,"Jiruu":13285,"Ġsakattaa":13286,"Ġmuummichi":13287,"Ġhirmaattota":13288,"Ġqanc":13289,"Lammiiwwan":13290,"ĠIRRATTI":13291,"Ġguuttachuuf":13292,"Ġheedduun":13293,"Ġbineensota":13294,"Ġsafar":13295,"Ġbeeksifna":13296,"ĠDimookir":13297,"ĠnidandaÊ¼ama":13298,"Ġlakkaawwaman":13299,"ĠEjjennoo":13300,"Ġhinhaf":13301,"ĠDimokraasii":13302,"ĠItiy":13303,"Ġdoofummaa":13304,"Dhaadannoo":13305,"ĠAmharic":13306,"Ġdamaq":13307,"44":13308,":âĢĵ":13309,"BEEK":13310,"Ir":13311,"Kar":13312,"Salph":13313,"birr":13314,"can":13315,"dal":13316,"taÊ¼":13317,"Ġkill":13318,"Ġdeeffachuu":13319,"arittii":13320,"atis":13321,"abba":13322,"Ġjiddug":13323,"Ġqilee":13324,"isnee":13325,"niyaa":13326,"aÊ¼ina":13327,"iloota":13328,"Ġwalxaxaa":13329,"ĠBEEK":13330,"Ġjedhin":13331,"Ġjedhamuuf":13332,"ĠMOA":13333,"ĠMangudd":13334,"ĠMammoo":13335,"Ġcarr":13336,"asoo":13337,"ĠDook":13338,"ĠHA":13339,"ĠHara":13340,"ĠHalloo":13341,"ĠhoÊ¼":13342,"Ġgow":13343,"iftu":13344,"Ġgaafatuu":13345,"Ġdhaww":13346,"Ġraas":13347,"Ġhojjatamuu":13348,"essoo":13349,"ĠLag":13350,"Ġdhuga":13351,"qabeess":13352,"Ġgahin":13353,"!!âĢĿ":13354,"ĠEn":13355,"Ġilaale":13356,"Ġsadoo":13357,"Ġsangaa":13358,"ative":13359,"Ġbarattonni":13360,"immaa":13361,"Ġdhugumaan":13362,"ĠAfur":13363,"iqqoo":13364,"ĠQabu":13365,"ĠQabeenyaa":13366,"Ġgeggeesse":13367,"Ġafeerra":13368,"eeysan":13369,"Ġinjifatee":13370,"Ġthey":13371,"Ġtolche":13372,"ĠGalii":13373,"Ġgaddis":13374,"Ġgamnummaa":13375,"Ġhordo":13376,"Ġiyyaaf":13377,"Ġajjeefamuun":13378,"Ġakkanumatti":13379,"Ġdabareen":13380,"Ġgochuudhaan":13381,"ĠMinilikiin":13382,"Ġbayanii":13383,"Ġreebamuu":13384,"Ġtasuma":13385,"ĠDirre":13386,"Ġhidhannootti":13387,"Ġgarboomfataa":13388,"Ġdhukaasuun":13389,"Ġhindag":13390,"Ġayyaanichaa":13391,"ĠAsab":13392,"Ġhagas":13393,"ĠAmaaraas":13394,"Eegaa":13395,"ĠáĬĲ":13396,"Ġeebbifame":13397,"Ġwords":13398,"ĠBarruu":13399,"Ġjabeeffatee":13400,"ĠceÊ¼uu":13401,"ĠceÊ¼umsaa":13402,"????????":13403,"Ġgaggeessinu":13404,"Ġijaarree":13405,"Jijjiiramni":13406,"Ġwixinee":13407,"Ġhomaatuu":13408,"Irreechi":13409,"Halkan":13410,"Ġmilishaa":13411,"alaalam":13412,"ĠJaagamaa":13413,"AANNOO":13414,".,":13415,"Arr":13416,"Ajjeechaan":13417,"MA":13418,"Mall":13419,"Qubeen":13420,"SQ":13421,"Tol":13422,"Tattaaf":13423,"mbass":13424,"nus":13425,"orr":13426,"paa":13427,"Ġkaaw":13428,"Ġdame":13429,"Ġhadha":13430,"Ġqaall":13431,"Ġsec":13432,"eesseera":13433,"oottii":13434,"Ġnum":13435,"Ġqabenyaa":13436,"Ġkeessaaf":13437,"Ġbarm":13438,"mmaan":13439,"annuun":13440,"ĠBeel":13441,"ĠBash":13442,"ĠMaaf":13443,"Ġcuu":13444,"Ġciviliz":13445,"uld":13446,"ĠDig":13447,"ĠDiddaan":13448,"ĠKumaa":13449,"ĠTakk":13450,"ĠTeek":13451,"Ġduraaf":13452,"Ġdhibuu":13453,"ĠQaam":13454,"ichaas":13455,"ooleessaa":13456,"Ġjechaan":13457,"Ġbahaatti":13458,"uulaa":13459,"ajji":13460,"Ġdhaloot":13461,"eelii":13462,"ĠRaayit":13463,"Ġfufuudhaan":13464,"Ġjiraatuuf":13465,"Ġeyy":13466,"Ġisinis":13467,"Ġhorachuun":13468,"Ġraawwii":13469,"Ġhammana":13470,"Ġhammataa":13471,"Ġlolan":13472,"Ġhoog":13473,"ĠhooÊ¼aa":13474,"effatan":13475,"Ġamaloota":13476,"Ġaggaa":13477,"Ġdabalanii":13478,"suufi":13479,"Ġ49":13480,"Ġafuuf":13481,"eeqatu":13482,"Ġdadhabsiisuuf":13483,"Ġeegalte":13484,"Ġfagaate":13485,"Ġgaggeeffamuu":13486,"Ġqalama":13487,"Ġfacaasan":13488,"ophaa":13489,"Ġdagatanii":13490,"Sham":13491,"Ġeeggamu":13492,"ĠHojiin":13493,"Ġgurmeessuu":13494,"Ġmurteeffate":13495,"Ġqajeelf":13496,"Ġreebuu":13497,"Ġmaxxanfame":13498,"Ġdhagahamaa":13499,"ĠMararaan":13500,"Ġgadiiti":13501,"Ġawwal":13502,"ĠsossoÊ¼aa":13503,"ĠBirh":13504,"Ġoofu":13505,"ĠOrmoo":13506,"Ġfuulduraa":13507,"Ġbineen":13508,"Ġhojjetame":13509,"Ġhojjetamuu":13510,"Ġgoodh":13511,"kunis":13512,"ĠKong":13513,"ĠdhagaÊ¼amu":13514,"ĠhirÊ¼ina":13515,"Ġissa":13516,"Ġbaraaruu":13517,"Ġhaleeluun":13518,"ĠNaqamteetti":13519,"Ġhinbeeku":13520,"Ġurg":13521,"Ġinvest":13522,"ĠWoyyaaneen":13523,"Ġkaroorfate":13524,"Ġsagantaalee":13525,"ĠGoojj":13526,"ĠMagaalota":13527,"Ġkofal":13528,"ĠGaaddisaa":13529,"ĠILAAL":13530,"Ġafaanfaajj":13531,"Fedhii":13532,"Ġduguuggii":13533,"ĠBokkuu":13534,"Ġkolleejjii":13535,"inikeeshinii":13536,"Keessumaayuu":13537,"Ġmataduree":13538,"Ġhedduumminaan":13539,")âĢĿ":13540,"++":13541,"100":13542,"Aj":13543,"Bin":13544,"Boruu":13545,"Breaking":13546,"FUU":13547,"Ka":13548,"Lakkii":13549,"OLF":13550,"Ragaa":13551,"Saam":13552,"doota":13553,"juun":13554,"lama":13555,"atichi":13556,"tiv":13557,"Ġbi":13558,"Ġjaam":13559,"umee":13560,"umaayyuu":13561,"Ê¼aana":13562,"Ġdhin":13563,"Ġsp":13564,"eenni":13565,"yyoon":13566,"urop":13567,"Ġisarra":13568,"Ġqabata":13569,"ĠArr":13570,"Ġbaruun":13571,"Ġbaraaf":13572,"erv":13573,"ĠBit":13574,"ĠMen":13575,"Ġcr":13576,"ulture":13577,"ĠDandii":13578,"Ġittif":13579,"aqab":13580,"Ġturtii":13581,"ĠIshee":13582,"ĠHR":13583,"ĠHaf":13584,"akkoo":13585,"Ġaddaaf":13586,"Ġdeeg":13587,"ĠKoomish":13588,"Ġgaafatame":13589,"ameedha":13590,"kaayyoo":13591,"arsiif":13592,"Ġhubannoon":13593,"Ġsirra":13594,"aaÊ¼iin":13595,"ĠLama":13596,"Ġilaaleen":13597,"Ġeegalle":13598,"Ġibsachaa":13599,"Ġdhalche":13600,"Ġpere":13601,"Ġjedhutu":13602,"Ġhimi":13603,"Ġbobaa":13604,"abbuu":13605,"chisan":13606,"efer":13607,"Ġmooh":13608,"Ġdhiitaa":13609,"Ġ37":13610,"Ġaada":13611,"Ġraawwachuun":13612,"Ġqooduu":13613,"Ġtarkaanfi":13614,"Ġlolaan":13615,"shorork":13616,"ĠMinneapolis":13617,"Ġadaba":13618,"Ġtarkaanfiilee":13619,"Ġbarnoonni":13620,"aashii":13621,"Ġqonna":13622,"Ġcufuu":13623,"Ġdaganne":13624,"Ġtajaj":13625,"Ġdabarte":13626,"Ġmootummichi":13627,"Ġyakkee":13628,"Ġdacha":13629,"ĠMinilikii":13630,"Ġmaxxans":13631,"Ġmaxxansuu":13632,"Ġmaxxansuun":13633,"Ġgayuuf":13634,"jiru":13635,"Ġmeeqaa":13636,"Ġargamti":13637,"Ibsi":13638,"ĠbabalÊ¼atee":13639,"ĠkaaÊ¼uu":13640,"ĠNagawoo":13641,"Ġbadhaase":13642,"Ġutaal":13643,"ĠIrranaa":13644,"Ġhabashootaa":13645,"Ġkumaatama":13646,"UTAA":13647,"ĠdeddeebiÊ¼anii":13648,"Ġwaaqni":13649,"ĠMuslima":13650,"Ġadeemsise":13651,"Ġdhaammanna":13652,"Ġkirist":13653,"ĠQABSOO":13654,"Ġsiyaasaatiin":13655,"ĠBadhaasaa":13656,"Ġqabsiifame":13657,"Ġwaajjiraalee":13658,"ĠOgaaden":13659,"Ġmiindaa":13660,"mirga":13661,"Ġsharaf":13662,"IISUU":13663,"Ġatattamaan":13664,"ĠKofalee":13665,"ĠAmnesty":13666,"ruggle":13667,"31":13668,"?.":13669,"Barsiis":13670,"Dogogg":13671,"Ethiopia":13672,"Hol":13673,"Jaw":13674,"Kitaaba":13675,"Lubbuu":13676,"Namuu":13677,"Qabs":13678,"Tof":13679,"diy":13680,"fannee":13681,"uqur":13682,"Ġ&":13683,"Ġ'":13684,"ating":13685,"Ġhaxx":13686,"Ġbuul":13687,"Ġjoon":13688,"Ġwanna":13689,"Ġweedd":13690,"ome":13691,"ummata":13692,"Ġjiras":13693,"ĠOromon":13694,"ĠOromiy":13695,"Ġhindeeb":13696,"âĢı":13697,"Ġyuun":13698,"Ġbaranna":13699,"ĠBaah":13700,"ĠBush":13701,"aaruun":13702,"iyaas":13703,"ĠMII":13704,"Ġgarboon":13705,"ĠWaaree":13706,"Ġartii":13707,"ĠSalph":13708,"ĠSaÊ¼udii":13709,"Ġgut":13710,"Ġgurri":13711,"Ġbiyyatt":13712,"Ġofuma":13713,"ĠKaay":13714,"ĠTr":13715,"ĠFiq":13716,"Ġbeekutti":13717,"Ġbirootiin":13718,"Ġdabra":13719,"Ġseenin":13720,"Ġhubachiisaa":13721,"ĠNagaan":13722,"Ġdeemnee":13723,"Ġdeemsisaa":13724,"ĠtaÊ¼uudha":13725,"Ġtinn":13726,"rica":13727,"Ġpire":13728,"Ġsadaffaan":13729,"ajaj":13730,"Ġdhaabne":13731,"Ġdhagayaa":13732,"Ġbarattuu":13733,"Ġfufinsaan":13734,"Ġkabaju":13735,"Ġkabajan":13736,"Ġdhiibee":13737,"Ġqopheessanii":13738,"Ġ3000":13739,"Ġhoratan":13740,"Ġhortee":13741,"Ġwareegamaan":13742,"ĠArbaa":13743,"Ġasxaa":13744,"ĠItooph":13745,"Ġamaaraa":13746,"Ġnagaatti":13747,"Ġafars":13748,"Ġwaamuu":13749,"Ġdadhabina":13750,"IIG":13751,"Ġbaaftee":13752,"Ġbobbaas":13753,"Ġxiqqo":13754,"Ġgaarr":13755,"Ġjaarmolee":13756,"Ġdiigamee":13757,"Ġkutanii":13758,"ĠYuunivarsii":13759,"Ġachiin":13760,"Ġbaankii":13761,"Ġeeggatee":13762,"Ġgurmeessee":13763,"Ġgurgurtaa":13764,"Ġsuur":13765,"Maalif":13766,"Ġxiyyeeffachuu":13767,"Ġxiyyeeffannoon":13768,"Ġhuj":13769,"Ġbeeksisaniiru":13770,"Ġhaarsaa":13771,"ettii":13772,"Ammaaf":13773,"Rakkoolee":13774,"ĠAbdallaa":13775,"Ġoofuun":13776,"Ġwaltahuun":13777,"omaayaa":13778,"Barruun":13779,"âĢ¬-":13780,"Ġcabsaa":13781,"Ġfiigicha":13782,"ĠIngli":13783,"Ġ1983":13784,"Ġboordii":13785,"Ġhacuuc":13786,"Ġnuff":13787,"hubannoo":13788,"ĠMilkii":13789,"ĠJunedd":13790,"ĠFederaalawaa":13791,"Ġqubaa":13792,"Ġbineensummaa":13793,"ĠTasfaahuun":13794,"ĠMuummicha":13795,"ĠMinistira":13796,"Ġshaffisaan":13797,"ĠMiidh":13798,"Ġlakkoobsa":13799,"Ġeng":13800,"Ġriphee":13801,"ĠDoorii":13802,"ĠLiibiyaa":13803,"Ġinterneetii":13804,"timentii":13805,"Ġsadarka":13806,"Ġelek":13807,"ĠMaaÊ¼ikalaa":13808,"ĠNetherlands":13809,"ĠGuraagee":13810,"ebruary":13811,"Baan":13812,
[...]
